<unk>	0
<pad>	0
<s>	0
</s>	0
▁t	-0
in	-1
▁a	-2
he	-3
re	-4
on	-5
▁the	-6
er	-7
at	-8
en	-9
▁c	-10
▁s	-11
it	-12
▁o	-13
an	-14
es	-15
is	-16
▁w	-17
al	-18
▁p	-19
or	-20
▁b	-21
▁in	-22
▁f	-23
ed	-24
nd	-25
ing	-26
▁to	-27
ic	-28
▁m	-29
ar	-30
ion	-31
▁of	-32
ro	-33
▁d	-34
▁and	-35
ou	-36
▁th	-37
ent	-38
▁e	-39
le	-40
st	-41
▁h	-42
▁re	-43
om	-44
▁n	-45
il	-46
ve	-47
ly	-48
as	-49
▁l	-50
▁be	-51
ct	-52
▁g	-53
ut	-54
▁is	-55
ol	-56
ation	-57
▁that	-58
▁T	-59
im	-60
▁A	-61
ce	-62
se	-63
ver	-64
▁de	-65
ot	-66
ur	-67
ra	-68
▁for	-69
ment	-70
▁I	-71
ld	-72
ig	-73
id	-74
ow	-75
et	-76
▁it	-77
▁on	-78
▁C	-79
ies	-80
▁st	-81
nt	-82
ch	-83
ad	-84
▁pro	-85
▁u	-86
ill	-87
▁B	-88
ate	-89
▁con	-90
ir	-91
ul	-92
▁E	-93
ore	-94
▁–	-95
▁S	-96
▁as	-97
pe	-98
▁The	-99
ers	-100
ith	-101
est	-102
▁wh	-103
ity	-104
▁r	-105
▁al	-106
▁cou	-107
▁su	-108
her	-109
▁ex	-110
lo	-111
ge	-112
▁with	-113
▁are	-114
ort	-115
ay	-116
ist	-117
ab	-118
con	-119
ess	-120
▁an	-121
▁ne	-122
ial	-123
▁U	-124
th	-125
res	-126
ain	-127
ive	-128
us	-129
▁ha	-130
ter	-131
▁not	-132
if	-133
▁com	-134
iv	-135
am	-136
▁we	-137
ke	-138
▁by	-139
▁Ch	-140
▁has	-141
conom	-142
em	-143
▁have	-144
▁M	-145
ac	-146
ould	-147
pp	-148
▁se	-149
▁le	-150
▁will	-151
▁sh	-152
▁pol	-153
▁econom	-154
and	-155
qu	-156
ust	-157
▁W	-158
▁Chin	-159
▁wor	-160
uro	-161
▁P	-162
oc	-163
um	-164
▁en	-165
▁v	-166
igh	-167
▁count	-168
rom	-169
▁F	-170
over	-171
op	-172
ost	-173
ant	-174
ap	-175
ical	-176
▁im	-177
▁from	-178
▁countr	-179
▁at	-180
os	-181
▁G	-182
ia	-183
ions	-184
▁or	-185
▁more	-186
▁its	-187
od	-188
▁ch	-189
art	-190
iz	-191
▁he	-192
▁“	-193
▁y	-194
▁their	-195
ure	-196
ome	-197
ast	-198
ong	-199
▁China	-200
▁2	-201
▁Euro	-202
ib	-203
▁Europe	-204
ans	-205
▁inc	-206
un	-207
▁int	-208
▁But	-209
ff	-210
▁imp	-211
ther	-212
▁un	-213
el	-214
▁res	-215
row	-216
▁R	-217
red	-218
ich	-219
ear	-220
▁In	-221
anc	-222
ru	-223
▁would	-224
ak	-225
ect	-226
▁N	-227
mer	-228
▁this	-229
end	-230
▁ad	-231
gh	-232
pt	-233
all	-234
ight	-235
▁ab	-236
▁can	-237
▁was	-238
overn	-239
ary	-240
ance	-241
▁ag	-242
▁US	-243
▁20	-244
▁1	-245
▁cont	-246
▁they	-247
▁than	-248
able	-249
▁countries	-250
du	-251
ric	-252
▁which	-253
▁govern	-254
ous	-255
▁fin	-256
out	-257
cc	-258
ational	-259
ard	-260
▁O	-261
▁all	-262
rou	-263
▁D	-264
ip	-265
ates	-266
▁comp	-267
ud	-268
ated	-269
▁Th	-270
ign	-271
ark	-272
ations	-273
▁whe	-274
ere	-275
▁grow	-276
ank	-277
▁world	-278
▁exp	-279
▁year	-280
▁(	-281
▁rec	-282
ult	-283
ress	-284
▁man	-285
bal	-286
▁fa	-287
▁government	-288
ie	-289
▁j	-290
ven	-291
ike	-292
▁economic	-293
lic	-294
▁H	-295
orm	-296
one	-297
▁do	-298
▁polic	-299
▁but	-300
▁dis	-301
reat	-302
ide	-303
▁tr	-304
▁part	-305
ence	-306
lobal	-307
▁polit	-308
▁bec	-309
▁pl	-310
▁inv	-311
▁new	-312
ag	-313
▁been	-314
ris	-315
▁out	-316
▁reg	-317
ub	-318
▁other	-319
og	-320
▁so	-321
age	-322
ine	-323
ree	-324
ors	-325
▁pe	-326
▁me	-327
▁dec	-328
▁L	-329
arket	-330
ile	-331
▁over	-332
ep	-333
▁As	-334
ime	-335
▁global	-336
ction	-337
lop	-338
velop	-339
are	-340
▁Un	-341
▁growth	-342
ll	-343
▁lead	-344
ack	-345
▁tra	-346
▁one	-347
▁J	-348
ose	-349
so	-350
form	-351
▁inter	-352
meric	-353
ower	-354
ian	-355
ally	-356
ens	-357
▁ris	-358
▁ind	-359
ren	-360
ition	-361
erm	-362
▁need	-363
▁und	-364
▁financ	-365
▁K	-366
▁Americ	-367
▁also	-368
ern	-369
ities	-370
▁dem	-371
▁eff	-372
▁market	-373
ue	-374
▁should	-375
our	-376
ility	-377
au	-378
▁like	-379
reas	-380
cy	-381
▁only	-382
ake	-383
▁cons	-384
▁could	-385
▁develop	-386
▁invest	-387
▁political	-388
▁comm	-389
▁about	-390
ident	-391
ire	-392
ople	-393
▁most	-394
▁pre	-395
▁bank	-396
▁acc	-397
▁no	-398
fic	-399
▁It	-400
▁such	-401
▁per	-402
▁str	-403
ange	-404
▁who	-405
▁long	-406
▁now	-407
▁cl	-408
▁European	-409
▁bet	-410
▁there	-411
ative	-412
ord	-413
ited	-414
▁policy	-415
low	-416
▁cap	-417
▁financial	-418
▁supp	-419
▁go	-420
ments	-421
▁sp	-422
▁even	-423
uch	-424
rit	-425
▁people	-426
ublic	-427
▁up	-428
▁EU	-429
▁years	-430
▁qu	-431
ism	-432
▁Ind	-433
ble	-434
▁Af	-435
old	-436
▁increas	-437
ach	-438
gy	-439
▁19	-440
ew	-441
▁work	-442
ious	-443
▁cur	-444
▁pr	-445
▁rem	-446
▁many	-447
▁some	-448
00	-449
ber	-450
yst	-451
▁inf	-452
ces	-453
illion	-454
▁em	-455
▁were	-456
ution	-457
▁them	-458
bt	-459
erv	-460
ital	-461
▁St	-462
int	-463
de	-464
▁economy	-465
▁country	-466
▁if	-467
und	-468
ause	-469
▁app	-470
▁under	-471
▁This	-472
ish	-473
▁ra	-474
act	-475
▁must	-476
▁his	-477
lect	-478
▁And	-479
▁rel	-480
av	-481
ough	-482
▁ar	-483
ang	-484
ame	-485
▁when	-486
amp	-487
ystem	-488
ons	-489
▁these	-490
▁k	-491
▁201	-492
▁lar	-493
▁cris	-494
per	-495
▁produ	-496
ace	-497
eral	-498
pect	-499
very	-500
▁power	-501
own	-502
▁ro	-503
erest	-504
arly	-505
rough	-506
▁may	-507
uc	-508
ating	-509
ks	-510
▁tw	-511
ms	-512
▁sc	-513
ese	-514
▁system	-515
▁fir	-516
vent	-517
▁us	-518
ount	-519
alth	-520
▁intern	-521
we	-522
cess	-523
ass	-524
▁into	-525
▁po	-526
▁cent	-527
▁te	-528
▁am	-529
resident	-530
▁much	-531
▁what	-532
▁time	-533
▁soc	-534
▁how	-535
▁rep	-536
ory	-537
▁leaders	-538
▁interest	-539
▁act	-540
ced	-541
▁inst	-542
▁crisis	-543
ond	-544
▁att	-545
▁had	-546
lud	-547
oss	-548
uss	-549
▁public	-550
ind	-551
▁co	-552
get	-553
.”	-554
ert	-555
ild	-556
▁ow	-557
▁any	-558
▁recent	-559
ific	-560
▁high	-561
▁mon	-562
▁real	-563
olog	-564
▁trans	-565
ible	-566
ful	-567
its	-568
ov	-569
ual	-570
ists	-571
▁just	-572
ade	-573
▁dif	-574
ruct	-575
▁import	-576
▁proble	-577
imate	-578
ral	-579
hip	-580
ient	-581
▁far	-582
▁fore	-583
▁international	-584
hed	-585
▁United	-586
▁conf	-587
▁again	-588
ob	-589
vers	-590
▁war	-591
▁200	-592
hen	-593
▁ref	-594
urn	-595
▁well	-596
ization	-597
▁ac	-598
▁because	-599
▁contin	-600
iss	-601
ives	-602
▁pric	-603
ase	-604
ics	-605
ject	-606
ise	-607
ok	-608
uring	-609
ax	-610
▁debt	-611
read	-612
ied	-613
▁prov	-614
▁two	-615
▁way	-616
▁Chinese	-617
▁support	-618
▁gen	-619
▁those	-620
▁remain	-621
▁Y	-622
iven	-623
oth	-624
ption	-625
▁For	-626
pec	-627
lear	-628
▁America	-629
ween	-630
ite	-631
ry	-632
iet	-633
ward	-634
▁less	-635
ove	-636
▁fact	-637
▁def	-638
vel	-639
opul	-640
oll	-641
▁end	-642
▁between	-643
any	-644
sel	-645
rent	-646
inist	-647
ound	-648
▁add	-649
ration	-650
itt	-651
▁ent	-652
ues	-653
eed	-654
▁dep	-655
▁effect	-656
chn	-657
ene	-658
ize	-659
ice	-660
▁des	-661
▁capital	-662
▁opp	-663
ures	-664
▁mod	-665
▁while	-666
▁Afric	-667
▁right	-668
ail	-669
▁prog	-670
ict	-671
▁includ	-672
ings	-673
▁hel	-674
ural	-675
aj	-676
term	-677
▁own	-678
▁Russ	-679
▁sec	-680
▁popul	-681
▁our	-682
▁large	-683
▁euro	-684
▁mem	-685
ability	-686
ince	-687
▁adv	-688
round	-689
allen	-690
▁first	-691
▁sur	-692
▁help	-693
▁resp	-694
▁cost	-695
▁national	-696
aw	-697
▁off	-698
▁investment	-699
▁Wh	-700
▁requ	-701
▁On	-702
led	-703
▁change	-704
▁banks	-705
▁ass	-706
rib	-707
▁last	-708
ential	-709
▁examp	-710
▁state	-711
▁techn	-712
ajor	-713
▁fund	-714
ergy	-715
▁redu	-716
cal	-717
▁af	-718
▁sim	-719
ri	-720
▁current	-721
▁trade	-722
▁ob	-723
aking	-724
loy	-725
▁reform	-726
ump	-727
▁result	-728
ty	-729
rat	-730
▁bo	-731
▁through	-732
ilit	-733
▁tax	-734
utions	-735
orts	-736
▁sub	-737
▁$	-738
ized	-739
▁sign	-740
▁markets	-741
▁partic	-742
▁cre	-743
▁conc	-744
▁major	-745
▁against	-746
▁Is	-747
▁infl	-748
▁seem	-749
DP	-750
les	-751
▁example	-752
▁appro	-753
▁both	-754
▁hum	-755
fere	-756
▁health	-757
▁great	-758
▁kn	-759
oun	-760
gest	-761
▁ext	-762
▁Se	-763
ging	-764
ood	-765
▁democ	-766
▁If	-767
▁Germ	-768
▁become	-769
ically	-770
▁region	-771
▁good	-772
▁ke	-773
ract	-774
▁where	-775
▁challen	-776
▁rates	-777
▁too	-778
▁cor	-779
▁aut	-780
iness	-781
day	-782
ram	-783
urity	-784
▁after	-785
▁make	-786
ting	-787
▁important	-788
xt	-789
▁lo	-790
▁foreign	-791
▁governments	-792
▁est	-793
▁development	-794
▁social	-795
▁instit	-796
gan	-797
ink	-798
▁energy	-799
▁demand	-800
ortun	-801
ices	-802
ts	-803
▁strate	-804
▁economies	-805
apan	-806
▁fail	-807
▁bu	-808
ploy	-809
ready	-810
ather	-811
▁Tr	-812
▁emer	-813
ater	-814
ending	-815
not	-816
omm	-817
▁bene	-818
ron	-819
▁policies	-820
▁President	-821
▁rest	-822
▁fut	-823
▁GDP	-824
▁sol	-825
▁risk	-826
▁Japan	-827
▁dom	-828
▁prom	-829
▁prot	-830
▁serv	-831
ense	-832
als	-833
▁does	-834
▁val	-835
▁technolog	-836
▁still	-837
ision	-838
▁back	-839
▁States	-840
ays	-841
▁every	-842
ath	-843
▁offic	-844
fore	-845
▁More	-846
▁That	-847
usiness	-848
▁today	-849
▁Brit	-850
ft	-851
less	-852
▁already	-853
,”	-854
▁future	-855
▁cour	-856
▁ret	-857
▁iss	-858
etary	-859
ually	-860
eg	-861
▁rate	-862
▁level	-863
ning	-864
▁bas	-865
iscal	-866
0%	-867
▁Russia	-868
▁same	-869
▁sa	-870
ingly	-871
▁cred	-872
▁billion	-873
ined	-874
▁consum	-875
ians	-876
outh	-877
eration	-878
▁strong	-879
ten	-880
zone	-881
▁human	-882
▁milit	-883
▁indust	-884
▁equ	-885
▁use	-886
ially	-887
▁3	-888
iew	-889
▁ins	-890
▁main	-891
ck	-892
▁problem	-893
▁leg	-894
▁ed	-895
▁low	-896
▁pur	-897
▁West	-898
▁benef	-899
ctor	-900
▁Africa	-901
▁business	-902
▁set	-903
ran	-904
ants	-905
▁differe	-906
▁since	-907
rast	-908
▁likely	-909
▁el	-910
ality	-911
▁being	-912
▁sm	-913
▁product	-914
der	-915
▁central	-916
ouse	-917
iron	-918
▁climate	-919
▁ann	-920
▁fiscal	-921
ared	-922
▁short	-923
▁Bank	-924
▁regul	-925
ably	-926
▁American	-927
),	-928
▁might	-929
ily	-930
).	-931
ges	-932
inc	-933
other	-934
▁elect	-935
▁V	-936
▁Indeed	-937
▁pos	-938
▁Trump	-939
▁disc	-940
▁take	-941
▁const	-942
▁Asia	-943
▁priv	-944
pl	-945
hing	-946
▁De	-947
▁term	-948
▁es	-949
ccess	-950
abor	-951
imes	-952
mental	-953
▁op	-954
▁without	-955
tern	-956
▁prices	-957
ss	-958
▁see	-959
▁br	-960
ving	-961
▁particul	-962
▁commun	-963
▁made	-964
▁point	-965
bers	-966
ider	-967
▁including	-968
ior	-969
ness	-970
ger	-971
▁reas	-972
ever	-973
ved	-974
▁decl	-975
▁India	-976
▁threat	-977
▁compet	-978
▁To	-979
▁down	-980
ency	-981
▁call	-982
hold	-983
▁vot	-984
▁bel	-985
▁educ	-986
ieve	-987
ines	-988
▁military	-989
▁better	-990
ell	-991
▁neg	-992
ged	-993
▁ser	-994
▁med	-995
▁With	-996
▁env	-997
ertain	-998
▁cannot	-999
ivers	-1000
abl	-1001
▁success	-1002
land	-1003
▁eurozone	-1004
▁expect	-1005
▁poss	-1006
▁stand	-1007
▁impro	-1008
▁job	-1009
▁At	-1010
ex	-1011
cond	-1012
here	-1013
▁agree	-1014
▁quest	-1015
▁states	-1016
▁fac	-1017
hor	-1018
▁know	-1019
anies	-1020
uel	-1021
▁Int	-1022
▁hig	-1023
▁pers	-1024
▁Wor	-1025
▁aff	-1026
ience	-1027
▁ter	-1028
▁toward	-1029
▁million	-1030
▁did	-1031
ructure	-1032
▁contro	-1033
cept	-1034
▁often	-1035
idd	-1036
▁dist	-1037
▁Germany	-1038
▁prop	-1039
stain	-1040
▁another	-1041
▁ide	-1042
▁start	-1043
▁We	-1044
▁ev	-1045
▁course	-1046
▁imm	-1047
ollow	-1048
ars	-1049
▁environ	-1050
▁clo	-1051
▁process	-1052
arch	-1053
▁account	-1054
▁sustain	-1055
▁security	-1056
▁three	-1057
▁approach	-1058
li	-1059
▁Union	-1060
▁There	-1061
lement	-1062
ources	-1063
orth	-1064
▁dire	-1065
▁East	-1066
racy	-1067
▁ant	-1068
▁companies	-1069
ute	-1070
ents	-1071
▁hard	-1072
ury	-1073
▁arg	-1074
ately	-1075
▁ap	-1076
▁order	-1077
▁then	-1078
ered	-1079
ivity	-1080
▁hist	-1081
uclear	-1082
▁curren	-1083
▁They	-1084
▁pres	-1085
ployment	-1086
▁move	-1087
▁past	-1088
▁pot	-1089
▁trad	-1090
ross	-1091
▁turn	-1092
▁law	-1093
▁allow	-1094
▁meas	-1095
▁loc	-1096
▁Comm	-1097
▁view	-1098
▁monetary	-1099
self	-1100
▁av	-1101
▁pay	-1102
▁So	-1103
▁rul	-1104
ocus	-1105
cing	-1106
▁ine	-1107
rem	-1108
ades	-1109
road	-1110
▁put	-1111
iving	-1112
▁institutions	-1113
▁few	-1114
▁very	-1115
▁among	-1116
▁Fr	-1117
por	-1118
▁rev	-1119
▁before	-1120
▁address	-1121
▁South	-1122
▁official	-1123
stand	-1124
▁child	-1125
▁least	-1126
▁around	-1127
▁protect	-1128
▁ens	-1129
ivid	-1130
osed	-1131
▁eas	-1132
▁Al	-1133
▁follow	-1134
▁income	-1135
uge	-1136
ening	-1137
▁next	-1138
▁Re	-1139
▁Moreover	-1140
▁lim	-1141
▁Iran	-1142
▁increase	-1143
▁tar	-1144
▁focus	-1145
▁opportun	-1146
roup	-1147
▁private	-1148
ued	-1149
▁president	-1150
▁chang	-1151
ves	-1152
estic	-1153
▁World	-1154
ick	-1155
most	-1156
▁Fed	-1157
▁car	-1158
itions	-1159
▁role	-1160
▁press	-1161
ph	-1162
▁exper	-1163
▁inflation	-1164
▁199	-1165
▁plan	-1166
▁labor	-1167
▁5	-1168
▁adm	-1169
▁author	-1170
▁potential	-1171
io	-1172
▁weak	-1173
ead	-1174
rug	-1175
▁num	-1176
urther	-1177
oney	-1178
iddle	-1179
▁needs	-1180
▁developing	-1181
ying	-1182
▁ach	-1183
▁inn	-1184
▁rise	-1185
vere	-1186
▁form	-1187
▁nuclear	-1188
ages	-1189
▁problems	-1190
▁ful	-1191
▁members	-1192
▁credit	-1193
ittle	-1194
▁effective	-1195
▁defic	-1196
▁whether	-1197
omen	-1198
▁prof	-1199
lection	-1200
up	-1201
▁lif	-1202
ances	-1203
▁play	-1204
aly	-1205
▁domestic	-1206
aps	-1207
ibility	-1208
ratic	-1209
▁establ	-1210
pecially	-1211
ama	-1212
olution	-1213
▁project	-1214
▁higher	-1215
▁spec	-1216
▁model	-1217
▁signific	-1218
change	-1219
▁rather	-1220
▁mat	-1221
▁though	-1222
ush	-1223
▁Intern	-1224
▁share	-1225
gin	-1226
ining	-1227
▁asse	-1228
▁doll	-1229
▁clear	-1230
▁little	-1231
ted	-1232
ering	-1233
ix	-1234
▁beh	-1235
▁remains	-1236
ished	-1237
▁Ob	-1238
▁money	-1239
▁needed	-1240
▁sector	-1241
▁bal	-1242
air	-1243
▁gu	-1244
▁case	-1245
▁run	-1246
▁Kore	-1247
ock	-1248
akes	-1249
for	-1250
ner	-1251
▁vi	-1252
aus	-1253
ases	-1254
ission	-1255
▁gener	-1256
▁education	-1257
▁especially	-1258
aim	-1259
▁crit	-1260
itional	-1261
▁non	-1262
▁costs	-1263
▁month	-1264
▁par	-1265
▁services	-1266
ling	-1267
itive	-1268
▁continue	-1269
▁different	-1270
ficult	-1271
formation	-1272
▁4	-1273
pid	-1274
ret	-1275
▁reason	-1276
▁difficult	-1277
inister	-1278
▁emerging	-1279
▁significant	-1280
▁concern	-1281
▁When	-1282
imin	-1283
ened	-1284
▁key	-1285
▁pros	-1286
ork	-1287
ogn	-1288
rael	-1289
▁hal	-1290
▁ren	-1291
▁societ	-1292
com	-1293
▁dr	-1294
▁progress	-1295
▁ph	-1296
▁show	-1297
▁cut	-1298
▁access	-1299
anced	-1300
▁innov	-1301
▁spending	-1302
▁cit	-1303
▁small	-1304
acy	-1305
▁means	-1306
cies	-1307
▁meet	-1308
▁why	-1309
ides	-1310
▁big	-1311
▁come	-1312
idence	-1313
▁control	-1314
▁free	-1315
▁decades	-1316
▁further	-1317
ird	-1318
▁peace	-1319
▁group	-1320
▁find	-1321
▁efforts	-1322
▁fall	-1323
rastructure	-1324
▁fe	-1325
▁currency	-1326
izing	-1327
▁rese	-1328
▁simp	-1329
▁suff	-1330
istan	-1331
▁happ	-1332
▁price	-1333
▁during	-1334
▁respons	-1335
▁relations	-1336
▁build	-1337
▁Israel	-1338
ash	-1339
▁gain	-1340
▁industr	-1341
▁increasingly	-1342
▁local	-1343
▁cond	-1344
oti	-1345
▁Obama	-1346
wh	-1347
▁say	-1348
ators	-1349
▁reforms	-1350
▁get	-1351
▁appe	-1352
▁poor	-1353
▁deep	-1354
▁requi	-1355
▁conflic	-1356
ON	-1357
sequ	-1358
▁integ	-1359
▁citiz	-1360
▁Yet	-1361
ave	-1362
▁eng	-1363
▁longer	-1364
▁target	-1365
▁treat	-1366
arm	-1367
▁ago	-1368
▁growing	-1369
▁slow	-1370
▁question	-1371
rate	-1372
▁Rep	-1373
rop	-1374
reng	-1375
▁init	-1376
▁shif	-1377
▁almost	-1378
ata	-1379
▁require	-1380
▁serious	-1381
▁prevent	-1382
pite	-1383
▁care	-1384
▁however	-1385
▁recently	-1386
vious	-1387
000	-1388
▁col	-1389
▁stud	-1390
▁oil	-1391
▁mass	-1392
icient	-1393
▁An	-1394
▁within	-1395
reed	-1396
▁yet	-1397
▁resources	-1398
▁streng	-1399
pris	-1400
▁itself	-1401
▁strateg	-1402
way	-1403
▁hold	-1404
▁given	-1405
,000	-1406
▁One	-1407
▁challenges	-1408
▁infrastructure	-1409
▁He	-1410
▁democracy	-1411
5%	-1412
lam	-1413
▁best	-1414
▁seems	-1415
▁return	-1416
▁UK	-1417
▁lower	-1418
ror	-1419
▁nat	-1420
▁house	-1421
▁recogn	-1422
▁consider	-1423
▁benefits	-1424
ention	-1425
ale	-1426
ording	-1427
▁claim	-1428
rab	-1429
▁tru	-1430
▁event	-1431
▁greater	-1432
▁ur	-1433
verage	-1434
epend	-1435
ased	-1436
udget	-1437
▁negoti	-1438
▁viol	-1439
▁enough	-1440
▁second	-1441
▁found	-1442
▁member	-1443
▁population	-1444
▁want	-1445
acc	-1446
▁contrib	-1447
ences	-1448
▁While	-1449
▁rapid	-1450
▁particularly	-1451
te	-1452
hes	-1453
▁fam	-1454
▁Part	-1455
yn	-1456
▁cho	-1457
▁After	-1458
▁comple	-1459
▁lib	-1460
▁lack	-1461
▁By	-1462
20	-1463
▁think	-1464
▁impact	-1465
akers	-1466
▁bor	-1467
▁citizens	-1468
▁interests	-1469
▁others	-1470
▁women	-1471
▁France	-1472
▁organ	-1473
▁terms	-1474
omet	-1475
ners	-1476
▁These	-1477
▁sug	-1478
▁workers	-1479
▁common	-1480
▁caus	-1481
ided	-1482
▁understand	-1483
▁pred	-1484
nce	-1485
▁strategy	-1486
▁investors	-1487
ool	-1488
cent	-1489
▁Be	-1490
▁er	-1491
ned	-1492
ivil	-1493
ither	-1494
ier	-1495
▁post	-1496
▁risks	-1497
▁6	-1498
▁pat	-1499
▁camp	-1500
▁value	-1501
▁home	-1502
ai	-1503
▁rights	-1504
▁budget	-1505
▁War	-1506
▁sav	-1507
▁election	-1508
ope	-1509
ession	-1510
▁her	-1511
▁hand	-1512
▁number	-1513
▁administ	-1514
▁half	-1515
▁used	-1516
▁broad	-1517
where	-1518
the	-1519
selves	-1520
▁direct	-1521
cl	-1522
atic	-1523
▁coll	-1524
▁report	-1525
▁suggest	-1526
empt	-1527
▁Gree	-1528
tain	-1529
▁data	-1530
▁reduce	-1531
▁depend	-1532
▁Ar	-1533
▁Cent	-1534
▁bond	-1535
▁Korea	-1536
▁create	-1537
▁Britain	-1538
▁occ	-1539
ateral	-1540
▁mult	-1541
▁certain	-1542
▁cle	-1543
ression	-1544
▁my	-1545
onal	-1546
▁New	-1547
▁provide	-1548
▁children	-1549
▁oper	-1550
atives	-1551
lf	-1552
makers	-1553
▁Con	-1554
▁simil	-1555
▁exchange	-1556
▁min	-1557
▁you	-1558
ield	-1559
▁ensure	-1560
▁rising	-1561
▁Arab	-1562
▁Even	-1563
ug	-1564
▁relative	-1565
iqu	-1566
▁implement	-1567
▁mean	-1568
▁open	-1569
▁she	-1570
like	-1571
▁rules	-1572
be	-1573
▁improve	-1574
▁possible	-1575
yr	-1576
ipl	-1577
▁gr	-1578
gent	-1579
rime	-1580
▁Tur	-1581
▁British	-1582
▁Fin	-1583
▁thus	-1584
▁measures	-1585
▁coop	-1586
▁never	-1587
iod	-1588
oura	-1589
▁spe	-1590
▁leadership	-1591
▁land	-1592
▁force	-1593
vention	-1594
▁reflect	-1595
▁levels	-1596
0.	-1597
▁face	-1598
▁jobs	-1599
▁step	-1600
overty	-1601
▁place	-1602
▁Sp	-1603
▁left	-1604
▁deal	-1605
▁each	-1606
▁civil	-1607
▁agreement	-1608
come	-1609
▁youn	-1610
aged	-1611
▁Western	-1612
▁fuel	-1613
▁consequ	-1614
ived	-1615
lation	-1616
▁2008	-1617
▁life	-1618
▁finance	-1619
ards	-1620
▁regional	-1621
▁dev	-1622
▁purs	-1623
▁individ	-1624
bon	-1625
man	-1626
▁fl	-1627
just	-1628
▁cult	-1629
haps	-1630
▁enc	-1631
▁systems	-1632
▁fear	-1633
▁struct	-1634
▁begin	-1635
▁bl	-1636
▁Pol	-1637
▁dollar	-1638
▁disp	-1639
▁commit	-1640
yond	-1641
▁challenge	-1642
ified	-1643
▁stability	-1644
▁technology	-1645
ik	-1646
oid	-1647
side	-1648
▁ear	-1649
▁politics	-1650
▁funda	-1651
▁former	-1652
▁Sh	-1653
▁balance	-1654
▁consumption	-1655
chool	-1656
▁boost	-1657
▁individual	-1658
▁stat	-1659
▁influ	-1660
ination	-1661
▁action	-1662
ceed	-1663
oint	-1664
▁ever	-1665
gether	-1666
▁together	-1667
▁Republic	-1668
abil	-1669
aken	-1670
▁tal	-1671
ront	-1672
▁deb	-1673
▁dou	-1674
▁dest	-1675
▁household	-1676
▁Sec	-1677
▁him	-1678
▁char	-1679
▁terror	-1680
▁dang	-1681
ilateral	-1682
then	-1683
▁four	-1684
▁poverty	-1685
emoc	-1686
▁blo	-1687
▁themselves	-1688
▁productivity	-1689
▁net	-1690
▁anti	-1691
▁attack	-1692
▁decision	-1693
RI	-1694
▁exist	-1695
▁che	-1696
▁What	-1697
conomic	-1698
issions	-1699
ised	-1700
▁head	-1701
acity	-1702
▁issues	-1703
raz	-1704
▁wealth	-1705
rex	-1706
▁unt	-1707
▁firms	-1708
kra	-1709
▁across	-1710
istic	-1711
▁comb	-1712
▁En	-1713
▁accept	-1714
▁manage	-1715
ming	-1716
▁met	-1717
dom	-1718
irst	-1719
▁times	-1720
raw	-1721
▁ru	-1722
▁expl	-1723
▁Of	-1724
▁saf	-1725
uation	-1726
▁export	-1727
▁necess	-1728
▁increased	-1729
▁7	-1730
▁gra	-1731
▁pract	-1732
▁annual	-1733
ee	-1734
erve	-1735
ban	-1736
▁X	-1737
ys	-1738
▁Ukra	-1739
though	-1740
▁initi	-1741
▁program	-1742
▁$1	-1743
▁North	-1744
▁news	-1745
▁once	-1746
aign	-1747
▁look	-1748
▁fight	-1749
igration	-1750
ah	-1751
▁sing	-1752
CB	-1753
▁food	-1754
▁based	-1755
▁early	-1756
▁similar	-1757
▁strengthen	-1758
▁making	-1759
▁period	-1760
▁politic	-1761
▁developed	-1762
▁tre	-1763
quality	-1764
▁repres	-1765
▁research	-1766
▁sl	-1767
▁emb	-1768
▁bring	-1769
ins	-1770
▁able	-1771
▁somet	-1772
▁campaign	-1773
▁conflict	-1774
▁Syr	-1775
▁borrow	-1776
▁believe	-1777
▁officials	-1778
▁extrem	-1779
▁history	-1780
▁amount	-1781
az	-1782
▁top	-1783
▁tot	-1784
rupt	-1785
ways	-1786
veral	-1787
▁sure	-1788
iation	-1789
▁Islam	-1790
ruption	-1791
▁Inst	-1792
▁achieve	-1793
▁sense	-1794
▁young	-1795
cial	-1796
ively	-1797
▁true	-1798
▁refuge	-1799
▁independ	-1800
igr	-1801
▁becom	-1802
▁Central	-1803
den	-1804
omp	-1805
reak	-1806
▁keep	-1807
raq	-1808
▁old	-1809
▁information	-1810
▁corpor	-1811
rodu	-1812
▁modern	-1813
▁establish	-1814
▁International	-1815
cil	-1816
▁la	-1817
▁decade	-1818
▁entire	-1819
▁administration	-1820
▁sk	-1821
razil	-1822
▁promot	-1823
▁cr	-1824
▁Iraq	-1825
▁dise	-1826
isions	-1827
▁close	-1828
▁society	-1829
fact	-1830
▁maintain	-1831
▁led	-1832
▁sit	-1833
rexit	-1834
▁five	-1835
ler	-1836
▁Res	-1837
▁loss	-1838
▁water	-1839
▁average	-1840
▁century	-1841
▁largest	-1842
▁community	-1843
▁bord	-1844
▁effects	-1845
▁advanced	-1846
▁dam	-1847
▁areas	-1848
▁encoura	-1849
to	-1850
▁policymakers	-1851
ief	-1852
ource	-1853
ium	-1854
▁UN	-1855
▁aim	-1856
▁adop	-1857
▁union	-1858
▁Middle	-1859
yp	-1860
▁issue	-1861
utional	-1862
▁environmental	-1863
onse	-1864
arent	-1865
▁recover	-1866
rench	-1867
illions	-1868
▁simply	-1869
▁changes	-1870
▁ECB	-1871
▁else	-1872
▁working	-1873
▁conditions	-1874
▁regime	-1875
▁single	-1876
▁sovere	-1877
▁rece	-1878
▁forces	-1879
▁Cl	-1880
▁deficit	-1881
▁gre	-1882
▁pressure	-1883
ean	-1884
▁198	-1885
aring	-1886
▁rule	-1887
key	-1888
▁hope	-1889
▁position	-1890
lia	-1891
aster	-1892
▁Party	-1893
pped	-1894
▁Brazil	-1895
▁liberal	-1896
ify	-1897
▁unem	-1898
rag	-1899
uing	-1900
▁Par	-1901
▁opportunity	-1902
▁Some	-1903
▁total	-1904
▁parties	-1905
arian	-1906
▁reach	-1907
▁danger	-1908
▁supply	-1909
▁industry	-1910
▁response	-1911
ina	-1912
▁avoid	-1913
▁Minister	-1914
min	-1915
gypt	-1916
wise	-1917
ufact	-1918
▁Asian	-1919
▁oppos	-1920
▁despite	-1921
mm	-1922
▁Or	-1923
king	-1924
lus	-1925
▁requires	-1926
ival	-1927
▁Egypt	-1928
▁employment	-1929
▁unc	-1930
▁production	-1931
0’	-1932
▁All	-1933
▁expand	-1934
▁several	-1935
▁abs	-1936
▁capacity	-1937
▁coal	-1938
▁Democ	-1939
ising	-1940
ctions	-1941
▁creat	-1942
▁regard	-1943
▁done	-1944
▁full	-1945
▁environment	-1946
▁Italy	-1947
▁African	-1948
▁emissions	-1949
▁Turkey	-1950
▁democratic	-1951
▁subst	-1952
▁effort	-1953
▁created	-1954
▁Pro	-1955
incip	-1956
▁manufact	-1957
▁consequences	-1958
▁massive	-1959
oral	-1960
▁ess	-1961
▁cooperation	-1962
▁mar	-1963
▁King	-1964
▁shift	-1965
▁bad	-1966
ricult	-1967
▁always	-1968
▁banking	-1969
▁school	-1970
▁exports	-1971
aging	-1972
▁lear	-1973
▁test	-1974
▁excess	-1975
▁8	-1976
cut	-1977
down	-1978
based	-1979
▁ident	-1980
ruction	-1981
▁Ukraine	-1982
▁vict	-1983
▁Americans	-1984
▁innovation	-1985
ended	-1986
▁flow	-1987
▁Greece	-1988
iting	-1989
▁media	-1990
▁structural	-1991
▁assum	-1992
▁invol	-1993
iversity	-1994
▁predict	-1995
ds	-1996
▁Acc	-1997
▁norm	-1998
▁politicians	-1999
▁Cong	-2000
▁kind	-2001
▁Commission	-2002
▁called	-2003
▁princip	-2004
imul	-2005
wide	-2006
iplom	-2007
▁leading	-2008
▁sustainable	-2009
rated	-2010
lt	-2011
▁alone	-2012
▁death	-2013
▁taken	-2014
▁perform	-2015
▁industrial	-2016
ighb	-2017
ring	-2018
▁day	-2019
▁Cons	-2020
▁clos	-2021
liament	-2022
▁failed	-2023
▁unlike	-2024
atory	-2025
▁strategic	-2026
alest	-2027
▁Brexit	-2028
▁histor	-2029
▁cy	-2030
▁Bush	-2031
▁said	-2032
▁vis	-2033
▁self	-2034
iveness	-2035
▁trillion	-2036
▁Le	-2037
▁funds	-2038
▁authorities	-2039
▁Fund	-2040
▁French	-2041
ills	-2042
ured	-2043
▁poll	-2044
▁decline	-2045
▁don	-2046
by	-2047
▁whose	-2048
▁unemployment	-2049
rec	-2050
oday	-2051
ensive	-2052
▁voters	-2053
▁Develop	-2054
▁expected	-2055
▁agg	-2056
▁prob	-2057
▁stimul	-2058
▁respect	-2059
lim	-2060
rad	-2061
rong	-2062
▁cause	-2063
line	-2064
▁beyond	-2065
▁largely	-2066
reg	-2067
ched	-2068
▁bar	-2069
market	-2070
▁Today	-2071
▁diplom	-2072
▁nearly	-2073
▁scient	-2074
▁drug	-2075
▁ways	-2076
▁makes	-2077
▁proper	-2078
▁transp	-2079
▁economists	-2080
0,	-2081
utin	-2082
ented	-2083
▁prosper	-2084
edi	-2085
ently	-2086
itted	-2087
▁Afgh	-2088
ortunately	-2089
rams	-2090
▁goods	-2091
▁object	-2092
▁particular	-2093
ends	-2094
alled	-2095
▁Such	-2096
▁fav	-2097
▁having	-2098
ected	-2099
▁prec	-2100
ne	-2101
▁Given	-2102
▁values	-2103
▁projects	-2104
▁technologies	-2105
▁until	-2106
▁assets	-2107
▁partners	-2108
lev	-2109
ctors	-2110
iding	-2111
▁party	-2112
▁counter	-2113
▁essential	-2114
▁began	-2115
▁Afghan	-2116
▁incent	-2117
▁attempt	-2118
fer	-2119
▁Many	-2120
▁Global	-2121
▁successful	-2122
▁lives	-2123
▁neighb	-2124
▁powerful	-2125
▁inequality	-2126
▁stock	-2127
▁cities	-2128
▁months	-2129
▁opportunities	-2130
▁mov	-2131
▁underm	-2132
▁Kingdom	-2133
▁integration	-2134
sw	-2135
▁2015	-2136
▁fram	-2137
▁altern	-2138
▁constit	-2139
▁investments	-2140
ien	-2141
irc	-2142
▁opt	-2143
▁ten	-2144
ories	-2145
▁experience	-2146
▁tem	-2147
▁ability	-2148
▁increasing	-2149
rade	-2150
▁natural	-2151
▁respond	-2152
▁activ	-2153
▁class	-2154
istance	-2155
▁particip	-2156
▁Palest	-2157
▁popular	-2158
▁dig	-2159
▁quick	-2160
bi	-2161
ternal	-2162
▁doing	-2163
▁fundamental	-2164
▁Ag	-2165
enda	-2166
mber	-2167
▁mis	-2168
▁agricult	-2169
▁programs	-2170
▁governance	-2171
▁reven	-2172
▁ill	-2173
▁vol	-2174
▁bonds	-2175
▁influence	-2176
AN	-2177
▁Now	-2178
▁gas	-2179
verse	-2180
▁German	-2181
▁determ	-2182
▁According	-2183
▁AI	-2184
uted	-2185
▁197	-2186
▁soon	-2187
▁trend	-2188
oment	-2189
▁lost	-2190
▁subs	-2191
▁Nations	-2192
while	-2193
▁perhaps	-2194
lies	-2195
ights	-2196
▁Z	-2197
head	-2198
▁Bar	-2199
▁leader	-2200
▁comes	-2201
arily	-2202
▁aid	-2203
▁bur	-2204
▁away	-2205
▁path	-2206
▁rich	-2207
▁owing	-2208
icy	-2209
ream	-2210
▁obs	-2211
▁Coun	-2212
▁idea	-2213
▁traditional	-2214
▁relationship	-2215
put	-2216
▁May	-2217
▁del	-2218
▁adjust	-2219
▁debate	-2220
▁var	-2221
▁Prime	-2222
▁prior	-2223
▁advant	-2224
▁9	-2225
hood	-2226
▁weap	-2227
▁along	-2228
▁Russian	-2229
▁necessary	-2230
oh	-2231
▁win	-2232
aving	-2233
▁goal	-2234
▁domin	-2235
▁design	-2236
▁ge	-2237
▁Mon	-2238
▁unp	-2239
▁groups	-2240
▁Council	-2241
ored	-2242
ously	-2243
▁highly	-2244
ape	-2245
set	-2246
▁elections	-2247
▁violence	-2248
ises	-2249
thing	-2250
▁prim	-2251
▁behind	-2252
force	-2253
reedom	-2254
▁propos	-2255
▁Q	-2256
lying	-2257
akistan	-2258
▁Congress	-2259
▁evidence	-2260
▁enter	-2261
MF	-2262
ym	-2263
▁Xi	-2264
▁National	-2265
1,	-2266
ember	-2267
▁recovery	-2268
▁Syria	-2269
▁external	-2270
chan	-2271
▁First	-2272
▁estim	-2273
▁moment	-2274
▁break	-2275
▁later	-2276
ledge	-2277
▁taking	-2278
▁Pe	-2279
ulner	-2280
▁vir	-2281
▁wrong	-2282
▁status	-2283
▁corruption	-2284
aced	-2285
▁san	-2286
urs	-2287
▁sw	-2288
▁attention	-2289
▁Development	-2290
▁air	-2291
▁amb	-2292
▁pass	-2293
▁benefit	-2294
▁failure	-2295
▁surpris	-2296
▁contrast	-2297
▁probably	-2298
med	-2299
▁rat	-2300
▁Putin	-2301
▁indic	-2302
▁IMF	-2303
▁ult	-2304
▁discuss	-2305
▁financing	-2306
▁cat	-2307
▁mob	-2308
▁demon	-2309
▁actually	-2310
▁previous	-2311
omb	-2312
▁third	-2313
▁substant	-2314
oring	-2315
uslim	-2316
ulation	-2317
▁majority	-2318
▁using	-2319
▁recession	-2320
minbi	-2321
▁give	-2322
▁wide	-2323
▁complex	-2324
▁Pakistan	-2325
▁live	-2326
igrants	-2327
▁framew	-2328
▁middle	-2329
▁territ	-2330
▁-	-2331
▁avail	-2332
▁vulner	-2333
▁wee	-2334
▁argu	-2335
▁cases	-2336
▁worse	-2337
▁include	-2338
▁solution	-2339
▁rad	-2340
▁achie	-2341
▁asset	-2342
▁agenda	-2343
▁coming	-2344
▁Instead	-2345
▁eth	-2346
erves	-2347
▁larger	-2348
▁record	-2349
izations	-2350
▁nothing	-2351
▁feel	-2352
▁taxes	-2353
▁reality	-2354
olit	-2355
rep	-2356
▁uncertain	-2357
▁revolution	-2358
▁1.	-2359
▁lat	-2360
▁living	-2361
▁extreme	-2362
▁immedi	-2363
▁things	-2364
▁huge	-2365
▁prospect	-2366
▁situation	-2367
TO	-2368
ton	-2369
▁legit	-2370
▁attract	-2371
▁meeting	-2372
▁renminbi	-2373
▁manufacturing	-2374
go	-2375
rats	-2376
▁farm	-2377
▁Europeans	-2378
▁decisions	-2379
▁competition	-2380
▁Argent	-2381
▁Muslim	-2382
▁corporate	-2383
▁perm	-2384
▁shar	-2385
▁either	-2386
uster	-2387
▁Like	-2388
▁legal	-2389
▁demonst	-2390
▁behav	-2391
itarian	-2392
▁limited	-2393
▁jo	-2394
year	-2395
▁seen	-2396
▁vote	-2397
▁circ	-2398
▁carbon	-2399
▁defense	-2400
vest	-2401
▁nar	-2402
▁relig	-2403
▁represent	-2404
▁z	-2405
leg	-2406
▁den	-2407
▁pow	-2408
▁late	-2409
▁rein	-2410
chanism	-2411
▁reducing	-2412
rugg	-2413
▁How	-2414
▁kill	-2415
▁read	-2416
▁commitment	-2417
▁answ	-2418
▁easy	-2419
ancing	-2420
▁expans	-2421
▁willing	-2422
att	-2423
itable	-2424
imately	-2425
▁subsid	-2426
▁collect	-2427
sh	-2428
ets	-2429
called	-2430
▁announ	-2431
▁relatively	-2432
▁Lat	-2433
▁became	-2434
▁di	-2435
▁cru	-2436
income	-2437
▁standards	-2438
▁Afghanistan	-2439
het	-2440
▁ve	-2441
arant	-2442
▁employ	-2443
▁strugg	-2444
▁general	-2445
▁solutions	-2446
EW	-2447
▁Ge	-2448
▁fed	-2449
rought	-2450
▁purch	-2451
▁ground	-2452
▁continent	-2453
▁Ex	-2454
▁ign	-2455
▁renew	-2456
agn	-2457
▁produce	-2458
▁refugees	-2459
arter	-2460
▁green	-2461
▁words	-2462
utes	-2463
▁sharp	-2464
▁concerns	-2465
OR	-2466
▁held	-2467
▁resol	-2468
▁refere	-2469
▁elsewhere	-2470
ired	-2471
▁NEW	-2472
▁really	-2473
▁freedom	-2474
ung	-2475
plus	-2476
▁Sim	-2477
▁2013	-2478
▁expert	-2479
ification	-2480
▁Palestin	-2481
▁businesses	-2482
rict	-2483
▁indeed	-2484
▁powers	-2485
▁miss	-2486
▁near	-2487
▁took	-2488
ological	-2489
▁established	-2490
rel	-2491
▁jud	-2492
ensus	-2493
▁urban	-2494
▁digital	-2495
▁weapons	-2496
▁favor	-2497
ception	-2498
▁guarant	-2499
▁quickly	-2500
▁something	-2501
DG	-2502
▁arr	-2503
▁dyn	-2504
▁heav	-2505
▁deficits	-2506
▁protection	-2507
▁explain	-2508
▁Ro	-2509
ters	-2510
▁science	-2511
▁products	-2512
▁Internet	-2513
▁following	-2514
▁hous	-2515
ension	-2516
▁Latin	-2517
▁above	-2518
▁currently	-2519
50	-2520
orn	-2521
ached	-2522
▁conv	-2523
▁prep	-2524
▁Spain	-2525
▁severe	-2526
▁expansion	-2527
▁negotiations	-2528
ody	-2529
▁Can	-2530
▁introdu	-2531
▁confidence	-2532
▁performance	-2533
▁presidential	-2534
ici	-2535
use	-2536
▁deli	-2537
▁tool	-2538
▁disease	-2539
▁positive	-2540
▁unlikely	-2541
▁generation	-2542
▁households	-2543
ili	-2544
▁Ad	-2545
onald	-2546
osing	-2547
▁2014	-2548
▁Mean	-2549
▁known	-2550
▁surplus	-2551
▁Sc	-2552
oviet	-2553
▁offer	-2554
▁sectors	-2555
▁movement	-2556
▁continues	-2557
▁worldwide	-2558
▁Ab	-2559
ones	-2560
▁mist	-2561
▁sett	-2562
rary	-2563
▁funding	-2564
▁Meanwhile	-2565
ane	-2566
▁ce	-2567
ature	-2568
iance	-2569
▁laun	-2570
making	-2571
▁mind	-2572
▁ahead	-2573
▁results	-2574
▁behavior	-2575
app	-2576
▁art	-2577
▁critical	-2578
▁millions	-2579
▁certainly	-2580
▁mechanism	-2581
▁industries	-2582
aid	-2583
▁Most	-2584
▁occur	-2585
▁Federal	-2586
ustr	-2587
▁ask	-2588
▁uns	-2589
▁vision	-2590
▁additional	-2591
▁opposition	-2592
▁globalization	-2593
▁repl	-2594
▁below	-2595
▁legis	-2596
▁reserves	-2597
▁beginning	-2598
▁Per	-2599
▁div	-2600
iment	-2601
▁line	-2602
▁crises	-2603
▁univers	-2604
▁becoming	-2605
▁technological	-2606
▁ir	-2607
ator	-2608
crib	-2609
▁fair	-2610
▁matter	-2611
▁obvious	-2612
▁Although	-2613
▁existing	-2614
▁framework	-2615
▁prosperity	-2616
▁alternative	-2617
▁responsibility	-2618
bo	-2619
apse	-2620
ressive	-2621
▁source	-2622
▁overall	-2623
▁creating	-2624
▁institutional	-2625
▁organizations	-2626
-1	-2627
2.	-2628
kn	-2629
▁18	-2630
▁sent	-2631
▁Great	-2632
▁Since	-2633
ext	-2634
▁six	-2635
▁stop	-2636
urance	-2637
▁available	-2638
-20	-2639
ular	-2640
unction	-2641
▁sovereign	-2642
oph	-2643
exic	-2644
▁side	-2645
▁caused	-2646
▁Economic	-2647
▁Monetary	-2648
▁Security	-2649
▁Sw	-2650
hest	-2651
▁mort	-2652
▁trou	-2653
▁spread	-2654
sp	-2655
uth	-2656
ault	-2657
omin	-2658
ordin	-2659
▁cover	-2660
▁scale	-2661
usterity	-2662
▁recognize	-2663
phas	-2664
▁typ	-2665
iquid	-2666
▁dram	-2667
▁rough	-2668
▁reasons	-2669
▁transition	-2670
IN	-2671
part	-2672
▁tend	-2673
▁output	-2674
▁factors	-2675
ya	-2676
erb	-2677
▁fle	-2678
▁boom	-2679
▁dynam	-2680
▁gains	-2681
▁leave	-2682
▁raise	-2683
▁commod	-2684
▁host	-2685
▁Mexic	-2686
▁loans	-2687
▁minister	-2688
▁continued	-2689
SE	-2690
ero	-2691
loc	-2692
ries	-2693
▁fig	-2694
▁cand	-2695
▁link	-2696
▁consumer	-2697
ees	-2698
hem	-2699
ots	-2700
▁State	-2701
▁doubt	-2702
▁thing	-2703
▁Japanese	-2704
2,	-2705
▁let	-2706
ology	-2707
▁clearly	-2708
▁distrib	-2709
▁contract	-2710
pro	-2711
acro	-2712
omes	-2713
lin	-2714
une	-2715
▁mere	-2716
▁helped	-2717
▁Argentina	-2718
▁according	-2719
ogra	-2720
ancer	-2721
ressed	-2722
▁gradu	-2723
▁creation	-2724
▁advantage	-2725
%.	-2726
▁federal	-2727
▁outcome	-2728
▁incentives	-2729
ech	-2730
acter	-2731
▁mess	-2732
▁summ	-2733
▁management	-2734
af	-2735
care	-2736
▁surv	-2737
▁imposs	-2738
▁collapse	-2739
▁came	-2740
▁inev	-2741
▁jour	-2742
▁answer	-2743
fortunately	-2744
ilities	-2745
lier	-2746
▁cal	-2747
▁rob	-2748
iated	-2749
▁afford	-2750
▁equity	-2751
▁models	-2752
▁rapidly	-2753
▁Des	-2754
▁candid	-2755
▁emphas	-2756
▁stimulus	-2757
▁stronger	-2758
▁det	-2759
▁outside	-2760
▁negative	-2761
bol	-2762
pol	-2763
aper	-2764
▁basic	-2765
▁imper	-2766
▁sanctions	-2767
▁NA	-2768
▁worth	-2769
▁Soviet	-2770
▁center	-2771
▁competit	-2772
▁everyone	-2773
aries	-2774
ograph	-2775
▁flows	-2776
▁forward	-2777
▁savings	-2778
▁special	-2779
aud	-2780
right	-2781
▁cuts	-2782
▁Commun	-2783
▁Govern	-2784
▁facing	-2785
▁company	-2786
▁quality	-2787
▁ste	-2788
action	-2789
▁Second	-2790
▁protest	-2791
equ	-2792
▁liquid	-2793
▁Reserve	-2794
▁allowed	-2795
▁building	-2796
▁internal	-2797
▁enterpris	-2798
▁effectively	-2799
emic	-2800
gence	-2801
▁repe	-2802
▁soft	-2803
▁trust	-2804
▁choice	-2805
▁points	-2806
els	-2807
hel	-2808
lig	-2809
▁age	-2810
lling	-2811
▁harm	-2812
ortion	-2813
account	-2814
▁elimin	-2815
▁focused	-2816
▁impossible	-2817
7,	-2818
of	-2819
ilt	-2820
▁bub	-2821
▁forced	-2822
▁warming	-2823
▁treatment	-2824
▁communities	-2825
%,	-2826
off	-2827
▁suc	-2828
▁divid	-2829
▁implic	-2830
▁austerity	-2831
▁consumers	-2832
▁knowledge	-2833
osp	-2834
iter	-2835
▁deg	-2836
▁won	-2837
▁macro	-2838
▁study	-2839
▁Barack	-2840
▁affect	-2841
erc	-2842
▁mid	-2843
▁wat	-2844
▁2016	-2845
▁Geor	-2846
▁conn	-2847
ustain	-2848
▁roughly	-2849
▁succeed	-2850
▁economics	-2851
cle	-2852
unt	-2853
▁No	-2854
ware	-2855
ossil	-2856
▁assoc	-2857
▁basis	-2858
▁twent	-2859
▁skills	-2860
▁required	-2861
nces	-2862
▁men	-2863
ients	-2864
▁writ	-2865
▁reached	-2866
▁personal	-2867
▁suggests	-2868
do	-2869
work	-2870
▁Dep	-2871
▁Mar	-2872
▁Donald	-2873
▁saving	-2874
hens	-2875
▁road	-2876
▁shared	-2877
▁housing	-2878
▁service	-2879
▁transform	-2880
▁independence	-2881
▁assess	-2882
▁damage	-2883
▁referend	-2884
▁Just	-2885
▁chance	-2886
▁activities	-2887
celer	-2888
encies	-2889
▁borders	-2890
▁instead	-2891
▁dangerous	-2892
iff	-2893
used	-2894
▁area	-2895
▁reject	-2896
▁thereby	-2897
▁regulatory	-2898
▁0.	-2899
▁Col	-2900
▁gap	-2901
▁extra	-2902
▁commer	-2903
economic	-2904
▁proposed	-2905
▁parliament	-2906
ites	-2907
▁Lib	-2908
▁mot	-2909
▁pursue	-2910
▁contain	-2911
iety	-2912
▁exe	-2913
▁flo	-2914
retary	-2915
▁ideas	-2916
▁brought	-2917
▁dollars	-2918
▁questions	-2919
▁societies	-2920
▁regulation	-2921
▁fast	-2922
▁explo	-2923
▁vital	-2924
ensions	-2925
▁experien	-2926
▁eventually	-2927
draw	-2928
ought	-2929
▁cross	-2930
▁losses	-2931
▁intervention	-2932
▁Tw	-2933
▁fix	-2934
ustom	-2935
opolit	-2936
▁belie	-2937
▁deter	-2938
▁engage	-2939
abilities	-2940
▁II	-2941
itud	-2942
▁virt	-2943
ancial	-2944
ishing	-2945
▁claims	-2946
▁attacks	-2947
rain	-2948
▁days	-2949
▁corre	-2950
▁cancer	-2951
▁critic	-2952
▁normal	-2953
▁sources	-2954
pr	-2955
▁poore	-2956
ptember	-2957
▁fossil	-2958
▁Unfortunately	-2959
mb	-2960
▁fully	-2961
iciency	-2962
▁deliver	-2963
oks	-2964
▁bi	-2965
▁seek	-2966
▁Other	-2967
▁analy	-2968
▁simple	-2969
▁emp	-2970
▁sym	-2971
▁moral	-2972
▁office	-2973
9,	-2974
ann	-2975
▁15	-2976
lands	-2977
▁core	-2978
▁events	-2979
▁family	-2980
▁matters	-2981
▁September	-2982
hers	-2983
▁Ken	-2984
▁tas	-2985
▁From	-2986
▁People	-2987
▁efficient	-2988
ashing	-2989
▁Paris	-2990
▁argue	-2991
▁limit	-2992
▁Finally	-2993
▁reduced	-2994
▁committed	-2995
▁increases	-2996
ott	-2997
▁Simil	-2998
▁minist	-2999
▁electric	-3000
nal	-3001
olid	-3002
▁reb	-3003
arity	-3004
▁frag	-3005
▁pain	-3006
▁Go	-3007
ands	-3008
ibly	-3009
vert	-3010
rust	-3011
▁mark	-3012
▁widely	-3013
▁immigration	-3014
▁independent	-3015
auc	-3016
▁Rev	-3017
▁autom	-3018
▁Econom	-3019
▁agreed	-3020
fficient	-3021
▁hop	-3022
rehens	-3023
▁clean	-3024
▁sound	-3025
▁yield	-3026
▁targets	-3027
▁victory	-3028
▁compared	-3029
▁consensus	-3030
umb	-3031
▁10%	-3032
order	-3033
▁NATO	-3034
▁person	-3035
▁precise	-3036
▁regions	-3037
war	-3038
▁quant	-3039
▁trading	-3040
▁accounts	-3041
▁thinking	-3042
▁encourage	-3043
duct	-3044
lled	-3045
▁plac	-3046
▁scen	-3047
▁goals	-3048
▁engine	-3049
▁Islamic	-3050
▁individuals	-3051
▁significantly	-3052
▁196	-3053
▁Despite	-3054
▁withdraw	-3055
ustainable	-3056
augh	-3057
ellig	-3058
▁list	-3059
eneral	-3060
▁allies	-3061
▁crucial	-3062
▁referendum	-3063
▁construction	-3064
▁red	-3065
▁trig	-3066
▁super	-3067
▁surve	-3068
▁biggest	-3069
▁describ	-3070
▁complete	-3071
angu	-3072
hern	-3073
rist	-3074
▁Eng	-3075
▁Nor	-3076
▁enh	-3077
erate	-3078
▁aimed	-3079
▁block	-3080
▁shows	-3081
▁primary	-3082
▁provided	-3083
▁providing	-3084
▁initiative	-3085
▁membership	-3086
▁sufficient	-3087
ij	-3088
▁Bo	-3089
rest	-3090
ried	-3091
▁pus	-3092
ender	-3093
light	-3094
▁draw	-3095
▁minim	-3096
▁parts	-3097
▁actions	-3098
▁legitim	-3099
▁meaning	-3100
ventional	-3101
▁property	-3102
▁migration	-3103
▁vulnerable	-3104
eng	-3105
uct	-3106
▁Med	-3107
▁mut	-3108
pping	-3109
▁Over	-3110
▁vacc	-3111
▁thought	-3112
▁bilateral	-3113
▁direction	-3114
▁expectations	-3115
mp	-3116
▁My	-3117
▁nor	-3118
▁vast	-3119
▁Indian	-3120
▁conserv	-3121
co	-3122
oot	-3123
val	-3124
▁Mexico	-3125
▁stable	-3126
▁trying	-3127
atically	-3128
▁falling	-3129
aul	-3130
▁fri	-3131
house	-3132
▁tight	-3133
▁2.	-3134
airs	-3135
▁sal	-3136
▁field	-3137
▁heart	-3138
▁acceler	-3139
▁cultural	-3140
▁directly	-3141
▁commodity	-3142
▁neighbors	-3143
ats	-3144
par	-3145
▁Pl	-3146
antic	-3147
▁2000	-3148
▁adap	-3149
▁name	-3150
atever	-3151
sector	-3152
▁steps	-3153
▁inclus	-3154
▁latest	-3155
▁promote	-3156
▁throughout	-3157
..	-3158
aff	-3159
ita	-3160
▁BE	-3161
▁phys	-3162
▁embra	-3163
▁faces	-3164
▁front	-3165
▁appear	-3166
▁border	-3167
▁farmers	-3168
▁difference	-3169
▁importance	-3170
▁ultimately	-3171
urm	-3172
▁Not	-3173
fully	-3174
aterial	-3175
▁Sen	-3176
▁purp	-3177
▁burden	-3178
▁secure	-3179
▁facilit	-3180
▁seeking	-3181
▁commercial	-3182
cast	-3183
cont	-3184
▁era	-3185
▁mal	-3186
▁game	-3187
▁opin	-3188
▁orig	-3189
▁minor	-3190
▁whole	-3191
▁seemed	-3192
▁constra	-3193
▁context	-3194
▁contrary	-3195
▁supposed	-3196
▁multilateral	-3197
1.	-3198
rus	-3199
undred	-3200
▁therefore	-3201
CD	-3202
my	-3203
▁unf	-3204
rowth	-3205
▁save	-3206
ulated	-3207
▁enable	-3208
▁partly	-3209
▁pattern	-3210
▁followed	-3211
▁character	-3212
elt	-3213
ony	-3214
▁30	-3215
▁193	-3216
▁House	-3217
▁Trade	-3218
▁displ	-3219
▁story	-3220
▁argued	-3221
▁radical	-3222
▁geopolit	-3223
-2	-3224
car	-3225
andon	-3226
▁imbal	-3227
▁scenar	-3228
▁culture	-3229
▁uncertainty	-3230
▁Am	-3231
▁Last	-3232
policy	-3233
▁thous	-3234
▁custom	-3235
▁margin	-3236
▁nation	-3237
▁consist	-3238
▁competitive	-3239
▁default	-3240
▁Likewise	-3241
▁strategies	-3242
eria	-3243
▁bro	-3244
▁sup	-3245
▁truth	-3246
▁becomes	-3247
▁religious	-3248
▁responsible	-3249
ORK	-3250
▁Ke	-3251
ique	-3252
▁Joh	-3253
▁laws	-3254
▁plat	-3255
▁push	-3256
▁reve	-3257
▁recon	-3258
▁abroad	-3259
▁summit	-3260
▁leaving	-3261
▁subject	-3262
▁Secretary	-3263
ING	-3264
nam	-3265
oman	-3266
▁YORK	-3267
▁mand	-3268
▁wind	-3269
▁zero	-3270
▁drive	-3271
▁faster	-3272
▁nature	-3273
▁abandon	-3274
▁material	-3275
▁understanding	-3276
men	-3277
izes	-3278
ocks	-3279
▁Cam	-3280
▁city	-3281
▁Treat	-3282
▁announced	-3283
▁terrorism	-3284
rene	-3285
requ	-3286
going	-3287
▁Comp	-3288
▁Though	-3289
▁extent	-3290
▁limits	-3291
▁option	-3292
▁theory	-3293
▁turned	-3294
▁imports	-3295
▁apparent	-3296
▁argument	-3297
▁produced	-3298
▁students	-3299
▁Republican	-3300
▁profession	-3301
yl	-3302
▁Ph	-3303
▁Ham	-3304
▁sens	-3305
▁plans	-3306
▁tools	-3307
▁capita	-3308
▁conclud	-3309
▁politically	-3310
DS	-3311
sec	-3312
aled	-3313
▁Its	-3314
▁buy	-3315
ondon	-3316
▁John	-3317
outher	-3318
▁barri	-3319
▁serve	-3320
▁talks	-3321
▁wages	-3322
▁execut	-3323
▁journal	-3324
▁liquidity	-3325
oy	-3326
ubl	-3327
▁Only	-3328
▁book	-3329
▁hour	-3330
▁week	-3331
▁Chile	-3332
▁mortg	-3333
▁volat	-3334
▁wants	-3335
▁London	-3336
▁authority	-3337
▁pollution	-3338
ox	-3339
ety	-3340
ignt	-3341
▁here	-3342
reprene	-3343
▁circum	-3344
▁confront	-3345
▁reflects	-3346
▁immediate	-3347
▁insurance	-3348
gn	-3349
ether	-3350
gency	-3351
illing	-3352
racies	-3353
▁going	-3354
▁rural	-3355
▁bankers	-3356
▁broader	-3357
▁enterprises	-3358
▁substantial	-3359
OND	-3360
back	-3361
nder	-3362
asion	-3363
ignty	-3364
▁coup	-3365
▁size	-3366
▁Organ	-3367
▁adopt	-3368
▁sides	-3369
▁urgent	-3370
ls	-3371
▁CA	-3372
edly	-3373
▁exc	-3374
ONDON	-3375
illed	-3376
▁exceed	-3377
▁Climate	-3378
▁adopted	-3379
rehensive	-3380
▁payments	-3381
▁prospects	-3382
▁currencies	-3383
▁efficiency	-3384
2%	-3385
anu	-3386
orial	-3387
third	-3388
ulate	-3389
▁port	-3390
▁safe	-3391
onents	-3392
actions	-3393
holders	-3394
▁LONDON	-3395
▁activity	-3396
▁standard	-3397
▁borrowing	-3398
▁excessive	-3399
▁pan	-3400
▁flex	-3401
▁imag	-3402
▁lose	-3403
▁takes	-3404
outhern	-3405
related	-3406
▁Treaty	-3407
▁comprom	-3408
▁hundred	-3409
▁platform	-3410
▁Financial	-3411
▁University	-3412
▁initiatives	-3413
7%	-3414
arc	-3415
▁Sea	-3416
▁cash	-3417
▁tell	-3418
▁range	-3419
▁happen	-3420
▁lending	-3421
▁Similarly	-3422
▁reduction	-3423
▁Republicans	-3424
▁agriculture	-3425
▁transformation	-3426
oses	-3427
porary	-3428
▁calls	-3429
▁Invest	-3430
▁specific	-3431
▁deflation	-3432
▁historical	-3433
erke	-3434
▁dict	-3435
▁advoc	-3436
▁final	-3437
▁elected	-3438
▁intellig	-3439
▁Gu	-3440
inton	-3441
▁publ	-3442
levant	-3443
▁carry	-3444
century	-3445
ovember	-3446
▁causes	-3447
▁earlier	-3448
▁precisely	-3449
▁diplomatic	-3450
▁competitiveness	-3451
▁hy	-3452
enth	-3453
▁log	-3454
▁lot	-3455
cause	-3456
▁built	-3457
▁worry	-3458
orthern	-3459
▁compar	-3460
▁changed	-3461
▁assistance	-3462
▁regulations	-3463
fect	-3464
ching	-3465
▁shown	-3466
▁stagn	-3467
▁easing	-3468
▁revenues	-3469
▁improving	-3470
lif	-3471
▁ty	-3472
SEAN	-3473
▁depos	-3474
▁easily	-3475
▁origin	-3476
▁Clinton	-3477
▁demands	-3478
▁promise	-3479
▁November	-3480
▁populist	-3481
▁subsidies	-3482
▁addressing	-3483
▁agreements	-3484
▁scientific	-3485
▁Organization	-3486
1%	-3487
4%	-3488
know	-3489
ilies	-3490
usion	-3491
▁solid	-3492
▁measure	-3493
▁Consider	-3494
▁migrants	-3495
▁legitimacy	-3496
▁sovereignty	-3497
ains	-3498
▁1990	-3499
▁Sing	-3500
ureauc	-3501
▁enorm	-3502
lements	-3503
▁finally	-3504
▁achieved	-3505
▁practices	-3506
▁contribute	-3507
▁Ass	-3508
reced	-3509
uting	-3510
▁Saud	-3511
▁fuels	-3512
▁driven	-3513
▁Eastern	-3514
▁neither	-3515
reciation	-3516
▁Palestinian	-3517
▁agricultural	-3518
5,	-3519
cale	-3520
look	-3521
▁spent	-3522
▁safety	-3523
▁appears	-3524
▁allowing	-3525
▁happened	-3526
▁improved	-3527
recedented	-3528
6%	-3529
anda	-3530
ethe	-3531
icro	-3532
▁try	-3533
aches	-3534
iring	-3535
▁June	-3536
itting	-3537
▁langu	-3538
▁police	-3539
▁diseases	-3540
▁slowdown	-3541
▁structure	-3542
vail	-3543
state	-3544
▁paid	-3545
▁your	-3546
▁meant	-3547
▁conduct	-3548
▁anything	-3549
▁provides	-3550
▁estimated	-3551
▁unprecedented	-3552
3%	-3553
MB	-3554
▁spend	-3555
▁deaths	-3556
▁factor	-3557
▁merely	-3558
▁planet	-3559
▁produc	-3560
▁stabil	-3561
▁families	-3562
▁entreprene	-3563
▁Soc	-3564
erkel	-3565
iable	-3566
scale	-3567
▁Dece	-3568
▁batt	-3569
▁separ	-3570
▁inform	-3571
▁concent	-3572
ructuring	-3573
▁electricity	-3574
▁$3	-3575
iles	-3576
stit	-3577
▁hit	-3578
ittee	-3579
▁acqu	-3580
▁wage	-3581
reland	-3582
▁oblig	-3583
▁online	-3584
▁speech	-3585
▁regulators	-3586
▁considerable	-3587
▁geopolitical	-3588
ded	-3589
ops	-3590
▁His	-3591
▁Mac	-3592
▁hur	-3593
idency	-3594
▁Merkel	-3595
▁bureauc	-3596
▁experts	-3597
▁raising	-3598
▁received	-3599
see	-3600
▁Co	-3601
bank	-3602
comes	-3603
▁went	-3604
coming	-3605
▁Polit	-3606
▁prime	-3607
▁perman	-3608
▁Ireland	-3609
▁advance	-3610
▁present	-3611
▁December	-3612
▁sometimes	-3613
isc	-3614
mar	-3615
orb	-3616
bles	-3617
▁100	-3618
▁wel	-3619
▁Both	-3620
lantic	-3621
▁optim	-3622
▁George	-3623
▁temper	-3624
▁revenue	-3625
▁scientists	-3626
▁macroeconomic	-3627
lar	-3628
upp	-3629
itig	-3630
▁pun	-3631
▁Aust	-3632
ifying	-3633
▁Their	-3634
▁narrow	-3635
▁remark	-3636
standing	-3637
▁opinion	-3638
▁running	-3639
cap	-3640
ote	-3641
ugh	-3642
ych	-3643
uild	-3644
owned	-3645
▁mach	-3646
▁spur	-3647
▁quarter	-3648
▁designed	-3649
▁conflicts	-3650
▁principle	-3651
▁associated	-3652
▁possibility	-3653
pay	-3654
mark	-3655
▁Mal	-3656
idesp	-3657
▁dead	-3658
istics	-3659
rative	-3660
▁equal	-3661
ference	-3662
itative	-3663
▁acknow	-3664
▁connect	-3665
idespread	-3666
▁training	-3667
▁resulting	-3668
▁€	-3669
fin	-3670
lied	-3671
orks	-3672
ynes	-3673
hetor	-3674
risis	-3675
▁York	-3676
▁fell	-3677
▁ASEAN	-3678
▁worst	-3679
▁confere	-3680
▁exception	-3681
▁Cal	-3682
▁manip	-3683
▁shock	-3684
▁Perhaps	-3685
▁started	-3686
▁barriers	-3687
▁changing	-3688
▁communic	-3689
▁operations	-3690
▁principles	-3691
EN	-3692
TON	-3693
▁pack	-3694
▁rele	-3695
acific	-3696
▁rhetor	-3697
▁unable	-3698
▁helping	-3699
▁incomes	-3700
▁returns	-3701
▁circumst	-3702
▁Democrats	-3703
▁sustained	-3704
IV	-3705
hib	-3706
▁Ma	-3707
aves	-3708
▁bail	-3709
▁capt	-3710
ellect	-3711
▁occup	-3712
▁closer	-3713
▁deploy	-3714
▁destro	-3715
▁Because	-3716
▁depends	-3717
▁consolid	-3718
▁greatest	-3719
▁strength	-3720
▁Parliament	-3721
fall	-3722
icip	-3723
inary	-3724
▁Thus	-3725
▁dism	-3726
▁rare	-3727
▁task	-3728
▁debts	-3729
▁stake	-3730
▁highest	-3731
▁prevail	-3732
▁remained	-3733
▁widespread	-3734
Ch	-3735
sis	-3736
▁CO	-3737
▁ec	-3738
▁enj	-3739
▁meth	-3740
▁prove	-3741
▁double	-3742
▁insist	-3743
▁amounts	-3744
▁addition	-3745
EL	-3746
pri	-3747
rich	-3748
▁Har	-3749
ables	-3750
urren	-3751
▁Anot	-3752
▁bound	-3753
▁ratio	-3754
▁Another	-3755
▁Israeli	-3756
▁managed	-3757
▁medical	-3758
▁message	-3759
▁forecast	-3760
▁thousands	-3761
▁transport	-3762
▁comprehensive	-3763
ira	-3764
uck	-3765
iagn	-3766
▁ban	-3767
▁instru	-3768
▁treaty	-3769
▁victim	-3770
▁entirely	-3771
▁launched	-3772
▁supported	-3773
▁partnership	-3774
inet	-3775
▁tro	-3776
ijing	-3777
▁lies	-3778
▁adapt	-3779
▁eight	-3780
▁giving	-3781
etheless	-3782
▁Austral	-3783
▁generate	-3784
▁outcomes	-3785
▁promises	-3786
▁restrict	-3787
▁economist	-3788
▁collective	-3789
▁democracies	-3790
▁instability	-3791
▁circumstances	-3792
7.	-3793
lows	-3794
▁sum	-3795
endit	-3796
raction	-3797
▁disrupt	-3798
▁schools	-3799
▁controls	-3800
▁fighting	-3801
▁implemented	-3802
AS	-3803
ares	-3804
▁der	-3805
▁2010	-3806
▁insp	-3807
▁pace	-3808
▁team	-3809
▁Saudi	-3810
▁choose	-3811
▁places	-3812
▁viewed	-3813
▁General	-3814
▁threats	-3815
ashington	-3816
▁agencies	-3817
▁function	-3818
▁fundament	-3819
▁Bl	-3820
▁Dav	-3821
▁ended	-3822
▁crimin	-3823
▁struggle	-3824
▁restructuring	-3825
▁strengthening	-3826
umm	-3827
wan	-3828
▁BRI	-3829
▁spir	-3830
atures	-3831
idered	-3832
▁belief	-3833
▁receive	-3834
▁appropri	-3835
▁intellect	-3836
▁capitalism	-3837
▁productive	-3838
ull	-3839
rimin	-3840
▁welf	-3841
govern	-3842
ietnam	-3843
▁frequ	-3844
▁learn	-3845
▁unless	-3846
▁expendit	-3847
▁scenario	-3848
▁estimates	-3849
▁universal	-3850
▁considered	-3851
▁har	-3852
▁pen	-3853
▁vers	-3854
▁Greek	-3855
▁space	-3856
▁easier	-3857
▁moving	-3858
▁trends	-3859
▁enormous	-3860
▁$2	-3861
▁Ju	-3862
fuel	-3863
kept	-3864
▁defe	-3865
▁wars	-3866
▁views	-3867
▁anyone	-3868
▁mention	-3869
▁refugee	-3870
▁welfare	-3871
▁rhetoric	-3872
▁experienced	-3873
▁legislation	-3874
▁intelligence	-3875
8%	-3876
ray	-3877
urb	-3878
uine	-3879
▁50%	-3880
▁Cold	-3881
▁sell	-3882
▁tack	-3883
▁drugs	-3884
▁light	-3885
▁visit	-3886
▁Christ	-3887
▁Beijing	-3888
▁Vietnam	-3889
▁percent	-3890
▁everywhere	-3891
▁presidency	-3892
nic	-3893
run	-3894
▁wa	-3895
▁unw	-3896
ipher	-3897
which	-3898
▁stem	-3899
aching	-3900
▁Those	-3901
reasury	-3902
▁raised	-3903
▁suffer	-3904
▁absence	-3905
▁southern	-3906
▁Communist	-3907
▁Democratic	-3908
▁Revolution	-3909
ios	-3910
rid	-3911
whel	-3912
▁mer	-3913
▁ord	-3914
▁seven	-3915
▁weakness	-3916
▁undermine	-3917
sc	-3918
yle	-3919
Euro	-3920
ogue	-3921
adequ	-3922
▁During	-3923
▁genuine	-3924
▁coalition	-3925
▁territorial	-3926
CS	-3927
gen	-3928
▁($	-3929
▁Er	-3930
▁Non	-3931
▁Why	-3932
aling	-3933
▁2006	-3934
▁drop	-3935
▁quite	-3936
▁robust	-3937
▁concept	-3938
▁smaller	-3939
▁perspect	-3940
▁repeated	-3941
▁otherwise	-3942
▁Washington	-3943
▁inevitable	-3944
▁objectives	-3945
▁Tai	-3946
anuary	-3947
▁intens	-3948
▁resist	-3949
▁dynamic	-3950
▁justice	-3951
▁combined	-3952
▁involved	-3953
▁adjustment	-3954
▁50	-3955
▁gl	-3956
ronic	-3957
▁whom	-3958
▁adequ	-3959
▁Keynes	-3960
▁Rather	-3961
▁deeply	-3962
▁revers	-3963
▁worked	-3964
▁January	-3965
▁profits	-3966
▁hundreds	-3967
.)	-3968
4,	-3969
▁Whe	-3970
▁Kong	-3971
▁isol	-3972
▁prem	-3973
Europe	-3974
▁alloc	-3975
▁asked	-3976
▁solar	-3977
▁medium	-3978
▁offers	-3979
▁driving	-3980
▁enforce	-3981
▁himself	-3982
▁declared	-3983
▁ensuring	-3984
▁overwhel	-3985
hic	-3986
▁203	-3987
▁HIV	-3988
▁sen	-3989
▁squ	-3990
▁Hong	-3991
▁diss	-3992
▁goes	-3993
▁wast	-3994
iction	-3995
▁Under	-3996
▁remov	-3997
flation	-3998
▁Instit	-3999
▁Taiwan	-4000
▁accomp	-4001
▁comput	-4002
▁mostly	-4003
▁played	-4004
▁complic	-4005
▁getting	-4006
▁disaster	-4007
▁tensions	-4008
▁transfer	-4009
▁everything	-4010
DGE	-4011
MBRI	-4012
itude	-4013
level	-4014
rison	-4015
▁bott	-4016
▁hands	-4017
▁lines	-4018
MBRIDGE	-4019
▁owners	-4020
▁correct	-4021
▁decided	-4022
▁implies	-4023
▁resource	-4024
▁CAMBRIDGE	-4025
▁imbalances	-4026
▁credibility	-4027
▁differences	-4028
ode	-4029
more	-4030
ores	-4031
uses	-4032
▁194	-4033
▁Port	-4034
▁arms	-4035
▁aware	-4036
▁resil	-4037
▁Colomb	-4038
▁bubble	-4039
▁affairs	-4040
▁inadequ	-4041
▁ongoing	-4042
▁peripher	-4043
▁priority	-4044
▁creditors	-4045
▁promoting	-4046
los	-4047
dden	-4048
iate	-4049
▁sex	-4050
▁Swed	-4051
▁Canad	-4052
▁compl	-4053
▁forms	-4054
▁stage	-4055
▁hardly	-4056
▁lesson	-4057
▁compens	-4058
▁lessons	-4059
▁poorest	-4060
▁sharply	-4061
▁various	-4062
▁collabor	-4063
▁includes	-4064
▁developments	-4065
▁12	-4066
enez	-4067
ints	-4068
▁Man	-4069
inent	-4070
▁Third	-4071
itation	-4072
▁prefer	-4073
▁persist	-4074
AR	-4075
▁2%	-4076
reet	-4077
▁due	-4078
antly	-4079
▁colle	-4080
▁faced	-4081
enezuel	-4082
▁fallen	-4083
▁proved	-4084
▁underp	-4085
▁arrange	-4086
▁generally	-4087
▁ministers	-4088
▁terrorist	-4089
▁populations	-4090
▁intellectual	-4091
ods	-4092
raft	-4093
uman	-4094
▁beg	-4095
▁Cour	-4096
▁fears	-4097
▁perce	-4098
▁Health	-4099
▁expanding	-4100
▁distribution	-4101
▁implications	-4102
5.	-4103
▁"	-4104
▁ey	-4105
-200	-4106
▁Bro	-4107
▁Nig	-4108
aught	-4109
▁Then	-4110
▁base	-4111
▁obst	-4112
carbon	-4113
▁2008,	-4114
▁joint	-4115
▁trial	-4116
▁multip	-4117
▁tariff	-4118
▁options	-4119
▁Venezuel	-4120
▁leverage	-4121
▁overcome	-4122
▁diplomacy	-4123
▁typically	-4124
▁greenhouse	-4125
▁resistance	-4126
▁potentially	-4127
3,	-4128
▁DC	-4129
ames	-4130
aria	-4131
ieth	-4132
▁firm	-4133
▁root	-4134
▁mount	-4135
▁round	-4136
▁tried	-4137
▁mainly	-4138
ev	-4139
cto	-4140
aren	-4141
fers	-4142
inks	-4143
long	-4144
▁hor	-4145
▁Octo	-4146
▁stay	-4147
▁March	-4148
▁blame	-4149
▁hours	-4150
▁speak	-4151
▁sought	-4152
▁sudden	-4153
▁October	-4154
▁cutting	-4155
▁patients	-4156
▁proposal	-4157
▁expensive	-4158
▁mechanisms	-4159
oz	-4160
doğ	-4161
▁ep	-4162
book	-4163
astro	-4164
doğan	-4165
eenth	-4166
▁susp	-4167
▁talk	-4168
▁1990’	-4169
▁accum	-4170
▁actors	-4171
▁forest	-4172
▁formal	-4173
▁stands	-4174
▁Erdoğan	-4175
▁Without	-4176
▁emerged	-4177
▁heavily	-4178
▁usually	-4179
▁practice	-4180
▁guarantee	-4181
▁innovative	-4182
▁commitments	-4183
▁organization	-4184
▁establishment	-4185
sels	-4186
▁dro	-4187
asing	-4188
ffect	-4189
▁room	-4190
▁told	-4191
▁dimin	-4192
▁exact	-4193
▁hopes	-4194
▁stead	-4195
▁assert	-4196
▁reinfor	-4197
▁resolve	-4198
▁entrepreneurs	-4199
rud	-4200
▁10	-4201
ager	-4202
▁bul	-4203
▁earn	-4204
▁join	-4205
▁rely	-4206
▁defend	-4207
▁devast	-4208
▁regimes	-4209
▁language	-4210
▁profound	-4211
▁objective	-4212
▁technical	-4213
▁conference	-4214
▁participation	-4215
Es	-4216
▁ut	-4217
ping	-4218
▁20%	-4219
▁gone	-4220
itious	-4221
▁obser	-4222
▁track	-4223
▁vehic	-4224
▁confron	-4225
▁offered	-4226
▁partner	-4227
▁bankrupt	-4228
▁percentage	-4229
▁volatility	-4230
▁authoritarian	-4231
▁vo	-4232
▁sil	-4233
heast	-4234
iders	-4235
▁Here	-4236
▁ties	-4237
▁Court	-4238
▁diagn	-4239
▁aggreg	-4240
▁gender	-4241
▁unique	-4242
▁virtually	-4243
pet	-4244
▁Pr	-4245
rack	-4246
▁upon	-4247
▁Count	-4248
▁chann	-4249
▁cheap	-4250
▁cycle	-4251
▁heavy	-4252
▁motiv	-4253
▁Policy	-4254
▁recomm	-4255
▁coordin	-4256
▁credible	-4257
▁immigrants	-4258
ECD	-4259
aut	-4260
▁Do	-4261
alle	-4262
▁Ber	-4263
▁mor	-4264
apore	-4265
▁2009	-4266
▁2020	-4267
▁Ital	-4268
▁acad	-4269
▁pled	-4270
▁sold	-4271
▁medic	-4272
▁Portug	-4273
▁useful	-4274
▁involve	-4275
▁purpose	-4276
▁whereas	-4277
enh	-4278
▁Me	-4279
arency	-4280
▁works	-4281
▁Beyond	-4282
▁Korean	-4283
▁Poland	-4284
▁ethnic	-4285
▁appoint	-4286
▁mistake	-4287
▁relevant	-4288
▁starters	-4289
▁suffering	-4290
uk	-4291
ery	-4292
ague	-4293
sych	-4294
▁ones	-4295
Americ	-4296
▁mitig	-4297
▁Social	-4298
▁travel	-4299
▁conclus	-4300
▁permanent	-4301
▁transactions	-4302
▁unsustainable	-4303
atis	-4304
fort	-4305
wing	-4306
▁Two	-4307
agers	-4308
illeg	-4309
▁excl	-4310
▁grew	-4311
▁Still	-4312
▁shape	-4313
▁spect	-4314
uations	-4315
▁degree	-4316
▁figure	-4317
▁numbers	-4318
▁learning	-4319
▁pursuing	-4320
▁whatever	-4321
▁described	-4322
▁processes	-4323
▁renewable	-4324
▁territory	-4325
The	-4326
anks	-4327
uous	-4328
▁Sch	-4329
▁Sil	-4330
uries	-4331
▁OECD	-4332
▁Will	-4333
▁2015,	-4334
▁deval	-4335
▁desper	-4336
▁causing	-4337
▁replace	-4338
▁turning	-4339
▁planning	-4340
-19	-4341
ift	-4342
leb	-4343
oil	-4344
▁30%	-4345
▁stra	-4346
▁type	-4347
▁Hamas	-4348
▁weeks	-4349
ialogue	-4350
▁explan	-4351
ographic	-4352
▁prepared	-4353
▁Singapore	-4354
▁aggregate	-4355
▁investing	-4356
▁positions	-4357
▁producers	-4358
▁Fortunately	-4359
▁counterpart	-4360
▁dramatically	-4361
iot	-4362
▁gir	-4363
▁1980	-4364
▁July	-4365
herent	-4366
urities	-4367
▁divided	-4368
▁Treasury	-4369
▁declining	-4370
▁combination	-4371
▁generations	-4372
time	-4373
▁Eth	-4374
▁Jew	-4375
acerb	-4376
fense	-4377
stream	-4378
▁mobil	-4379
▁schem	-4380
▁applic	-4381
▁choices	-4382
▁destroy	-4383
▁exacerb	-4384
▁failing	-4385
▁friends	-4386
▁movements	-4387
▁remaining	-4388
▁discussion	-4389
▁integrated	-4390
▁introduced	-4391
▁appropriate	-4392
bled	-4393
ties	-4394
▁195	-4395
▁dri	-4396
▁hon	-4397
abled	-4398
chang	-4399
▁army	-4400
▁fulf	-4401
▁wond	-4402
▁court	-4403
▁knows	-4404
▁signs	-4405
▁battle	-4406
▁elites	-4407
▁infect	-4408
▁remind	-4409
▁troops	-4410
▁happens	-4411
▁determine	-4412
▁3.	-4413
iant	-4414
▁wis	-4415
power	-4416
▁Bang	-4417
▁Fore	-4418
▁body	-4419
luding	-4420
▁board	-4421
▁persu	-4422
▁youth	-4423
▁deeper	-4424
▁ruling	-4425
▁undert	-4426
▁holding	-4427
▁temporary	-4428
▁recognized	-4429
▁immediately	-4430
8,	-4431
add	-4432
enn	-4433
itz	-4434
let	-4435
▁mur	-4436
▁fost	-4437
inking	-4438
▁delay	-4439
▁illeg	-4440
ivalent	-4441
▁Arabia	-4442
▁accord	-4443
▁Australia	-4444
▁addressed	-4445
▁continuing	-4446
▁conventional	-4447
▁sto	-4448
count	-4449
first	-4450
▁bear	-4451
▁calc	-4452
▁lend	-4453
▁2010,	-4454
▁dream	-4455
▁faith	-4456
▁grown	-4457
ructive	-4458
▁conver	-4459
▁humans	-4460
▁equally	-4461
▁learned	-4462
▁annually	-4463
▁starting	-4464
▁electoral	-4465
▁Investment	-4466
▁inadequate	-4467
▁destruction	-4468
US	-4469
dr	-4470
lad	-4471
ancy	-4472
rage	-4473
▁40%	-4474
▁Car	-4475
▁bre	-4476
anted	-4477
▁foot	-4478
iences	-4479
▁parent	-4480
▁plants	-4481
▁pension	-4482
ibilities	-4483
▁promised	-4484
▁ambitious	-4485
▁published	-4486
▁transparency	-4487
4.	-4488
eron	-4489
ikes	-4490
oking	-4491
▁aris	-4492
▁exerc	-4493
▁issued	-4494
▁stress	-4495
▁summer	-4496
▁bringing	-4497
▁reflected	-4498
▁twentieth	-4499
▁candidates	-4500
▁corporations	-4501
▁sustainability	-4502
BO	-4503
▁li	-4504
debt	-4505
iled	-4506
▁Kos	-4507
ilipp	-4508
itter	-4509
▁Serb	-4510
▁anim	-4511
▁bold	-4512
▁feed	-4513
idents	-4514
▁Trans	-4515
▁imped	-4516
▁losing	-4517
▁towards	-4518
▁analysis	-4519
▁ordinary	-4520
▁underlying	-4521
▁encouraging	-4522
▁perspective	-4523
▁quantitative	-4524
la	-4525
DGs	-4526
enty	-4527
llor	-4528
resp	-4529
▁sea	-4530
▁cell	-4531
▁grand	-4532
▁react	-4533
▁solve	-4534
▁Philipp	-4535
▁putting	-4536
▁studies	-4537
▁trouble	-4538
▁Partners	-4539
▁billions	-4540
▁occurred	-4541
▁Committee	-4542
▁purchases	-4543
▁Depression	-4544
▁priorities	-4545
▁requirements	-4546
acco	-4547
licit	-4548
▁evol	-4549
▁phil	-4550
▁begun	-4551
▁looks	-4552
▁Syrian	-4553
▁desire	-4554
▁legisl	-4555
▁Indones	-4556
▁critics	-4557
▁nations	-4558
▁playing	-4559
▁underpin	-4560
▁tradition	-4561
▁aggressive	-4562
▁represents	-4563
son	-4564
axim	-4565
bola	-4566
cons	-4567
▁Act	-4568
ested	-4569
▁Prot	-4570
▁fert	-4571
▁nomin	-4572
▁psych	-4573
▁preced	-4574
▁discipl	-4575
▁trigger	-4576
aza	-4577
ches	-4578
conn	-4579
lines	-4580
▁trip	-4581
apital	-4582
orient	-4583
rowing	-4584
▁monit	-4585
▁assume	-4586
▁gained	-4587
▁impose	-4588
▁reluct	-4589
▁England	-4590
▁exactly	-4591
▁believed	-4592
▁observers	-4593
▁seriously	-4594
▁contributed	-4595
gu	-4596
ken	-4597
iforn	-4598
orpor	-4599
▁gave	-4600
▁2014,	-4601
▁Kosov	-4602
▁Leban	-4603
▁ready	-4604
aration	-4605
▁Brother	-4606
▁perfect	-4607
▁reports	-4608
▁species	-4609
▁Californ	-4610
gas	-4611
iers	-4612
ires	-4613
reen	-4614
▁Abe	-4615
▁Bal	-4616
▁Nob	-4617
class	-4618
▁2012,	-4619
▁2013,	-4620
▁Ebola	-4621
▁added	-4622
▁enjoy	-4623
▁paper	-4624
▁detail	-4625
▁offset	-4626
▁twenty	-4627
▁healthy	-4628
▁related	-4629
▁although	-4630
▁surprise	-4631
▁inclusive	-4632
▁conservative	-4633
▁economically	-4634
asc	-4635
che	-4636
han	-4637
ylum	-4638
▁Our	-4639
▁mix	-4640
▁ric	-4641
atisf	-4642
iling	-4643
▁killed	-4644
▁modest	-4645
▁Cameron	-4646
▁underst	-4647
▁rational	-4648
▁contracts	-4649
▁proportion	-4650
▁Partnership	-4651
▁Palestinians	-4652
▁liberalization	-4653
ze	-4654
ula	-4655
unn	-4656
▁Ne	-4657
igor	-4658
▁Unt	-4659
works	-4660
▁Road	-4661
▁flaw	-4662
icious	-4663
lihood	-4664
roduct	-4665
uilding	-4666
ustrial	-4667
▁Growth	-4668
▁confir	-4669
▁restore	-4670
▁victims	-4671
▁Portugal	-4672
▁protests	-4673
▁achieving	-4674
▁emergence	-4675
▁equivalent	-4676
▁80%	-4677
▁BER	-4678
ading	-4679
▁anal	-4680
▁fire	-4681
▁peak	-4682
▁fixed	-4683
▁leads	-4684
▁tough	-4685
▁truly	-4686
▁emerge	-4687
▁mutual	-4688
▁profit	-4689
▁imposed	-4690
▁identity	-4691
▁possibly	-4692
▁reaching	-4693
▁criticism	-4694
▁experiment	-4695
▁substantially	-4696
▁accountability	-4697
▁60%	-4698
ibiot	-4699
▁enact	-4700
russels	-4701
▁bottom	-4702
▁signed	-4703
▁compris	-4704
▁dramatic	-4705
▁physical	-4706
▁protecting	-4707
▁25	-4708
-201	-4709
adow	-4710
arsh	-4711
ibet	-4712
ogle	-4713
onom	-4714
pril	-4715
with	-4716
▁Reg	-4717
▁quo	-4718
▁wid	-4719
anied	-4720
▁Vlad	-4721
▁Kenya	-4722
▁earth	-4723
▁fewer	-4724
▁maxim	-4725
▁active	-4726
▁arrest	-4727
▁decide	-4728
▁obstac	-4729
exchange	-4730
▁Constit	-4731
▁figures	-4732
▁Colombia	-4733
▁affected	-4734
▁disputes	-4735
▁investig	-4736
▁Indonesia	-4737
▁candidate	-4738
▁transfers	-4739
▁establishing	-4740
ns	-4741
imb	-4742
ney	-4743
▁11	-4744
▁Kh	-4745
ugust	-4746
▁2007	-4747
▁AIDS	-4748
▁bomb	-4749
▁tact	-4750
itably	-4751
▁accur	-4752
▁compe	-4753
▁cyber	-4754
▁decis	-4755
▁elite	-4756
▁Energy	-4757
▁Kosovo	-4758
▁Sweden	-4759
▁violent	-4760
▁Brussels	-4761
▁suffered	-4762
▁concerned	-4763
▁practical	-4764
▁California	-4765
▁approaches	-4766
▁constitutional	-4767
EO	-4768
ipe	-4769
oly	-4770
▁Te	-4771
▁Ant	-4772
▁got	-4773
▁Wall	-4774
▁exit	-4775
▁inde	-4776
ground	-4777
mented	-4778
▁armed	-4779
appoint	-4780
▁Canada	-4781
▁asylum	-4782
▁engaged	-4783
▁proposals	-4784
▁attractive	-4785
▁supporting	-4786
▁Governments	-4787
▁accompanied	-4788
▁institution	-4789
▁journalists	-4790
osis	-4791
▁Jin	-4792
anish	-4793
▁Plan	-4794
▁Turk	-4795
border	-4796
▁Tibet	-4797
▁Until	-4798
▁aging	-4799
▁users	-4800
▁costly	-4801
▁fueled	-4802
▁paying	-4803
▁content	-4804
▁secular	-4805
▁identify	-4806
▁recognition	-4807
era	-4808
aily	-4809
ifth	-4810
imir	-4811
pric	-4812
reme	-4813
▁ver	-4814
▁east	-4815
crisis	-4816
rating	-4817
▁2011,	-4818
▁celeb	-4819
▁liter	-4820
country	-4821
ospital	-4822
▁Google	-4823
▁senior	-4824
▁showed	-4825
▁superv	-4826
▁researc	-4827
▁Vladimir	-4828
▁mortgage	-4829
▁networks	-4830
▁incentive	-4831
▁accounting	-4832
▁nationalism	-4833
GO	-4834
cks	-4835
eth	-4836
gic	-4837
rog	-4838
ulf	-4839
▁40	-4840
▁Em	-4841
mbly	-4842
▁Off	-4843
ained	-4844
irect	-4845
lades	-4846
▁wake	-4847
INGTON	-4848
overed	-4849
▁April	-4850
▁girls	-4851
▁revol	-4852
▁Chance	-4853
▁mobile	-4854
▁observ	-4855
▁symbol	-4856
▁wanted	-4857
European	-4858
▁Jinping	-4859
▁centers	-4860
▁network	-4861
▁welcome	-4862
▁dialogue	-4863
▁historic	-4864
▁opposite	-4865
▁reported	-4866
▁evolution	-4867
▁gradually	-4868
▁highlight	-4869
▁platforms	-4870
▁remarkable	-4871
▁structures	-4872
▁implementation	-4873
CC	-4874
ASH	-4875
mon	-4876
▁fem	-4877
▁Shan	-4878
▁none	-4879
ladesh	-4880
▁August	-4881
▁survey	-4882
▁Foreign	-4883
▁Italian	-4884
▁defined	-4885
▁setting	-4886
▁alliance	-4887
▁antibiot	-4888
▁boosting	-4889
▁criminal	-4890
▁borrowers	-4891
▁pressures	-4892
▁Bangladesh	-4893
▁determined	-4894
▁surprising	-4895
ih	-4896
▁13	-4897
etic	-4898
ison	-4899
▁fal	-4900
▁shr	-4901
secut	-4902
▁Paul	-4903
▁brut	-4904
igrant	-4905
▁tempt	-4906
Pacific	-4907
▁search	-4908
▁notably	-4909
ASHINGTON	-4910
▁supplies	-4911
▁eliminate	-4912
▁previously	-4913
iop	-4914
ocu	-4915
▁thr	-4916
igned	-4917
ional	-4918
▁iron	-4919
icking	-4920
▁Nobel	-4921
urrency	-4922
▁Conserv	-4923
▁Muslims	-4924
▁benefic	-4925
▁equality	-4926
▁expanded	-4927
ordination	-4928
▁Venezuela	-4929
▁compromise	-4930
▁preventing	-4931
▁maintaining	-4932
▁Mc	-4933
ghai	-4934
ingu	-4935
pass	-4936
orted	-4937
▁Face	-4938
▁Prog	-4939
▁Spec	-4940
▁phen	-4941
arters	-4942
artment	-4943
▁shocks	-4944
▁Iranian	-4945
▁closely	-4946
▁creates	-4947
▁embrace	-4948
▁exposed	-4949
▁operate	-4950
▁Shanghai	-4951
▁accepted	-4952
▁explicit	-4953
▁intended	-4954
▁managing	-4955
▁perceived	-4956
▁WASHINGTON	-4957
▁engagement	-4958
▁Philippines	-4959
8.	-4960
AI	-4961
eb	-4962
rap	-4963
comm	-4964
▁Ange	-4965
▁Cont	-4966
▁arch	-4967
▁chem	-4968
▁irre	-4969
iberal	-4970
▁apply	-4971
▁doesn	-4972
▁parad	-4973
▁sales	-4974
▁uncon	-4975
▁surely	-4976
▁mandate	-4977
▁weather	-4978
▁humanity	-4979
▁managers	-4980
liferation	-4981
▁negotiate	-4982
▁opponents	-4983
▁Nonetheless	-4984
▁researchers	-4985
DR	-4986
ari	-4987
mosp	-4988
rown	-4989
▁Any	-4990
▁Ear	-4991
▁aud	-4992
▁dow	-4993
uable	-4994
▁cong	-4995
▁crop	-4996
▁fort	-4997
▁race	-4998
contro	-4999
▁BRICS	-5000
▁Every	-5001
▁reput	-5002
▁Ethiop	-5003
national	-5004
▁Lebanon	-5005
▁anticip	-5006
▁chronic	-5007
▁included	-5008
▁peaceful	-5009
▁employees	-5010
▁periphery	-5011
▁resolution	-5012
▁threatened	-5013
rs	-5014
ife	-5015
iti	-5016
bert	-5017
idel	-5018
▁nav	-5019
▁Gaza	-5020
▁enem	-5021
▁nine	-5022
▁ideal	-5023
▁moved	-5024
▁scope	-5025
▁toler	-5026
reement	-5027
▁defeat	-5028
▁sheets	-5029
▁weight	-5030
oriented	-5031
▁bailout	-5032
▁enhance	-5033
▁pushing	-5034
▁interven	-5035
▁northern	-5036
▁centuries	-5037
▁promising	-5038
▁sentiment	-5039
▁essentially	-5040
▁nationalist	-5041
▁constitution	-5042
▁humanitarian	-5043
▁restrictions	-5044
oke	-5045
appe	-5046
atal	-5047
free	-5048
inct	-5049
oubt	-5050
▁Bel	-5051
▁Mod	-5052
▁asp	-5053
arely	-5054
oming	-5055
▁says	-5056
driven	-5057
▁Again	-5058
▁champ	-5059
▁micro	-5060
▁rival	-5061
▁smart	-5062
▁atmosp	-5063
▁incomp	-5064
▁legacy	-5065
▁warned	-5066
security	-5067
▁express	-5068
▁keeping	-5069
▁opening	-5070
intensive	-5071
▁phenomen	-5072
▁survival	-5073
▁targeted	-5074
▁concluded	-5075
▁solidarity	-5076
▁withdrawal	-5077
▁educational	-5078
▁necessarily	-5079
▁willingness	-5080
▁parliamentary	-5081
OEs	-5082
iang	-5083
lete	-5084
▁Rom	-5085
▁lay	-5086
bling	-5087
ipped	-5088
▁Hung	-5089
▁outs	-5090
inding	-5091
ultane	-5092
▁downt	-5093
▁crimes	-5094
▁ignore	-5095
▁rating	-5096
ventions	-5097
▁subsequ	-5098
▁shifting	-5099
▁Countries	-5100
▁primarily	-5101
▁devastating	-5102
▁undermining	-5103
CA	-5104
lock	-5105
urch	-5106
ament	-5107
▁exam	-5108
aining	-5109
▁Libya	-5110
ogether	-5111
▁Macron	-5112
▁closed	-5113
▁pushed	-5114
▁Further	-5115
▁budgets	-5116
▁Facebook	-5117
▁deterior	-5118
▁rejected	-5119
▁legitimate	-5120
▁supporters	-5121
▁demographic	-5122
▁innovations	-5123
oud	-5124
▁Su	-5125
ahar	-5126
fare	-5127
▁Cub	-5128
being	-5129
onent	-5130
▁Burm	-5131
▁rose	-5132
▁alike	-5133
▁deals	-5134
▁reass	-5135
▁tests	-5136
▁placed	-5137
▁prison	-5138
▁illegal	-5139
▁initial	-5140
▁sharing	-5141
▁Institute	-5142
▁emergency	-5143
▁extremely	-5144
▁simultane	-5145
▁understood	-5146
▁instruments	-5147
▁universities	-5148
▁contributions	-5149
iny	-5150
uit	-5151
▁QE	-5152
olst	-5153
pted	-5154
▁Bern	-5155
▁epid	-5156
▁shap	-5157
resent	-5158
▁disag	-5159
▁Street	-5160
▁allows	-5161
▁weaker	-5162
▁tariffs	-5163
▁failures	-5164
▁neighbor	-5165
▁populism	-5166
▁presence	-5167
▁imperative	-5168
▁securities	-5169
▁coordination	-5170
▁demonstrated	-5171
imp	-5172
rue	-5173
cean	-5174
▁Big	-5175
▁sus	-5176
▁Once	-5177
▁born	-5178
▁gold	-5179
▁sort	-5180
lected	-5181
▁rebal	-5182
▁conven	-5183
▁taxpay	-5184
ophistic	-5185
▁However	-5186
▁Whether	-5187
▁capable	-5188
▁players	-5189
▁survive	-5190
ineteenth	-5191
▁advances	-5192
▁marginal	-5193
▁momentum	-5194
▁vehicles	-5195
▁ownership	-5196
▁facilitate	-5197
▁threatening	-5198
duc	-5199
ume	-5200
▁16	-5201
▁17	-5202
▁3%	-5203
▁Add	-5204
▁Are	-5205
▁Lab	-5206
▁Sud	-5207
▁ded	-5208
erous	-5209
▁Krem	-5210
airman	-5211
clical	-5212
▁guide	-5213
▁risky	-5214
cession	-5215
▁libert	-5216
▁prohib	-5217
▁slight	-5218
▁Kremlin	-5219
▁Nigeria	-5220
▁bubbles	-5221
▁ethical	-5222
▁finding	-5223
▁imagine	-5224
▁deposits	-5225
▁globally	-5226
▁hospital	-5227
▁regarded	-5228
▁operating	-5229
▁Chancellor	-5230
▁bankruptcy	-5231
▁stagnation	-5232
▁constraints	-5233
ole	-5234
▁Sup	-5235
▁esc	-5236
China	-5237
break	-5238
▁Forum	-5239
▁Human	-5240
▁index	-5241
▁attrib	-5242
▁joined	-5243
ffective	-5244
▁autonom	-5245
▁adequate	-5246
▁downturn	-5247
▁minority	-5248
bit	-5249
uty	-5250
rote	-5251
what	-5252
▁Tal	-5253
icial	-5254
point	-5255
▁Summ	-5256
▁ment	-5257
abling	-5258
▁heads	-5259
▁phase	-5260
▁skept	-5261
▁table	-5262
▁reward	-5263
function	-5264
▁downward	-5265
▁offering	-5266
▁strongly	-5267
▁systemic	-5268
▁threaten	-5269
▁condition	-5270
▁regardless	-5271
▁explanation	-5272
▁obligations	-5273
▁depreciation	-5274
3.	-5275
9%	-5276
sk	-5277
utr	-5278
yal	-5279
▁Mor	-5280
▁alt	-5281
▁anx	-5282
▁ben	-5283
▁via	-5284
adays	-5285
ommod	-5286
usive	-5287
▁2012	-5288
▁burn	-5289
▁newly	-5290
agement	-5291
ulating	-5292
▁Market	-5293
▁Rights	-5294
▁absorb	-5295
▁secret	-5296
▁series	-5297
▁stance	-5298
▁tackle	-5299
reaching	-5300
▁artific	-5301
▁calling	-5302
▁claimed	-5303
▁collaps	-5304
▁comfort	-5305
▁corrupt	-5306
▁coverage	-5307
▁vaccines	-5308
▁improvement	-5309
AD	-5310
ino	-5311
▁1%	-5312
▁5%	-5313
▁Ac	-5314
▁BR	-5315
▁Ky	-5316
▁90%	-5317
▁Sub	-5318
▁eru	-5319
▁tim	-5320
▁tow	-5321
pected	-5322
▁absol	-5323
▁black	-5324
▁flood	-5325
▁father	-5326
▁interp	-5327
▁linked	-5328
▁adverse	-5329
▁enabled	-5330
▁discover	-5331
▁sophistic	-5332
▁inevitably	-5333
▁transparent	-5334
▁capabilities	-5335
▁counterparts	-5336
ux	-5337
iox	-5338
udd	-5339
uff	-5340
ompl	-5341
rence	-5342
▁High	-5343
▁magn	-5344
▁tour	-5345
itness	-5346
rights	-5347
▁bolst	-5348
▁twice	-5349
▁votes	-5350
osystem	-5351
▁raises	-5352
▁served	-5353
▁applied	-5354
▁looking	-5355
▁wealthy	-5356
ressional	-5357
▁destabil	-5358
▁completely	-5359
▁extraordin	-5360
▁reasonable	-5361
▁settlement	-5362
▁terrorists	-5363
aba	-5364
isp	-5365
irth	-5366
▁fate	-5367
▁kept	-5368
▁resc	-5369
▁wave	-5370
▁Austr	-5371
▁artic	-5372
▁blood	-5373
▁coast	-5374
▁older	-5375
▁speed	-5376
▁woman	-5377
ulative	-5378
▁Change	-5379
▁Senate	-5380
▁appeal	-5381
▁entail	-5382
▁proced	-5383
▁punish	-5384
▁satisf	-5385
▁viable	-5386
ifically	-5387
▁dispute	-5388
▁released	-5389
▁customers	-5390
▁dependent	-5391
▁displaced	-5392
▁dominated	-5393
▁accelerate	-5394
▁controvers	-5395
IA	-5396
PP	-5397
BOC	-5398
how	-5399
iver	-5400
unis	-5401
▁She	-5402
▁sac	-5403
anmar	-5404
rific	-5405
trade	-5406
▁2011	-5407
▁wors	-5408
ivered	-5409
▁chief	-5410
▁diver	-5411
▁escal	-5412
▁wrote	-5413
termath	-5414
▁Spanish	-5415
▁carried	-5416
▁fragile	-5417
▁opposed	-5418
▁warning	-5419
▁revealed	-5420
▁standing	-5421
▁Stability	-5422
▁acknowled	-5423
▁aftermath	-5424
▁advantages	-5425
▁disappoint	-5426
▁implementing	-5427
fe	-5428
▁14	-5429
rete	-5430
▁70%	-5431
▁pie	-5432
▁sch	-5433
▁reck	-5434
▁tort	-5435
urally	-5436
▁Never	-5437
▁monop	-5438
▁multi	-5439
▁norms	-5440
through	-5441
▁Labour	-5442
▁Strate	-5443
▁buying	-5444
▁chains	-5445
▁condem	-5446
▁ending	-5447
▁harder	-5448
▁thanks	-5449
▁wonder	-5450
oubtedly	-5451
▁broadly	-5452
▁nominal	-5453
▁package	-5454
▁accommod	-5455
▁examples	-5456
▁repeatedly	-5457
▁participants	-5458
▁professional	-5459
▁strengthened	-5460
▁consolidation	-5461
▁interventions	-5462
▁·	-5463
ONG	-5464
ket	-5465
▁$4	-5466
▁60	-5467
▁TB	-5468
olar	-5469
▁$1.	-5470
▁anc	-5471
▁cha	-5472
▁die	-5473
▁lag	-5474
▁tob	-5475
known	-5476
▁aims	-5477
▁crow	-5478
▁David	-5479
▁Found	-5480
▁apart	-5481
▁defin	-5482
▁delib	-5483
▁aspect	-5484
▁courts	-5485
▁extend	-5486
▁leaves	-5487
outheast	-5488
veraging	-5489
▁painful	-5490
▁reserve	-5491
▁tobacco	-5492
▁religion	-5493
▁returned	-5494
▁delivered	-5495
▁dictators	-5496
▁ecosystem	-5497
▁repression	-5498
▁flexibility	-5499
▁contribution	-5500
ha	-5501
ebru	-5502
vard	-5503
▁CEO	-5504
▁Law	-5505
▁obt	-5506
sight	-5507
estate	-5508
▁Franc	-5509
▁Tunis	-5510
▁holds	-5511
ebruary	-5512
▁Recent	-5513
▁decent	-5514
▁except	-5515
▁intent	-5516
▁latter	-5517
▁retire	-5518
▁review	-5519
levision	-5520
▁Harvard	-5521
▁diverse	-5522
▁pursued	-5523
▁concrete	-5524
▁enabling	-5525
▁ideological	-5526
▁alternatives	-5527
▁successfully	-5528
9.	-5529
cri	-5530
egu	-5531
ple	-5532
view	-5533
▁Naz	-5534
▁cry	-5535
▁fil	-5536
▁mus	-5537
▁ple	-5538
▁docu	-5539
▁emot	-5540
▁text	-5541
▁zone	-5542
00,000	-5543
anging	-5544
▁Sudan	-5545
▁daily	-5546
▁logic	-5547
▁plant	-5548
▁polls	-5549
▁surge	-5550
▁acting	-5551
▁bigger	-5552
▁charge	-5553
▁contem	-5554
▁relief	-5555
▁retail	-5556
▁slower	-5557
▁Myanmar	-5558
▁balanced	-5559
▁moderate	-5560
▁multiple	-5561
▁atmosphere	-5562
▁undoubtedly	-5563
▁arrangements	-5564
▁manipulation	-5565
na	-5566
ozy	-5567
uan	-5568
▁App	-5569
▁hyd	-5570
style	-5571
▁rout	-5572
thirds	-5573
▁penal	-5574
▁prede	-5575
▁scand	-5576
▁unity	-5577
▁Resear	-5578
▁Spring	-5579
▁divers	-5580
▁escape	-5581
▁philos	-5582
▁yields	-5583
▁variety	-5584
including	-5585
▁February	-5586
▁educated	-5587
▁elements	-5588
▁patterns	-5589
▁properly	-5590
▁discrimin	-5591
▁generated	-5592
▁consistent	-5593
▁encouraged	-5594
▁Furthermore	-5595
▁improvements	-5596
GDP	-5597
ias	-5598
ips	-5599
now	-5600
she	-5601
rish	-5602
▁hot	-5603
ellow	-5604
▁ball	-5605
▁sole	-5606
arkozy	-5607
▁posed	-5608
▁recip	-5609
▁voted	-5610
▁waste	-5611
rations	-5612
▁donors	-5613
▁Through	-5614
▁compete	-5615
▁disappe	-5616
▁expense	-5617
▁minimum	-5618
▁realize	-5619
ufficient	-5620
▁announce	-5621
▁emphasis	-5622
▁outbreak	-5623
▁valuable	-5624
▁predecess	-5625
▁nineteenth	-5626
▁challenging	-5627
▁negotiating	-5628
CE	-5629
▁Im	-5630
▁Cle	-5631
itect	-5632
using	-5633
▁cars	-5634
▁clin	-5635
▁pret	-5636
▁turm	-5637
▁alarm	-5638
▁links	-5639
ortions	-5640
▁caught	-5641
▁estate	-5642
▁rarely	-5643
▁command	-5644
▁pointed	-5645
▁slowing	-5646
▁turmoil	-5647
▁Ethiopia	-5648
▁severely	-5649
▁conducted	-5650
▁populists	-5651
▁responses	-5652
▁workforce	-5653
▁generating	-5654
▁mainstream	-5655
▁prosperous	-5656
▁struggling	-5657
▁antibiotics	-5658
▁effectiveness	-5659
IP	-5660
emb	-5661
oes	-5662
cker	-5663
ollah	-5664
price	-5665
▁$100	-5666
ailand	-5667
growth	-5668
health	-5669
▁shale	-5670
▁south	-5671
▁Angela	-5672
▁actual	-5673
▁shifts	-5674
▁wisdom	-5675
▁Defense	-5676
▁Sarkozy	-5677
▁proceed	-5678
▁reverse	-5679
▁architect	-5680
▁narrative	-5681
▁provision	-5682
▁conclusion	-5683
▁dependence	-5684
▁temperatures	-5685
rew	-5686
urd	-5687
xic	-5688
▁Ah	-5689
Sahar	-5690
inced	-5691
oning	-5692
▁Four	-5693
▁bill	-5694
▁2016,	-5695
▁acute	-5696
▁pharm	-5697
Saharan	-5698
▁Unlike	-5699
▁launch	-5700
▁perpet	-5701
▁poorer	-5702
▁strike	-5703
▁Turkish	-5704
▁killing	-5705
▁mission	-5706
▁parents	-5707
▁prolong	-5708
ependence	-5709
▁Thailand	-5710
▁mobility	-5711
▁somewhat	-5712
▁producing	-5713
▁shortfall	-5714
▁purchasing	-5715
▁statistics	-5716
▁tightening	-5717
RIS	-5718
▁6.	-5719
▁El	-5720
aded	-5721
▁25%	-5722
▁Den	-5723
▁bra	-5724
ashed	-5725
▁Gulf	-5726
▁Lead	-5727
▁hege	-5728
▁runs	-5729
▁vill	-5730
asters	-5731
commun	-5732
estern	-5733
▁1980’	-5734
▁equip	-5735
▁frust	-5736
▁gives	-5737
▁helps	-5738
▁overh	-5739
▁risen	-5740
▁Agency	-5741
▁Nether	-5742
▁depart	-5743
▁safegu	-5744
▁shares	-5745
▁spirit	-5746
▁volunt	-5747
▁weaken	-5748
▁inflows	-5749
▁stopped	-5750
▁declined	-5751
▁disorder	-5752
▁flexible	-5753
▁informal	-5754
▁similarly	-5755
▁stimulate	-5756
▁suggested	-5757
▁commission	-5758
▁guarantees	-5759
▁resilience	-5760
▁Netherlands	-5761
▁relationships	-5762
oon	-5763
rum	-5764
agen	-5765
▁Bet	-5766
gered	-5767
party	-5768
▁loan	-5769
▁seas	-5770
▁wait	-5771
adjust	-5772
▁Burma	-5773
▁Peace	-5774
▁noted	-5775
▁apprec	-5776
▁combat	-5777
▁saying	-5778
▁accompl	-5779
▁fueling	-5780
▁ignored	-5781
inational	-5782
▁absolute	-5783
▁attempts	-5784
▁democrat	-5785
▁publicly	-5786
▁expertise	-5787
▁discipline	-5788
▁devaluation	-5789
▁expenditures	-5790
▁policymaking	-5791
We	-5792
zz	-5793
ius	-5794
raf	-5795
▁PA	-5796
▁Kim	-5797
▁Pen	-5798
▁swe	-5799
agger	-5800
▁qual	-5801
illenn	-5802
itudes	-5803
ptions	-5804
▁advis	-5805
▁crime	-5806
▁enlar	-5807
▁heard	-5808
▁wider	-5809
▁Serbia	-5810
▁advice	-5811
▁barely	-5812
▁female	-5813
▁gather	-5814
▁height	-5815
▁waters	-5816
▁comment	-5817
▁profess	-5818
▁treated	-5819
▁worried	-5820
inflation	-5821
▁Islamist	-5822
▁annivers	-5823
▁computer	-5824
▁measured	-5825
▁isolation	-5826
▁seemingly	-5827
▁taxpayers	-5828
▁considerably	-5829
AV	-5830
ica	-5831
que	-5832
▁aw	-5833
▁od	-5834
ador	-5835
arak	-5836
ysts	-5837
acing	-5838
inian	-5839
ivate	-5840
▁Educ	-5841
▁blam	-5842
▁blow	-5843
▁pill	-5844
ashion	-5845
iments	-5846
lessly	-5847
▁2001,	-5848
▁catch	-5849
▁polar	-5850
osition	-5851
▁argues	-5852
▁friend	-5853
▁slowly	-5854
▁transl	-5855
▁unders	-5856
American	-5857
▁academic	-5858
▁limiting	-5859
▁meetings	-5860
▁Southeast	-5861
▁expressed	-5862
▁recommend	-5863
▁Foundation	-5864
▁frequently	-5865
EY	-5866
ma	-5867
gia	-5868
▁lie	-5869
▁saw	-5870
idden	-5871
ordan	-5872
▁Much	-5873
▁None	-5874
▁SOEs	-5875
▁alle	-5876
▁curb	-5877
▁prud	-5878
▁tele	-5879
▁autoc	-5880
▁minds	-5881
▁broken	-5882
▁define	-5883
▁transm	-5884
▁united	-5885
▁charges	-5886
▁gradual	-5887
▁someone	-5888
▁stories	-5889
▁version	-5890
▁witness	-5891
▁damaging	-5892
▁exercise	-5893
▁carefully	-5894
▁responded	-5895
▁triggered	-5896
▁unwilling	-5897
▁assessment	-5898
▁executives	-5899
▁fundamentals	-5900
▁fundamentally	-5901
▁sophisticated	-5902
?”	-5903
tt	-5904
oor	-5905
soc	-5906
▁$5	-5907
▁Os	-5908
▁je	-5909
cles	-5910
ocol	-5911
prof	-5912
▁202	-5913
▁Cop	-5914
▁Pan	-5915
▁Yes	-5916
▁vac	-5917
emics	-5918
ilemm	-5919
▁drag	-5920
▁trap	-5921
ounded	-5922
▁2009,	-5923
▁north	-5924
product	-5925
▁Robert	-5926
▁resort	-5927
▁Supreme	-5928
▁Research	-5929
▁outright	-5930
▁resulted	-5931
▁straight	-5932
▁suddenly	-5933
▁arguments	-5934
▁mortgages	-5935
▁weakening	-5936
▁Department	-5937
▁attempting	-5938
▁presidents	-5939
governmental	-5940
▁appreciation	-5941
CO	-5942
cor	-5943
ini	-5944
rig	-5945
▁4.	-5946
▁Li	-5947
▁Aut	-5948
▁Cyp	-5949
agues	-5950
eping	-5951
integ	-5952
odies	-5953
▁Sunn	-5954
▁grid	-5955
▁vent	-5956
ection	-5957
▁2000,	-5958
▁Group	-5959
▁newsp	-5960
▁refer	-5961
▁fourth	-5962
▁opened	-5963
▁plenty	-5964
atlantic	-5965
▁deposit	-5966
▁renewed	-5967
▁routine	-5968
▁convinced	-5969
▁executive	-5970
▁happening	-5971
▁maintained	-5972
▁television	-5973
▁university	-5974
▁participate	-5975
▁experiencing	-5976
▁shareholders	-5977
ami	-5978
ugg	-5979
amed	-5980
body	-5981
iban	-5982
port	-5983
rees	-5984
▁Dar	-5985
▁Asse	-5986
▁died	-5987
istrib	-5988
▁Blair	-5989
▁abuse	-5990
▁false	-5991
▁homes	-5992
▁usual	-5993
develop	-5994
perform	-5995
ressing	-5996
▁Jordan	-5997
▁cooper	-5998
▁murder	-5999
▁overse	-6000
▁presum	-6001
▁talent	-6002
▁Taliban	-6003
▁assumed	-6004
▁contrad	-6005
▁showing	-6006
▁benefited	-6007
▁diversity	-6008
▁statement	-6009
▁acknowledge	-6010
▁consequence	-6011
▁progressive	-6012
▁simultaneously	-6013
ES	-6014
TA	-6015
ragm	-6016
▁ast	-6017
▁doz	-6018
inded	-6019
nings	-6020
place	-6021
▁Conf	-6022
▁cast	-6023
▁trib	-6024
▁uses	-6025
ranean	-6026
▁2015.	-6027
▁Goals	-6028
▁Roman	-6029
▁White	-6030
▁facts	-6031
▁kinds	-6032
▁moves	-6033
▁night	-6034
▁ruled	-6035
▁steel	-6036
▁traff	-6037
enhagen	-6038
▁shadow	-6039
▁dismiss	-6040
▁privile	-6041
▁Northern	-6042
▁chemical	-6043
▁creative	-6044
▁dominant	-6045
▁invested	-6046
▁Democracy	-6047
▁ambitions	-6048
▁demanding	-6049
▁predicted	-6050
▁Copenhagen	-6051
▁concerning	-6052
▁indicators	-6053
▁Constitution	-6054
▁extraordinary	-6055
▁transportation	-6056
face	-6057
grad	-6058
oked	-6059
onia	-6060
osen	-6061
oted	-6062
▁cul	-6063
▁Five	-6064
▁dark	-6065
▁gets	-6066
▁pool	-6067
▁puts	-6068
▁Board	-6069
▁staff	-6070
▁types	-6071
▁white	-6072
veraged	-6073
▁Public	-6074
▁brings	-6075
▁manner	-6076
▁proven	-6077
▁Clearly	-6078
▁channel	-6079
▁evident	-6080
▁selling	-6081
▁vaccine	-6082
▁Atlantic	-6083
▁decisive	-6084
▁distingu	-6085
▁nowadays	-6086
▁reaction	-6087
▁weakened	-6088
▁Political	-6089
▁equipment	-6090
▁affordable	-6091
▁apparently	-6092
▁controlled	-6093
▁coordinated	-6094
▁enforcement	-6095
▁problematic	-6096
▁communication	-6097
IB	-6098
mad	-6099
oms	-6100
pan	-6101
urt	-6102
▁Sm	-6103
adic	-6104
lish	-6105
oles	-6106
rant	-6107
▁Ben	-6108
▁Mub	-6109
▁bit	-6110
▁hab	-6111
▁lob	-6112
▁rig	-6113
▁Cuba	-6114
▁PBOC	-6115
▁eyes	-6116
▁seed	-6117
▁wish	-6118
econom	-6119
ioxide	-6120
▁Assad	-6121
▁cells	-6122
▁crack	-6123
▁poses	-6124
▁rulers	-6125
▁strict	-6126
▁voting	-6127
interest	-6128
▁Justice	-6129
▁dangers	-6130
▁dealing	-6131
▁eastern	-6132
▁malaria	-6133
▁payment	-6134
▁Egyptian	-6135
▁discoura	-6136
▁pressing	-6137
▁supports	-6138
▁urgently	-6139
▁Represent	-6140
▁awareness	-6141
▁requiring	-6142
▁phenomenon	-6143
▁anniversary	-6144
▁complicated	-6145
▁expenditure	-6146
▁breakthrough	-6147
▁consistently	-6148
HI	-6149
KEL	-6150
bor	-6151
hab	-6152
kers	-6153
odes	-6154
phic	-6155
resh	-6156
rine	-6157
rity	-6158
▁15%	-6159
▁Xia	-6160
iking	-6161
▁2017	-6162
▁bloc	-6163
▁felt	-6164
▁rail	-6165
erving	-6166
▁birth	-6167
▁chain	-6168
▁eager	-6169
▁thres	-6170
▁voice	-6171
▁BERKEL	-6172
▁advert	-6173
▁deprec	-6174
▁divide	-6175
▁exclud	-6176
▁Hungary	-6177
▁Mubarak	-6178
▁empower	-6179
▁fulfill	-6180
▁reliable	-6181
▁inclusion	-6182
▁initially	-6183
▁impressive	-6184
▁minorities	-6185
▁reductions	-6186
▁rebalancing	-6187
▁contributing	-6188
▁insufficient	-6189
Is	-6190
...	-6191
alf	-6192
eda	-6193
gor	-6194
▁$6	-6195
anke	-6196
cost	-6197
unger	-6198
▁1970	-6199
▁Bill	-6200
▁Hist	-6201
▁Holl	-6202
▁shut	-6203
▁crash	-6204
▁imply	-6205
▁match	-6206
▁simpl	-6207
growing	-6208
▁backed	-6209
▁scheme	-6210
▁stocks	-6211
currency	-6212
idelines	-6213
▁capture	-6214
▁consult	-6215
▁removed	-6216
▁Assembly	-6217
▁BERKELEY	-6218
▁financed	-6219
▁connected	-6220
▁dominance	-6221
▁favorable	-6222
▁organized	-6223
▁ourselves	-6224
▁prevented	-6225
▁threshold	-6226
▁assumption	-6227
▁meaningful	-6228
▁reputation	-6229
▁Sustainable	-6230
▁urbanization	-6231
▁characterized	-6232
▁multinational	-6233
▁dim	-6234
enses	-6235
essim	-6236
opard	-6237
▁Char	-6238
▁pure	-6239
▁send	-6240
astrop	-6241
▁Among	-6242
▁lacks	-6243
▁watch	-6244
▁remote	-6245
▁Capital	-6246
▁English	-6247
▁Mediter	-6248
▁justify	-6249
connected	-6250
▁civilian	-6251
▁focusing	-6252
▁reliance	-6253
▁Palestine	-6254
▁governing	-6255
▁projected	-6256
▁reluctant	-6257
▁surpluses	-6258
▁threatens	-6259
▁identified	-6260
▁undermined	-6261
▁discussions	-6262
▁foundations	-6263
▁recognizing	-6264
▁compensation	-6265
▁overwhelming	-6266
▁Mediterranean	-6267
▁collaboration	-6268
▁internationally	-6269
CT	-6270
ria	-6271
▁$7	-6272
alem	-6273
isan	-6274
lash	-6275
stan	-6276
▁gun	-6277
▁True	-6278
▁epis	-6279
holder	-6280
iously	-6281
umping	-6282
▁aside	-6283
▁entit	-6284
▁image	-6285
▁insol	-6286
▁Malays	-6287
▁mother	-6288
adjusted	-6289
▁traject	-6290
▁Africans	-6291
▁extended	-6292
▁prosecut	-6293
▁reconcil	-6294
▁separate	-6295
▁slightly	-6296
▁Agreement	-6297
▁Christian	-6298
▁exporters	-6299
▁realistic	-6300
▁facilities	-6301
▁foreigners	-6302
▁subsequent	-6303
▁demonstrate	-6304
▁engineering	-6305
▁inefficient	-6306
EA	-6307
eal	-6308
sey	-6309
▁IP	-6310
aeda	-6311
otic	-6312
ruit	-6313
▁205	-6314
▁Bas	-6315
▁Far	-6316
claim	-6317
onial	-6318
▁hurt	-6319
▁pick	-6320
▁unex	-6321
▁wild	-6322
▁Front	-6323
▁badly	-6324
▁seeks	-6325
▁write	-6326
illance	-6327
▁adding	-6328
▁brutal	-6329
▁forcing	-6330
▁foresee	-6331
▁methods	-6332
▁refused	-6333
▁undersc	-6334
▁Bernanke	-6335
▁accurate	-6336
▁imperial	-6337
▁lowering	-6338
▁preserve	-6339
▁sacrific	-6340
▁ultimate	-6341
▁underest	-6342
▁catastrop	-6343
▁materials	-6344
▁artificial	-6345
▁liabilities	-6346
▁partnerships	-6347
ein	-6348
tax	-6349
▁Hu	-6350
ande	-6351
beit	-6352
born	-6353
hand	-6354
orld	-6355
▁Dut	-6356
▁Som	-6357
▁cop	-6358
▁lab	-6359
aceut	-6360
enced	-6361
▁City	-6362
▁Deng	-6363
▁Hill	-6364
▁barg	-6365
▁enth	-6366
▁eval	-6367
▁2008.	-6368
▁Frank	-6369
▁anger	-6370
▁aspir	-6371
▁deleg	-6372
▁repay	-6373
▁oppose	-6374
▁passed	-6375
▁Denmark	-6376
▁accused	-6377
▁alleged	-6378
▁decreas	-6379
▁gaining	-6380
▁jeopard	-6381
aceutical	-6382
▁adopting	-6383
▁champion	-6384
▁imposing	-6385
▁occasion	-6386
▁upcoming	-6387
▁abandoned	-6388
▁confident	-6389
▁regarding	-6390
▁representatives	-6391
CP	-6392
ked	-6393
olf	-6394
oto	-6395
urg	-6396
vis	-6397
▁1,	-6398
onds	-6399
rank	-6400
▁Nic	-6401
urers	-6402
▁1930	-6403
▁rank	-6404
▁stre	-6405
▁teac	-6406
▁2007,	-6407
▁Earth	-6408
▁PARIS	-6409
▁arbit	-6410
▁fails	-6411
▁falls	-6412
▁fresh	-6413
▁postp	-6414
▁pragm	-6415
▁Norway	-6416
▁Unless	-6417
▁couple	-6418
▁famili	-6419
▁inside	-6420
▁openly	-6421
▁slowed	-6422
▁steady	-6423
▁Already	-6424
▁debates	-6425
▁dropped	-6426
▁exchang	-6427
▁planned	-6428
▁spectac	-6429
▁analysts	-6430
▁appeared	-6431
▁mitigate	-6432
▁Education	-6433
▁component	-6434
▁background	-6435
▁beneficial	-6436
▁statements	-6437
ley	-6438
agan	-6439
imal	-6440
supp	-6441
▁BEI	-6442
asive	-6443
dered	-6444
osure	-6445
▁Coop	-6446
▁Each	-6447
▁didn	-6448
racted	-6449
▁arise	-6450
▁forth	-6451
▁novel	-6452
theless	-6453
▁Berlin	-6454
▁dilemm	-6455
▁driver	-6456
▁flight	-6457
▁regist	-6458
▁signal	-6459
ominated	-6460
▁Tunisia	-6461
▁greatly	-6462
▁streets	-6463
▁substit	-6464
▁backlash	-6465
▁machines	-6466
▁remember	-6467
▁replaced	-6468
▁attitudes	-6469
▁stabilize	-6470
▁automation	-6471
▁colleagues	-6472
▁negotiated	-6473
▁convergence	-6474
▁surveillance	-6475
▁understandable	-6476
SEL	-6477
amb	-6478
▁5.	-6479
▁Cz	-6480
▁Pet	-6481
▁fra	-6482
oples	-6483
utral	-6484
▁brid	-6485
▁outl	-6486
▁plun	-6487
▁scar	-6488
▁unit	-6489
▁wise	-6490
establ	-6491
▁Alger	-6492
▁Sunni	-6493
▁crypt	-6494
▁toxic	-6495
▁attend	-6496
▁basket	-6497
▁eradic	-6498
▁island	-6499
▁propag	-6500
chnology	-6501
▁chances	-6502
▁feature	-6503
▁dynamics	-6504
▁finances	-6505
▁purchase	-6506
▁treaties	-6507
▁underway	-6508
▁wellbeing	-6509
▁comparable	-6510
▁foundation	-6511
▁perception	-6512
▁bureaucracy	-6513
▁applications	-6514
▁modernization	-6515
▁vulnerability	-6516
▁pharmaceutical	-6517
▁unconventional	-6518
adv	-6519
fol	-6520
tic	-6521
aunt	-6522
ihad	-6523
▁500	-6524
▁Mao	-6525
▁avo	-6526
apers	-6527
reens	-6528
▁Free	-6529
▁forg	-6530
▁gaps	-6531
▁hero	-6532
▁pict	-6533
▁turb	-6534
tering	-6535
▁drawn	-6536
▁turns	-6537
▁virus	-6538
▁retain	-6539
▁Against	-6540
▁avoided	-6541
▁courage	-6542
▁lenders	-6543
▁machine	-6544
▁Business	-6545
▁mobilize	-6546
▁mounting	-6547
▁accounted	-6548
▁activists	-6549
▁targeting	-6550
▁considering	-6551
▁surprisingly	-6552
BI	-6553
DI	-6554
lu	-6555
▁21	-6556
▁24	-6557
JING	-6558
iest	-6559
ilib	-6560
lder	-6561
omed	-6562
uate	-6563
▁Jun	-6564
▁SDR	-6565
▁Sal	-6566
hered	-6567
▁SDGs	-6568
▁dele	-6569
▁ease	-6570
▁judg	-6571
▁knew	-6572
▁roll	-6573
▁word	-6574
iaries	-6575
▁1970’	-6576
▁Power	-6577
essions	-6578
▁Center	-6579
▁Should	-6580
▁enthus	-6581
▁notion	-6582
▁sexual	-6583
▁unrest	-6584
utrition	-6585
▁doctors	-6586
▁enlarge	-6587
▁entered	-6588
▁missile	-6589
▁missing	-6590
▁restric	-6591
astrophic	-6592
▁approved	-6593
▁mistakes	-6594
▁original	-6595
▁persuade	-6596
▁construct	-6597
▁obstacles	-6598
▁prolonged	-6599
▁redistrib	-6600
▁Convention	-6601
▁compelling	-6602
▁reinforced	-6603
▁Brotherhood	-6604
▁neighboring	-6605
▁revolutionary	-6606
▁discrimination	-6607
DB	-6608
NA	-6609
SA	-6610
zb	-6611
osn	-6612
yan	-6613
alls	-6614
dict	-6615
odox	-6616
outs	-6617
such	-6618
uris	-6619
▁Hit	-6620
▁Out	-6621
▁dys	-6622
democ	-6623
▁2004	-6624
▁Back	-6625
▁Food	-6626
▁Jews	-6627
▁ally	-6628
▁cate	-6629
▁exem	-6630
▁pose	-6631
accept	-6632
icated	-6633
invest	-6634
▁seats	-6635
▁sites	-6636
▁storm	-6637
zbollah	-6638
▁Church	-6639
▁famous	-6640
▁hunger	-6641
▁marked	-6642
▁traged	-6643
▁uphold	-6644
▁BEIJING	-6645
▁cheaper	-6646
▁skilled	-6647
▁winning	-6648
▁written	-6649
▁estimate	-6650
▁medicine	-6651
▁surround	-6652
▁presented	-6653
▁sensitive	-6654
▁Industrial	-6655
▁dictatorship	-6656
▁neighborhood	-6657
▁protectionism	-6658
NP	-6659
▁Ha	-6660
SELS	-6661
etty	-6662
mony	-6663
tech	-6664
▁Aff	-6665
▁Her	-6666
▁Wen	-6667
▁hyp	-6668
child	-6669
ophob	-6670
unity	-6671
▁Balk	-6672
▁Camb	-6673
USSELS	-6674
alling	-6675
minded	-6676
▁Gates	-6677
▁Somal	-6678
▁check	-6679
▁manif	-6680
▁dispos	-6681
▁careful	-6682
▁convers	-6683
▁enacted	-6684
▁fashion	-6685
▁liberty	-6686
▁prepare	-6687
▁autonomy	-6688
▁conclude	-6689
▁findings	-6690
▁numerous	-6691
▁openness	-6692
▁disasters	-6693
▁existence	-6694
▁intention	-6695
▁obviously	-6696
▁shortages	-6697
▁complement	-6698
▁trajectory	-6699
▁transformed	-6700
▁concentrated	-6701
▁considerations	-6702
6,	-6703
lex	-6704
▁7.	-6705
▁eg	-6706
icon	-6707
pper	-6708
▁Adm	-6709
▁You	-6710
▁hed	-6711
▁meg	-6712
▁slo	-6713
icism	-6714
isher	-6715
sheet	-6716
▁hear	-6717
energy	-6718
ighter	-6719
inated	-6720
irable	-6721
▁2005,	-6722
▁Medic	-6723
▁align	-6724
▁books	-6725
▁grave	-6726
▁dispar	-6727
▁foster	-6728
▁incumb	-6729
▁binding	-6730
▁joining	-6731
▁patient	-6732
▁portfol	-6733
▁pricing	-6734
▁testing	-6735
▁BRUSSELS	-6736
▁anywhere	-6737
▁ideology	-6738
▁alongside	-6739
▁desperate	-6740
▁involving	-6741
▁mortality	-6742
▁resilient	-6743
▁procedures	-6744
▁adjustments	-6745
▁dysfunction	-6746
▁temperature	-6747
bed	-6748
iev	-6749
rav	-6750
win	-6751
▁sy	-6752
abwe	-6753
band	-6754
inst	-6755
ivot	-6756
oned	-6757
ooth	-6758
▁Mos	-6759
▁Rel	-6760
▁spl	-6761
▁tri	-6762
water	-6763
▁Rich	-6764
▁Zimb	-6765
▁cope	-6766
▁doct	-6767
▁ends	-6768
▁jump	-6769
▁onto	-6770
▁pull	-6771
▁vice	-6772
▁Three	-6773
▁gross	-6774
▁harsh	-6775
▁juris	-6776
▁print	-6777
▁bodies	-6778
▁exists	-6779
▁fields	-6780
▁judges	-6781
▁unfair	-6782
building	-6783
▁Austria	-6784
▁Nuclear	-6785
▁disturb	-6786
▁landing	-6787
▁lasting	-6788
▁outlook	-6789
▁pursuit	-6790
▁Zimbabwe	-6791
▁adoption	-6792
▁constant	-6793
▁disinteg	-6794
▁enhanced	-6795
▁epidemic	-6796
▁indicate	-6797
▁inherent	-6798
▁invasion	-6799
▁overseas	-6800
▁reversed	-6801
▁Hezbollah	-6802
▁interpret	-6803
▁succeeded	-6804
▁Economists	-6805
▁accountable	-6806
▁catastrophic	-6807
aks	-6808
def	-6809
roc	-6810
ums	-6811
▁27	-6812
▁Rw	-6813
coni	-6814
fire	-6815
izon	-6816
ruck	-6817
▁Let	-6818
▁une	-6819
grade	-6820
itime	-6821
▁AIIB	-6822
▁Scot	-6823
▁dign	-6824
▁fine	-6825
▁indu	-6826
▁toll	-6827
▁2013.	-6828
▁Dutch	-6829
▁adult	-6830
▁plaus	-6831
forward	-6832
▁Berlus	-6833
▁Jewish	-6834
▁Reform	-6835
▁degrad	-6836
▁explos	-6837
▁namely	-6838
▁pessim	-6839
▁resent	-6840
▁scarce	-6841
▁Germans	-6842
▁Program	-6843
▁anxiety	-6844
▁dioxide	-6845
▁genetic	-6846
▁grounds	-6847
▁nowhere	-6848
▁picture	-6849
▁rightly	-6850
▁Malaysia	-6851
▁Strategy	-6852
▁accident	-6853
▁balances	-6854
▁overlook	-6855
▁deepening	-6856
▁explained	-6857
▁integrity	-6858
▁contradict	-6859
▁depression	-6860
▁supposedly	-6861
▁unilateral	-6862
▁catastrophe	-6863
▁influential	-6864
▁Nevertheless	-6865
▁difficulties	-6866
CH	-6867
DA	-6868
irty	-6869
orsi	-6870
size	-6871
▁bip	-6872
▁neo	-6873
▁sem	-6874
▁tum	-6875
ailed	-6876
inger	-6877
oping	-6878
rates	-6879
riend	-6880
▁Bash	-6881
▁date	-6882
▁desp	-6883
▁sets	-6884
▁symp	-6885
iances	-6886
ipping	-6887
▁2006,	-6888
▁Czech	-6889
▁elder	-6890
▁hydro	-6891
▁tasks	-6892
respons	-6893
▁Hitler	-6894
▁lowest	-6895
▁privat	-6896
▁richer	-6897
▁unions	-6898
ependent	-6899
▁feeling	-6900
▁granted	-6901
▁paralle	-6902
▁Alliance	-6903
▁Hollande	-6904
▁Scotland	-6905
▁complain	-6906
▁familiar	-6907
▁mutually	-6908
▁recorded	-6909
▁resolved	-6910
▁worrying	-6911
government	-6912
▁competing	-6913
▁motivated	-6914
▁residents	-6915
▁Berlusconi	-6916
▁Conference	-6917
▁disruption	-6918
▁interested	-6919
▁involvement	-6920
▁sufficiently	-6921
6.	-6922
ky	-6923
imm	-6924
▁4%	-6925
▁Ug	-6926
berg	-6927
emen	-6928
fund	-6929
rect	-6930
rors	-6931
▁cab	-6932
▁dub	-6933
▁eye	-6934
eting	-6935
olars	-6936
▁Jean	-6937
▁Supp	-6938
▁lawy	-6939
chmark	-6940
ervice	-6941
▁2010.	-6942
▁Inter	-6943
▁Morsi	-6944
▁abund	-6945
▁brain	-6946
▁donor	-6947
▁laure	-6948
▁plays	-6949
largest	-6950
▁School	-6951
▁albeit	-6952
▁chosen	-6953
▁sooner	-6954
▁upward	-6955
▁Georgia	-6956
▁Juncker	-6957
▁arguing	-6958
▁closing	-6959
▁forests	-6960
▁shifted	-6961
▁talking	-6962
▁torture	-6963
efficient	-6964
ideration	-6965
roportion	-6966
▁approval	-6967
▁believes	-6968
▁channels	-6969
▁distinct	-6970
▁explains	-6971
▁generous	-6972
▁implicit	-6973
▁unaccept	-6974
▁Keynesian	-6975
▁divisions	-6976
▁prominent	-6977
▁protected	-6978
iodiversity	-6979
▁emphasized	-6980
▁persistent	-6981
▁responding	-6982
▁retirement	-6983
▁contraction	-6984
▁enlargement	-6985
▁legislative	-6986
▁announcement	-6987
▁inflationary	-6988
ER	-6989
afi	-6990
ani	-6991
new	-6992
ply	-6993
spe	-6994
uls	-6995
▁AM	-6996
ding	-6997
iful	-6998
rase	-6999
rium	-7000
roll	-7001
▁Cor	-7002
▁Dis	-7003
▁Env	-7004
▁Mad	-7005
▁Moh	-7006
▁hes	-7007
itzer	-7008
orrow	-7009
▁2001	-7010
▁halt	-7011
▁star	-7012
aution	-7013
stable	-7014
▁2017,	-7015
▁Crime	-7016
▁cease	-7017
▁crops	-7018
▁enfor	-7019
▁finds	-7020
▁pound	-7021
▁saved	-7022
lihoods	-7023
▁headed	-7024
▁restra	-7025
▁select	-7026
▁spring	-7027
▁volume	-7028
▁weapon	-7029
cription	-7030
rational	-7031
▁backing	-7032
▁tactics	-7033
▁Russians	-7034
▁Whatever	-7035
▁dominate	-7036
▁exposure	-7037
▁famously	-7038
▁inability	-7039
▁introduce	-7040
▁reinforce	-7041
▁altogether	-7042
▁Cooperation	-7043
▁competitors	-7044
▁confronting	-7045
▁declaration	-7046
▁eliminating	-7047
▁Conservative	-7048
▁administrative	-7049
EU	-7050
▁23	-7051
▁Lo	-7052
▁Mu	-7053
ille	-7054
indu	-7055
▁Net	-7056
▁mag	-7057
▁seg	-7058
ourse	-7059
vency	-7060
▁2005	-7061
▁acts	-7062
▁burd	-7063
▁cart	-7064
▁deny	-7065
▁heat	-7066
▁outf	-7067
▁tons	-7068
▁unle	-7069
icians	-7070
orship	-7071
ployed	-7072
▁Initi	-7073
▁jihad	-7074
▁seize	-7075
▁skill	-7076
alities	-7077
sharing	-7078
▁abuses	-7079
▁advent	-7080
▁asking	-7081
▁belong	-7082
▁funded	-7083
▁settle	-7084
▁struck	-7085
▁Islands	-7086
▁ancient	-7087
▁elector	-7088
▁exploit	-7089
▁peoples	-7090
▁possess	-7091
▁ratings	-7092
▁request	-7093
▁convince	-7094
▁earnings	-7095
▁foremost	-7096
▁proclaim	-7097
▁civilians	-7098
▁cooperate	-7099
▁operation	-7100
▁reporting	-7101
▁resolving	-7102
▁criticized	-7103
▁expression	-7104
▁extremists	-7105
▁prevailing	-7106
▁importantly	-7107
▁controversial	-7108
▁disproportion	-7109
90	-7110
ef	-7111
no	-7112
dig	-7113
▁7%	-7114
▁Qu	-7115
anes	-7116
athy	-7117
▁Few	-7118
▁Inf	-7119
▁ang	-7120
▁ble	-7121
▁fun	-7122
▁web	-7123
edded	-7124
night	-7125
▁Year	-7126
▁male	-7127
▁meat	-7128
▁pipe	-7129
▁rain	-7130
▁rock	-7131
▁spot	-7132
▁ster	-7133
▁vary	-7134
advant	-7135
gorith	-7136
necess	-7137
▁2014.	-7138
▁Davos	-7139
▁Somet	-7140
▁chaos	-7141
▁happy	-7142
▁input	-7143
▁navig	-7144
▁Crisis	-7145
▁Cyprus	-7146
▁Summit	-7147
▁agency	-7148
▁inject	-7149
▁looked	-7150
▁poorly	-7151
▁prompt	-7152
▁ratios	-7153
▁stream	-7154
▁Finance	-7155
▁citizen	-7156
▁fastest	-7157
▁illness	-7158
▁relying	-7159
▁younger	-7160
▁disagree	-7161
▁software	-7162
▁superior	-7163
▁taxation	-7164
▁troubled	-7165
▁benchmark	-7166
▁collapsed	-7167
▁forecasts	-7168
▁premature	-7169
▁secondary	-7170
▁successor	-7171
▁guaranteed	-7172
▁optimistic	-7173
▁recognizes	-7174
▁treatments	-7175
▁weaknesses	-7176
▁constrained	-7177
▁congressional	-7178
▁straightforward	-7179
);	-7180
LA	-7181
WI	-7182
tr	-7183
cel	-7184
cow	-7185
▁MI	-7186
▁TV	-7187
educ	-7188
ione	-7189
itch	-7190
real	-7191
soft	-7192
▁Che	-7193
▁Dra	-7194
▁Hol	-7195
▁Imp	-7196
▁bid	-7197
▁gar	-7198
▁sun	-7199
atism	-7200
erman	-7201
ifies	-7202
ollar	-7203
redit	-7204
▁coun	-7205
▁quot	-7206
▁reap	-7207
▁subm	-7208
active	-7209
ounced	-7210
▁2030.	-7211
▁Irish	-7212
▁conce	-7213
▁fluct	-7214
▁roads	-7215
▁stood	-7216
▁Before	-7217
▁Reagan	-7218
▁marria	-7219
▁resign	-7220
▁rooted	-7221
▁triump	-7222
▁Hillary	-7223
▁Pacific	-7224
▁Switzer	-7225
▁enemies	-7226
▁erupted	-7227
▁regular	-7228
▁scandal	-7229
▁surpass	-7230
▁tragedy	-7231
▁avoiding	-7232
▁constitu	-7233
▁delivery	-7234
▁features	-7235
▁investor	-7236
▁meantime	-7237
▁monopoly	-7238
▁realized	-7239
▁Consensus	-7240
▁disadvant	-7241
▁fertility	-7242
▁principal	-7243
▁safeguard	-7244
▁allocation	-7245
▁Switzerland	-7246
▁livelihoods	-7247
▁nonetheless	-7248
▁revolutions	-7249
▁accelerating	-7250
▁deflationary	-7251
▁consideration	-7252
hi	-7253
ón	-7254
irm	-7255
agon	-7256
aval	-7257
spec	-7258
uity	-7259
▁300	-7260
▁Ang	-7261
▁Lis	-7262
▁McK	-7263
▁Ult	-7264
▁glo	-7265
▁los	-7266
chain	-7267
polit	-7268
prime	-7269
scape	-7270
▁Silk	-7271
▁code	-7272
▁laid	-7273
Brexit	-7274
ispens	-7275
owners	-7276
▁Women	-7277
▁plumm	-7278
▁stark	-7279
astrous	-7280
erately	-7281
▁Corpor	-7282
▁Moscow	-7283
▁Others	-7284
▁Rwanda	-7285
▁Within	-7286
▁career	-7287
▁disarm	-7288
▁exclus	-7289
▁fairly	-7290
▁invent	-7291
▁refuse	-7292
▁remove	-7293
▁Environ	-7294
▁Special	-7295
▁ceiling	-7296
▁distant	-7297
▁immense	-7298
▁intense	-7299
▁paradox	-7300
▁Chairman	-7301
▁declines	-7302
▁employed	-7303
▁holdings	-7304
▁missiles	-7305
▁purposes	-7306
▁sensible	-7307
▁soldiers	-7308
▁striking	-7309
▁volatile	-7310
▁Recession	-7311
▁advocates	-7312
▁affecting	-7313
▁communist	-7314
▁discussed	-7315
▁integrate	-7316
▁intervene	-7317
▁Initiative	-7318
▁enterprise	-7319
▁commodities	-7320
▁desperately	-7321
▁predictable	-7322
▁respectively	-7323
▁communications	-7324
ny	-7325
▁[	-7326
ghi	-7327
len	-7328
▁(1	-7329
bted	-7330
coin	-7331
eted	-7332
gers	-7333
mmet	-7334
owed	-7335
▁191	-7336
▁Ann	-7337
▁Lar	-7338
▁Mah	-7339
▁San	-7340
▁fit	-7341
▁nom	-7342
▁pul	-7343
▁Sino	-7344
▁abol	-7345
▁mism	-7346
▁myth	-7347
▁note	-7348
▁tech	-7349
rators	-7350
▁McKin	-7351
▁Times	-7352
▁ample	-7353
▁blind	-7354
▁entry	-7355
▁giant	-7356
▁guard	-7357
▁innoc	-7358
▁route	-7359
▁sympt	-7360
▁train	-7361
▁Uganda	-7362
▁doubts	-7363
▁flawed	-7364
▁interd	-7365
▁rescue	-7366
▁aspects	-7367
▁closest	-7368
▁drivers	-7369
▁element	-7370
▁focuses	-7371
▁reduces	-7372
▁schemes	-7373
struction	-7374
▁actively	-7375
▁criteria	-7376
▁doctrine	-7377
▁geograph	-7378
▁indebted	-7379
▁observed	-7380
▁Brazilian	-7381
▁attempted	-7382
▁computers	-7383
▁initiated	-7384
▁disastrous	-7385
▁infectious	-7386
▁likelihood	-7387
▁assumptions	-7388
▁experiences	-7389
▁represented	-7390
▁underpinned	-7391
▁proliferation	-7392
HO	-7393
OM	-7394
OS	-7395
oe	-7396
akh	-7397
ana	-7398
arr	-7399
cer	-7400
ett	-7401
ses	-7402
▁ES	-7403
AIDS	-7404
atar	-7405
cell	-7406
olas	-7407
▁Abd	-7408
▁cas	-7409
▁dur	-7410
▁hom	-7411
▁hub	-7412
erted	-7413
tical	-7414
▁2003	-7415
▁Chen	-7416
▁Emer	-7417
▁Marx	-7418
▁Pact	-7419
▁Sand	-7420
▁Shin	-7421
▁grav	-7422
▁scre	-7423
redict	-7424
unicip	-7425
▁Catal	-7426
▁Popul	-7427
▁facto	-7428
▁overt	-7429
▁remed	-7430
▁valid	-7431
▁zones	-7432
iration	-7433
ounding	-7434
▁Draghi	-7435
▁blamed	-7436
▁cycles	-7437
▁parity	-7438
▁smooth	-7439
▁applies	-7440
▁declare	-7441
▁periods	-7442
▁pledged	-7443
ronically	-7444
▁division	-7445
▁embraced	-7446
▁founding	-7447
▁incorpor	-7448
▁manifest	-7449
▁produces	-7450
▁steadily	-7451
▁Economics	-7452
▁accepting	-7453
▁alliances	-7454
▁Ultimately	-7455
▁acceptable	-7456
▁collateral	-7457
▁definition	-7458
▁discovered	-7459
▁explicitly	-7460
▁achievement	-7461
▁supervision	-7462
▁acknowledged	-7463
80	-7464
Ass	-7465
bas	-7466
ham	-7467
lor	-7468
sen	-7469
sun	-7470
fold	-7471
lets	-7472
lymp	-7473
made	-7474
oler	-7475
wind	-7476
▁$10	-7477
▁dog	-7478
▁tom	-7479
itate	-7480
▁Peru	-7481
▁cens	-7482
▁feas	-7483
▁fill	-7484
▁flee	-7485
▁melt	-7486
▁pays	-7487
▁sequ	-7488
▁suic	-7489
▁suit	-7490
▁trem	-7491
▁uphe	-7492
iating	-7493
iciary	-7494
imated	-7495
incing	-7496
lights	-7497
othing	-7498
▁honor	-7499
▁inequ	-7500
▁lived	-7501
▁ranks	-7502
▁sheet	-7503
▁unequ	-7504
▁Follow	-7505
▁Greens	-7506
▁Lisbon	-7507
▁contag	-7508
▁endors	-7509
▁exempl	-7510
▁missed	-7511
▁relies	-7512
▁solely	-7513
▁trials	-7514
ilibrium	-7515
quarters	-7516
▁Somalia	-7517
▁classes	-7518
▁coastal	-7519
▁customs	-7520
▁deserve	-7521
▁elderly	-7522
▁harmful	-7523
▁spurred	-7524
▁waiting	-7525
▁McKinsey	-7526
▁claiming	-7527
▁destroyed	-7528
▁imbalance	-7529
▁naturally	-7530
▁plausible	-7531
▁restoring	-7532
▁propaganda	-7533
▁suggesting	-7534
▁functioning	-7535
▁constructive	-7536
▁destabilizing	-7537
▁professionals	-7538
It	-7539
RC	-7540
cu	-7541
oo	-7542
asp	-7543
igm	-7544
▁70	-7545
▁CD	-7546
ache	-7547
aker	-7548
cher	-7549
hani	-7550
igen	-7551
ocal	-7552
rand	-7553
ught	-7554
▁bab	-7555
▁gam	-7556
▁ran	-7557
▁brib	-7558
▁mood	-7559
▁seat	-7560
▁tail	-7561
uction	-7562
▁2012.	-7563
▁Assoc	-7564
▁Kyoto	-7565
▁Olymp	-7566
▁loyal	-7567
▁pione	-7568
▁Author	-7569
▁Having	-7570
▁begins	-7571
▁empire	-7572
▁stated	-7573
▁upgrad	-7574
▁Algeria	-7575
▁Twitter	-7576
▁bolster	-7577
▁cabinet	-7578
▁contest	-7579
▁details	-7580
▁dilemma	-7581
▁fishing	-7582
▁prefere	-7583
▁release	-7584
▁somehow	-7585
▁telling	-7586
▁warfare	-7587
▁cyclical	-7588
▁fraction	-7589
▁maritime	-7590
▁teachers	-7591
▁unnecess	-7592
▁confirmed	-7593
▁exchanges	-7594
▁receiving	-7595
▁comparison	-7596
▁delivering	-7597
▁frameworks	-7598
▁insecurity	-7599
▁arrangement	-7600
▁existential	-7601
▁architecture	-7602
▁biodiversity	-7603
▁bureaucratic	-7604
▁stakeholders	-7605
Th	-7606
mal	-7607
▁Had	-7608
▁Inc	-7609
▁Ren	-7610
▁son	-7611
▁wal	-7612
▁yen	-7613
Assad	-7614
elect	-7615
haust	-7616
icing	-7617
itely	-7618
▁Deal	-7619
▁Shia	-7620
▁bust	-7621
▁depr	-7622
▁fasc	-7623
▁lift	-7624
▁love	-7625
▁terr	-7626
▁tsun	-7627
apping	-7628
reform	-7629
▁Ocean	-7630
▁bills	-7631
▁haven	-7632
▁merit	-7633
▁Simply	-7634
▁memory	-7635
▁occurs	-7636
▁precip	-7637
ceptions	-7638
▁aggress	-7639
▁earthqu	-7640
▁follows	-7641
▁legally	-7642
▁municip	-7643
▁technoc	-7644
illennium	-7645
▁advocate	-7646
▁algorith	-7647
▁ambition	-7648
▁attitude	-7649
▁clearing	-7650
▁cultures	-7651
▁involves	-7652
▁reminder	-7653
▁widening	-7654
controlled	-7655
corruption	-7656
▁overwhelm	-7657
▁diminished	-7658
▁violations	-7659
▁distributed	-7660
▁predictions	-7661
▁achievements	-7662
▁contemporary	-7663
▁concentration	-7664
▁confrontation	-7665
▁transatlantic	-7666
ao	-7667
me	-7668
anz	-7669
▁Op	-7670
aces	-7671
cure	-7672
iary	-7673
iced	-7674
rick	-7675
rill	-7676
velt	-7677
▁AMR	-7678
▁Exp	-7679
▁NGO	-7680
▁isn	-7681
erson	-7682
ishes	-7683
ivals	-7684
think	-7685
under	-7686
▁Modi	-7687
▁Nazi	-7688
▁Roma	-7689
▁erod	-7690
▁flag	-7691
▁inex	-7692
▁rent	-7693
▁wall	-7694
ailing	-7695
▁burst	-7696
▁coinc	-7697
▁deriv	-7698
▁fault	-7699
▁gases	-7700
▁mixed	-7701
▁notes	-7702
▁piece	-7703
▁split	-7704
osevelt	-7705
ultural	-7706
▁Cambod	-7707
▁System	-7708
▁agents	-7709
▁fellow	-7710
▁forget	-7711
▁formed	-7712
▁method	-7713
▁robots	-7714
▁tempor	-7715
▁turbul	-7716
▁voices	-7717
ologists	-7718
▁Economy	-7719
▁college	-7720
▁statist	-7721
▁demanded	-7722
▁entering	-7723
▁indirect	-7724
▁laureate	-7725
▁minimize	-7726
▁outflows	-7727
▁overhaul	-7728
▁quarters	-7729
▁scholars	-7730
industrial	-7731
ispensable	-7732
▁Otherwise	-7733
▁committee	-7734
▁employers	-7735
▁judiciary	-7736
▁preferred	-7737
▁returning	-7738
▁challenged	-7739
▁complexity	-7740
▁confronted	-7741
▁politician	-7742
▁prevention	-7743
▁aspirations	-7744
▁exacerbated	-7745
▁expansionary	-7746
▁protectionist	-7747
▁traditionally	-7748
."	-7749
RID	-7750
Sem	-7751
col	-7752
jud	-7753
sur	-7754
tar	-7755
▁ST	-7756
ELHI	-7757
atri	-7758
esty	-7759
laud	-7760
well	-7761
▁Rec	-7762
▁raw	-7763
ADRID	-7764
arked	-7765
exist	-7766
▁Good	-7767
▁bias	-7768
▁card	-7769
▁cold	-7770
▁deem	-7771
▁duty	-7772
▁prox	-7773
▁rend	-7774
▁warm	-7775
arians	-7776
irical	-7777
licted	-7778
▁2004,	-7779
▁DELHI	-7780
▁James	-7781
▁Where	-7782
▁categ	-7783
▁cohes	-7784
▁dereg	-7785
▁dying	-7786
▁grant	-7787
▁inher	-7788
▁lands	-7789
▁rigid	-7790
▁sight	-7791
capital	-7792
society	-7793
▁Report	-7794
▁Review	-7795
▁harmon	-7796
▁paraly	-7797
▁revive	-7798
▁vested	-7799
▁Francis	-7800
▁cryptoc	-7801
▁devices	-7802
▁dignity	-7803
▁doubled	-7804
▁looming	-7805
▁visible	-7806
▁Agricult	-7807
▁Xiaoping	-7808
▁admitted	-7809
▁arguably	-7810
▁carrying	-7811
▁coherent	-7812
▁colonial	-7813
▁deployed	-7814
▁informed	-7815
▁Following	-7816
▁Greenspan	-7817
▁Roosevelt	-7818
▁Ukrainian	-7819
▁attracted	-7820
▁desirable	-7821
▁extensive	-7822
▁landscape	-7823
▁realities	-7824
▁selection	-7825
▁ecosystems	-7826
▁monitoring	-7827
▁popularity	-7828
▁punishment	-7829
▁comparative	-7830
▁temporarily	-7831
▁deleveraging	-7832
▁introduction	-7833
▁representative	-7834
70	-7835
EM	-7836
yc	-7837
▁.	-7838
▁‘	-7839
5%.	-7840
cul	-7841
▁6%	-7842
▁8%	-7843
▁CN	-7844
▁Gü	-7845
left	-7846
lict	-7847
▁Bol	-7848
▁Equ	-7849
▁Est	-7850
▁Fut	-7851
▁Mil	-7852
▁WTO	-7853
Semit	-7854
atter	-7855
inces	-7856
inter	-7857
▁Mich	-7858
▁Stud	-7859
▁Wolf	-7860
▁amid	-7861
▁caut	-7862
▁luck	-7863
▁pand	-7864
▁perv	-7865
rained	-7866
▁Fried	-7867
▁Yemen	-7868
▁brand	-7869
▁hoped	-7870
▁owned	-7871
▁tends	-7872
aunting	-7873
iations	-7874
oration	-7875
▁anemic	-7876
▁denied	-7877
▁overth	-7878
▁versus	-7879
communic	-7880
▁Whereas	-7881
▁corresp	-7882
▁devoted	-7883
▁enables	-7884
▁privacy	-7885
▁richest	-7886
▁tension	-7887
▁venture	-7888
mentation	-7889
▁borrowed	-7890
▁engaging	-7891
▁feasible	-7892
▁optimism	-7893
▁theories	-7894
▁advancing	-7895
▁campaigns	-7896
▁headlines	-7897
▁accomplish	-7898
▁Association	-7899
▁dangerously	-7900
▁destructive	-7901
▁distortions	-7902
▁financially	-7903
▁speculative	-7904
▁transaction	-7905
▁Policymakers	-7906
▁interconnected	-7907
ael	-7908
ola	-7909
osm	-7910
vey	-7911
▁28	-7912
▁sn	-7913
aked	-7914
ball	-7915
onym	-7916
▁Don	-7917
▁Kar	-7918
▁ham	-7919
▁ing	-7920
▁scr	-7921
alley	-7922
dated	-7923
vered	-7924
▁1997	-7925
▁Decl	-7926
▁Tony	-7927
▁calm	-7928
▁lobb	-7929
▁mira	-7930
▁wins	-7931
addafi	-7932
friend	-7933
istant	-7934
▁2020.	-7935
▁Iraqi	-7936
▁Moroc	-7937
▁draft	-7938
▁drove	-7939
▁hyper	-7940
▁immun	-7941
▁phone	-7942
▁resur	-7943
▁seeds	-7944
▁waves	-7945
leading	-7946
▁Crimea	-7947
▁MADRID	-7948
▁Making	-7949
▁animal	-7950
▁freely	-7951
▁hurric	-7952
▁stakes	-7953
▁suspic	-7954
lessness	-7955
▁Finland	-7956
▁acquire	-7957
▁animals	-7958
▁complac	-7959
▁drought	-7960
▁exhaust	-7961
▁factory	-7962
▁farming	-7963
▁neutral	-7964
▁scrutin	-7965
▁student	-7966
▁triumph	-7967
▁Protocol	-7968
▁creditor	-7969
▁frequent	-7970
▁obstacle	-7971
▁province	-7972
▁tendency	-7973
▁tomorrow	-7974
investment	-7975
▁contained	-7976
▁philosoph	-7977
▁precedent	-7978
▁strongest	-7979
▁undertake	-7980
▁adaptation	-7981
▁components	-7982
▁exacerbate	-7983
▁guidelines	-7984
▁reflecting	-7985
▁unemployed	-7986
▁unexpected	-7987
▁differently	-7988
▁equilibrium	-7989
▁highlighted	-7990
▁operational	-7991
▁reconciliation	-7992
UN	-7993
Wh	-7994
va	-7995
FOR	-7996
asy	-7997
hou	-7998
ils	-7999
ito	-8000
kin	-8001
-199	-8002
AVEN	-8003
ixon	-8004
unch	-8005
▁192	-8006
▁Air	-8007
▁Cur	-8008
▁Del	-8009
▁Who	-8010
▁bed	-8011
▁cum	-8012
▁map	-8013
egoti	-8014
iants	-8015
omics	-8016
ouris	-8017
▁Prem	-8018
▁cure	-8019
▁pact	-8020
▁unus	-8021
▁1930’	-8022
▁HAVEN	-8023
▁Macri	-8024
▁admit	-8025
▁arsen	-8026
▁depth	-8027
▁enemy	-8028
▁grows	-8029
▁hedge	-8030
▁incre	-8031
▁revel	-8032
▁ultra	-8033
▁Fourth	-8034
▁detect	-8035
▁interm	-8036
▁lately	-8037
▁pledge	-8038
▁serves	-8039
▁spiral	-8040
▁therap	-8041
▁Leaders	-8042
▁Neither	-8043
▁carries	-8044
▁islands	-8045
▁lacking	-8046
▁monitor	-8047
▁placing	-8048
▁retreat	-8049
▁shaping	-8050
▁typical	-8051
▁2008-200	-8052
▁Governor	-8053
▁Israelis	-8054
▁assuming	-8055
▁marriage	-8056
▁maximize	-8057
▁pensions	-8058
▁Community	-8059
▁appealing	-8060
▁disappear	-8061
▁emphasize	-8062
▁extremism	-8063
▁hospitals	-8064
▁magnitude	-8065
▁Government	-8066
▁capitalist	-8067
▁ecological	-8068
▁intentions	-8069
▁irrelevant	-8070
▁occupation	-8071
▁renewables	-8072
▁foreseeable	-8073
▁requirement	-8074
▁availability	-8075
▁transmission	-8076
▁unacceptable	-8077
cho	-8078
ima	-8079
zed	-8080
▁fr	-8081
cend	-8082
offs	-8083
▁1.5	-8084
▁tap	-8085
astic	-8086
▁1960	-8087
▁Sadd	-8088
▁Wood	-8089
▁enjo	-8090
▁tied	-8091
▁toug	-8092
taking	-8093
▁Apple	-8094
▁Gülen	-8095
▁Nixon	-8096
▁Qaeda	-8097
▁brink	-8098
▁escap	-8099
▁flaws	-8100
▁roles	-8101
▁spill	-8102
▁Common	-8103
▁Office	-8104
▁Valley	-8105
▁bought	-8106
▁calcul	-8107
▁circle	-8108
▁detain	-8109
▁fisher	-8110
▁fortun	-8111
▁obtain	-8112
▁permit	-8113
▁reveal	-8114
capacity	-8115
ortheast	-8116
▁Mexican	-8117
▁Morocco	-8118
▁lawyers	-8119
▁revival	-8120
▁vicious	-8121
▁directed	-8122
▁displace	-8123
▁embedded	-8124
▁enduring	-8125
▁generals	-8126
▁implying	-8127
▁imported	-8128
▁ministry	-8129
▁regulate	-8130
▁troubles	-8131
performing	-8132
▁Churchill	-8133
▁Islamists	-8134
▁childhood	-8135
▁communism	-8136
▁followers	-8137
▁successes	-8138
denominated	-8139
▁adequately	-8140
▁constitute	-8141
▁creativity	-8142
▁electorate	-8143
▁highlights	-8144
▁instrument	-8145
▁recessions	-8146
▁centralized	-8147
▁exclusively	-8148
▁unification	-8149
▁specifically	-8150
▁dysfunctional	-8151
▁disintegration	-8152
BC	-8153
▁x	-8154
iro	-8155
kov	-8156
och	-8157
odd	-8158
oul	-8159
▁Ed	-8160
▁Ev	-8161
emer	-8162
high	-8163
orse	-8164
trad	-8165
▁Emp	-8166
▁PRI	-8167
▁bio	-8168
▁haz	-8169
asant	-8170
icted	-8171
iques	-8172
liers	-8173
ranch	-8174
shore	-8175
skept	-8176
▁Cost	-8177
▁Park	-8178
▁Real	-8179
▁curt	-8180
▁kick	-8181
▁site	-8182
▁subt	-8183
▁tens	-8184
▁veto	-8185
backed	-8186
guided	-8187
liance	-8188
thodox	-8189
uggish	-8190
▁2003,	-8191
▁Ahmad	-8192
▁Green	-8193
▁Mario	-8194
▁Qatar	-8195
▁Worse	-8196
▁consc	-8197
▁fraud	-8198
▁ocean	-8199
▁panic	-8200
▁relax	-8201
▁vigor	-8202
comings	-8203
content	-8204
enophob	-8205
inction	-8206
station	-8207
▁Better	-8208
▁Saddam	-8209
▁behave	-8210
▁helium	-8211
▁letter	-8212
▁plural	-8213
▁repair	-8214
cyclical	-8215
▁Premier	-8216
▁arrived	-8217
▁assault	-8218
▁display	-8219
▁evolved	-8220
▁horizon	-8221
▁implied	-8222
▁indefin	-8223
▁signals	-8224
▁stagger	-8225
▁strikes	-8226
▁amounted	-8227
▁choosing	-8228
▁defaults	-8229
▁equipped	-8230
▁insights	-8231
▁producer	-8232
▁Sometimes	-8233
▁accession	-8234
▁buildings	-8235
▁criminals	-8236
▁equitable	-8237
▁factories	-8238
▁incumbent	-8239
▁justified	-8240
▁preparing	-8241
▁providers	-8242
▁recapital	-8243
▁regularly	-8244
▁provisions	-8245
▁anticipated	-8246
▁containment	-8247
▁degradation	-8248
▁reinforcing	-8249
▁shortcomings	-8250
▁indispensable	-8251
25	-8252
30	-8253
ek	-8254
ps	-8255
tw	-8256
”:	-8257
▁,	-8258
5%,	-8259
ago	-8260
nel	-8261
ois	-8262
▁ox	-8263
anth	-8264
brid	-8265
cked	-8266
izer	-8267
▁11,	-8268
▁Ban	-8269
▁Pik	-8270
▁Ref	-8271
▁Tax	-8272
▁Tob	-8273
▁bon	-8274
▁fan	-8275
▁inj	-8276
rones	-8277
▁Bosn	-8278
▁HONG	-8279
▁KONG	-8280
▁evil	-8281
▁sees	-8282
▁actor	-8283
▁brief	-8284
▁incur	-8285
▁insur	-8286
▁quiet	-8287
▁rally	-8288
▁stuck	-8289
▁Bashar	-8290
▁bright	-8291
▁corner	-8292
▁metric	-8293
▁purely	-8294
▁seeing	-8295
▁shaped	-8296
▁Piketty	-8297
▁Several	-8298
▁brother	-8299
▁combine	-8300
▁drawing	-8301
▁impover	-8302
▁issuing	-8303
▁notable	-8304
▁ranging	-8305
▁smoking	-8306
▁tremend	-8307
▁unified	-8308
▁Cambodia	-8309
▁adjusted	-8310
▁audience	-8311
▁captured	-8312
▁diagnost	-8313
▁hegemony	-8314
▁judgment	-8315
▁meltdown	-8316
▁stemming	-8317
▁supervis	-8318
democratic	-8319
▁crackdown	-8320
▁genuinely	-8321
▁imperfect	-8322
▁pragmatic	-8323
▁recovered	-8324
▁rejection	-8325
information	-8326
▁Developing	-8327
▁Millennium	-8328
▁appreciate	-8329
▁sanitation	-8330
▁temptation	-8331
▁undermines	-8332
▁accordingly	-8333
▁frustration	-8334
▁accumulation	-8335
▁interference	-8336
▁Infrastructure	-8337
▁vulnerabilities	-8338
EC	-8339
ARC	-8340
LIN	-8341
tor	-8342
uzz	-8343
▁€1	-8344
hors	-8345
risk	-8346
▁$50	-8347
▁End	-8348
▁Jer	-8349
▁arm	-8350
▁liv	-8351
▁ost	-8352
▁pal	-8353
▁pet	-8354
▁twe	-8355
aning	-8356
ceans	-8357
comed	-8358
digit	-8359
ester	-8360
hetic	-8361
ymmet	-8362
▁Coal	-8363
▁IPCC	-8364
▁Pric	-8365
▁Vice	-8366
▁cogn	-8367
▁diet	-8368
▁odds	-8369
▁rand	-8370
▁stif	-8371
idance	-8372
ilater	-8373
▁Basel	-8374
▁alien	-8375
▁cards	-8376
▁incon	-8377
▁proud	-8378
▁safer	-8379
▁stret	-8380
▁topic	-8381
General	-8382
ilitary	-8383
ulators	-8384
viously	-8385
▁Asians	-8386
▁adults	-8387
▁honest	-8388
▁lifted	-8389
▁losers	-8390
▁relied	-8391
▁Banking	-8392
▁Richard	-8393
▁exceeds	-8394
▁neglect	-8395
▁suspect	-8396
▁unknown	-8397
▁worries	-8398
financial	-8399
▁Emerging	-8400
▁acquired	-8401
▁arrested	-8402
▁daunting	-8403
▁director	-8404
▁dynamism	-8405
▁governed	-8406
▁innocent	-8407
▁interact	-8408
▁isolated	-8409
▁judicial	-8410
▁shortage	-8411
▁watching	-8412
▁Authority	-8413
▁appointed	-8414
▁diagnosis	-8415
▁discovery	-8416
▁meanwhile	-8417
▁scenarios	-8418
▁shrinking	-8419
▁spreading	-8420
responsible	-8421
▁benefiting	-8422
▁compensate	-8423
▁deterrence	-8424
▁earthquake	-8425
▁eliminated	-8426
▁fragmented	-8427
▁impression	-8428
▁disruptions	-8429
▁predecessor	-8430
▁speculation	-8431
▁polarization	-8432
▁representing	-8433
▁determination	-8434
▁characteristics	-8435
PA	-8436
eu	-8437
jad	-8438
ulg	-8439
ups	-8440
▁$8	-8441
▁BO	-8442
anim	-8443
comp	-8444
inal	-8445
sing	-8446
▁Cup	-8447
▁Kaz	-8448
▁Ter	-8449
▁cyn	-8450
▁kil	-8451
▁pra	-8452
▁rac	-8453
▁yes	-8454
archy	-8455
backs	-8456
olved	-8457
ounce	-8458
speed	-8459
▁2002	-8460
▁MDGs	-8461
▁Next	-8462
▁bulk	-8463
▁door	-8464
▁fool	-8465
▁sake	-8466
▁town	-8467
inejad	-8468
▁2016.	-8469
▁Banks	-8470
▁Prize	-8471
▁breat	-8472
▁ignor	-8473
▁sheer	-8474
endment	-8475
renched	-8476
version	-8477
▁approx	-8478
▁deepen	-8479
▁ethics	-8480
▁floods	-8481
▁impede	-8482
▁mental	-8483
▁taught	-8484
▁theore	-8485
▁thrive	-8486
▁worker	-8487
election	-8488
▁100,000	-8489
▁Charter	-8490
▁Freedom	-8491
▁affects	-8492
▁asymmet	-8493
▁classic	-8494
▁consume	-8495
▁mineral	-8496
▁reading	-8497
▁soaring	-8498
▁surface	-8499
▁unpopul	-8500
▁securing	-8501
▁socially	-8502
▁tackling	-8503
▁welcomed	-8504
ilaterally	-8505
▁Argentine	-8506
▁indicates	-8507
▁newspaper	-8508
▁occurring	-8509
▁oversight	-8510
▁screening	-8511
▁correction	-8512
▁difficulty	-8513
▁expectancy	-8514
▁irrational	-8515
▁obligation	-8516
▁advertising	-8517
▁approaching	-8518
▁cooperative	-8519
▁disarmament	-8520
▁excessively	-8521
▁preferences	-8522
▁restructure	-8523
▁territories	-8524
▁evolutionary	-8525
▁predecessors	-8526
▁transnational	-8527
▁Representatives	-8528
-7	-8529
As	-8530
bu	-8531
zo	-8532
NCE	-8533
WII	-8534
cup	-8535
des	-8536
due	-8537
esh	-8538
iam	-8539
▁22	-8540
▁id	-8541
adly	-8542
good	-8543
hana	-8544
ords	-8545
▁Day	-8546
▁Dec	-8547
▁Pre	-8548
▁aug	-8549
▁mil	-8550
ander	-8551
ashes	-8552
aying	-8553
ernal	-8554
fifth	-8555
owing	-8556
ronts	-8557
ropri	-8558
▁Gold	-8559
▁Prov	-8560
▁edge	-8561
▁fees	-8562
▁keen	-8563
▁ramp	-8564
▁spok	-8565
▁tide	-8566
▁tiny	-8567
NCETON	-8568
▁2009.	-8569
▁Above	-8570
▁Child	-8571
▁Civil	-8572
▁Ghana	-8573
▁Stand	-8574
▁Water	-8575
▁angry	-8576
▁camps	-8577
▁chose	-8578
▁consp	-8579
▁midst	-8580
▁store	-8581
▁Kazakh	-8582
▁advers	-8583
▁fertil	-8584
▁master	-8585
▁mathem	-8586
▁oceans	-8587
▁relent	-8588
▁resemb	-8589
affected	-8590
inations	-8591
▁Liberal	-8592
▁compact	-8593
▁delayed	-8594
▁dismant	-8595
▁enjoyed	-8596
▁migrant	-8597
▁sending	-8598
▁serving	-8599
▁traders	-8600
▁trained	-8601
▁tsunami	-8602
▁winners	-8603
▁writing	-8604
effective	-8605
▁distress	-8606
▁entities	-8607
▁equities	-8608
▁insisted	-8609
▁inspired	-8610
▁tradable	-8611
▁treating	-8612
▁unstable	-8613
ifications	-8614
management	-8615
▁PRINCETON	-8616
▁addresses	-8617
▁contagion	-8618
▁decentral	-8619
▁departure	-8620
▁happiness	-8621
▁medicines	-8622
▁respected	-8623
▁translate	-8624
▁unpredict	-8625
▁Throughout	-8626
▁abandoning	-8627
▁aggression	-8628
▁correspond	-8629
▁incomplete	-8630
▁peripheral	-8631
▁triggering	-8632
▁controlling	-8633
▁commentators	-8634
40	-8635
hr	-8636
lov	-8637
hman	-8638
need	-8639
usal	-8640
▁$2.	-8641
▁Bit	-8642
▁BoE	-8643
▁Hen	-8644
▁Ric	-8645
▁Sam	-8646
▁Sri	-8647
▁lic	-8648
▁lux	-8649
▁sho	-8650
erved	-8651
fired	-8652
front	-8653
othes	-8654
ousse	-8655
uated	-8656
▁Jose	-8657
▁Rome	-8658
▁exec	-8659
▁film	-8660
▁hide	-8661
▁leng	-8662
▁pock	-8663
▁sect	-8664
▁wife	-8665
iteers	-8666
manuel	-8667
orious	-8668
regard	-8669
retion	-8670
▁2011.	-8671
▁2050,	-8672
▁Chief	-8673
▁Doing	-8674
▁Would	-8675
▁alleg	-8676
▁grasp	-8677
▁marks	-8678
▁param	-8679
▁squee	-8680
anthrop	-8681
atories	-8682
defense	-8683
economy	-8684
▁behalf	-8685
▁bloody	-8686
▁deemed	-8687
▁injust	-8688
▁physic	-8689
▁poised	-8690
▁solved	-8691
arations	-8692
▁Bitcoin	-8693
▁blocked	-8694
▁burdens	-8695
▁burning	-8696
▁debtors	-8697
▁suffers	-8698
▁whereby	-8699
▁Brothers	-8700
▁chairman	-8701
▁describe	-8702
▁disputed	-8703
▁endorsed	-8704
▁governor	-8705
▁guidance	-8706
▁predomin	-8707
▁promoted	-8708
▁sluggish	-8709
▁warnings	-8710
▁xenophob	-8711
productive	-8712
▁empirical	-8713
▁extending	-8714
▁nutrition	-8715
▁prevailed	-8716
▁promotion	-8717
▁boundaries	-8718
▁connection	-8719
▁convincing	-8720
▁disruptive	-8721
▁processing	-8722
▁profitable	-8723
▁situations	-8724
▁staggering	-8725
▁accelerated	-8726
▁accumulated	-8727
▁ineffective	-8728
▁interesting	-8729
▁protections	-8730
▁aggressively	-8731
▁collectively	-8732
▁historically	-8733
▁significance	-8734
▁fragmentation	-8735
▁normalization	-8736
▁recommendations	-8737
Le	-8738
án	-8739
▁&	-8740
emy	-8741
irs	-8742
lav	-8743
uum	-8744
▁La	-8745
▁Sy	-8746
▁na	-8747
Russ	-8748
agog	-8749
aret	-8750
azon	-8751
char	-8752
ford	-8753
▁Age	-8754
▁Squ	-8755
▁Tay	-8756
▁Ten	-8757
▁coc	-8758
▁eat	-8759
▁sky	-8760
added	-8761
izers	-8762
▁Acad	-8763
▁Darf	-8764
▁Does	-8765
▁Fran	-8766
▁Lank	-8767
▁Sant	-8768
▁cosm	-8769
▁heed	-8770
▁nets	-8771
atible	-8772
compet	-8773
erated	-8774
incial	-8775
owered	-8776
unning	-8777
▁2030,	-8778
▁Arabs	-8779
▁Elect	-8780
▁Index	-8781
▁climb	-8782
▁fifth	-8783
▁reloc	-8784
▁retal	-8785
▁rises	-8786
▁style	-8787
▁trump	-8788
diction	-8789
ervices	-8790
roughts	-8791
▁BERLIN	-8792
▁Future	-8793
▁Histor	-8794
▁Lehman	-8795
▁absent	-8796
▁assist	-8797
▁barrel	-8798
▁excell	-8799
▁parlia	-8800
▁phones	-8801
▁random	-8802
▁soared	-8803
▁timing	-8804
▁Johnson	-8805
▁assumes	-8806
▁breakup	-8807
▁convert	-8808
▁damaged	-8809
▁degrees	-8810
▁extends	-8811
▁forever	-8812
▁unclear	-8813
▁urgency	-8814
▁village	-8815
urrencies	-8816
▁distrust	-8817
▁dividend	-8818
▁downside	-8819
▁excluded	-8820
▁fairness	-8821
▁frontier	-8822
▁parallel	-8823
▁speaking	-8824
▁concerted	-8825
▁emotional	-8826
▁troubling	-8827
▁collection	-8828
▁discontent	-8829
▁entrenched	-8830
▁sustaining	-8831
▁undertaken	-8832
withstanding	-8833
▁Ahmadinejad	-8834
▁application	-8835
▁bureaucrats	-8836
▁comfortable	-8837
▁distinguish	-8838
▁parliaments	-8839
▁connectivity	-8840
▁deliberately	-8841
▁automatically	-8842
60	-8843
IS	-8844
In	-8845
sm	-8846
”)	-8847
500	-8848
ask	-8849
aug	-8850
umn	-8851
voc	-8852
▁2,	-8853
ctic	-8854
▁Dig	-8855
▁Opp	-8856
▁SAN	-8857
▁Sur	-8858
▁Web	-8859
▁bes	-8860
▁unm	-8861
Japan	-8862
armed	-8863
eterm	-8864
orage	-8865
▁2018	-8866
▁Long	-8867
▁Mass	-8868
▁Near	-8869
▁Prom	-8870
▁boss	-8871
▁feet	-8872
▁tang	-8873
encing	-8874
imalay	-8875
profit	-8876
▁2017.	-8877
▁alive	-8878
▁drast	-8879
▁griev	-8880
▁maneu	-8881
▁plain	-8882
▁teach	-8883
▁towns	-8884
ishment	-8885
▁Agenda	-8886
▁Minist	-8887
▁deadly	-8888
▁differ	-8889
▁houses	-8890
▁images	-8891
▁listen	-8892
▁regain	-8893
▁rivals	-8894
▁tested	-8895
▁Project	-8896
▁Success	-8897
▁automob	-8898
▁booming	-8899
▁harness	-8900
▁linking	-8901
▁orderly	-8902
▁passing	-8903
▁rebuild	-8904
▁refusal	-8905
▁visited	-8906
rexiteers	-8907
▁Together	-8908
▁comprise	-8909
▁distance	-8910
▁droughts	-8911
▁philosop	-8912
▁reversal	-8913
▁terrible	-8914
▁condemned	-8915
▁dimension	-8916
▁dividends	-8917
▁healthier	-8918
▁provinces	-8919
▁strengths	-8920
▁upgrading	-8921
▁Kazakhstan	-8922
▁acceptance	-8923
▁reluctance	-8924
▁tremendous	-8925
▁assessments	-8926
▁introducing	-8927
▁stabilizing	-8928
▁fluctuations	-8929
▁impoverished	-8930
▁overcapacity	-8931
▁manufacturers	-8932
▁possibilities	-8933
▁privatization	-8934
HA	-8935
yo	-8936
iol	-8937
ker	-8938
thy	-8939
arus	-8940
bial	-8941
burg	-8942
norm	-8943
orce	-8944
room	-8945
thal	-8946
usse	-8947
▁35%	-8948
▁Vik	-8949
▁Wil	-8950
▁ice	-8951
▁pil	-8952
bonds	-8953
ercul	-8954
esity	-8955
green	-8956
world	-8957
worth	-8958
▁Army	-8959
▁Bret	-8960
▁Dire	-8961
▁FARC	-8962
▁Kurd	-8963
▁Poor	-8964
▁abst	-8965
▁buff	-8966
▁diam	-8967
▁grim	-8968
▁plus	-8969
▁resh	-8970
▁soil	-8971
arious	-8972
global	-8973
ighted	-8974
orting	-8975
▁Panel	-8976
▁Swiss	-8977
▁acted	-8978
▁alter	-8979
▁annex	-8980
▁cited	-8981
▁crowd	-8982
▁euros	-8983
▁forge	-8984
▁miles	-8985
▁pivot	-8986
▁scarc	-8987
▁tells	-8988
▁upris	-8989
aughter	-8990
quarter	-8991
ratives	-8992
ubercul	-8993
▁Almost	-8994
▁Darfur	-8995
▁boards	-8996
▁denial	-8997
▁earned	-8998
▁firmly	-8999
▁illust	-9000
▁ingred	-9001
▁lender	-9002
▁pretty	-9003
▁savers	-9004
▁slogan	-9005
▁sphere	-9006
▁tragic	-9007
▁unfold	-9008
▁window	-9009
friendly	-9010
▁Balkans	-9011
▁Belarus	-9012
▁Himalay	-9013
▁answers	-9014
▁authors	-9015
▁dubious	-9016
▁endless	-9017
▁founded	-9018
▁gravity	-9019
▁penalty	-9020
▁portray	-9021
▁records	-9022
▁vehicle	-9023
▁Thatcher	-9024
▁impunity	-9025
▁paradigm	-9026
▁reckless	-9027
▁scrutiny	-9028
▁undercut	-9029
orestation	-9030
▁Companies	-9031
▁cognitive	-9032
▁countless	-9033
▁exclusive	-9034
▁functions	-9035
▁illiberal	-9036
▁liability	-9037
▁literally	-9038
▁prisoners	-9039
uberculosis	-9040
▁Brexiteers	-9041
▁attracting	-9042
▁motivation	-9043
▁officially	-9044
▁preserving	-9045
▁protracted	-9046
▁diminishing	-9047
▁efficiently	-9048
▁exceptional	-9049
▁experiments	-9050
▁facilitated	-9051
▁settlements	-9052
▁Specifically	-9053
▁facilitating	-9054
▁jurisdiction	-9055
▁psychological	-9056
▁overwhelmingly	-9057
Af	-9058
Sh	-9059
Ind	-9060
pel	-9061
vez	-9062
▁Bh	-9063
▁Lu	-9064
▁Up	-9065
achs	-9066
airo	-9067
aise	-9068
host	-9069
icul	-9070
omas	-9071
▁Dam	-9072
▁Gen	-9073
▁God	-9074
▁Lee	-9075
▁Vol	-9076
▁box	-9077
▁uni	-9078
aired	-9079
apped	-9080
athol	-9081
essed	-9082
lined	-9083
occup	-9084
ounds	-9085
overs	-9086
ravel	-9087
ruits	-9088
start	-9089
▁Fear	-9090
▁Gaul	-9091
▁Krug	-9092
▁Pers	-9093
▁diff	-9094
▁hike	-9095
▁pron	-9096
▁pump	-9097
▁sums	-9098
▁wary	-9099
ancers	-9100
astics	-9101
saving	-9102
▁afflu	-9103
▁clout	-9104
▁indif	-9105
▁music	-9106
▁panel	-9107
▁polio	-9108
▁pride	-9109
▁steep	-9110
▁teams	-9111
▁unint	-9112
▁utter	-9113
control	-9114
▁Across	-9115
▁Cathol	-9116
▁Polish	-9117
▁Ronald	-9118
▁Rousse	-9119
▁Shinzo	-9120
▁abrupt	-9121
▁bacter	-9122
▁casual	-9123
▁cleare	-9124
▁dozens	-9125
▁filled	-9126
▁humili	-9127
▁phrase	-9128
▁preval	-9129
▁racial	-9130
▁repeat	-9131
iliation	-9132
specific	-9133
▁Krugman	-9134
▁Sanders	-9135
▁boosted	-9136
▁charged	-9137
▁confirm	-9138
▁covered	-9139
▁emulate	-9140
▁encount	-9141
▁entails	-9142
▁favored	-9143
▁harvest	-9144
▁premium	-9145
▁silence	-9146
▁suicide	-9147
▁alarming	-9148
▁averaged	-9149
▁cautious	-9150
▁cohesion	-9151
▁detailed	-9152
▁document	-9153
▁eventual	-9154
▁imprison	-9155
▁orthodox	-9156
▁removing	-9157
▁extremist	-9158
▁gathering	-9159
▁indicated	-9160
▁intensify	-9161
▁intermedi	-9162
▁personnel	-9163
▁censorship	-9164
▁constantly	-9165
▁cumulative	-9166
▁discretion	-9167
▁escalating	-9168
▁homeowners	-9169
▁misleading	-9170
▁provincial	-9171
▁techniques	-9172
▁Corporation	-9173
▁consolidate	-9174
▁inspiration	-9175
▁statistical	-9176
▁unnecessary	-9177
▁civilization	-9178
▁conservation	-9179
▁demonstrates	-9180
▁irresponsible	-9181
BA	-9182
UR	-9183
dec	-9184
kes	-9185
lie	-9186
map	-9187
▁35	-9188
▁80	-9189
amin	-9190
asse	-9191
atch	-9192
even	-9193
hard	-9194
life	-9195
step	-9196
wage	-9197
ávez	-9198
▁Bay	-9199
▁Bre	-9200
▁CCP	-9201
▁Dub	-9202
▁FDI	-9203
▁alc	-9204
▁esp	-9205
▁kid	-9206
▁peg	-9207
hibit	-9208
olera	-9209
otten	-9210
roads	-9211
▁Mart	-9212
▁beat	-9213
▁cere	-9214
▁cool	-9215
▁edit	-9216
▁fier	-9217
▁gene	-9218
▁nurt	-9219
▁olig	-9220
▁peer	-9221
▁semi	-9222
▁vide	-9223
cially	-9224
errill	-9225
estock	-9226
▁2002,	-9227
▁Chair	-9228
▁Guant	-9229
▁Major	-9230
▁Right	-9231
▁Sachs	-9232
▁accus	-9233
▁ambig	-9234
▁chair	-9235
▁dozen	-9236
▁hikes	-9237
▁robot	-9238
▁stems	-9239
connect	-9240
igenous	-9241
induced	-9242
rategic	-9243
▁Consum	-9244
▁Fiscal	-9245
▁Square	-9246
▁bridge	-9247
▁enrich	-9248
▁giants	-9249
▁inputs	-9250
▁median	-9251
▁orient	-9252
▁oversh	-9253
▁recall	-9254
▁rivers	-9255
▁starts	-9256
▁street	-9257
▁unanim	-9258
▁winner	-9259
idential	-9260
secution	-9261
▁Affairs	-9262
▁Charles	-9263
▁Increas	-9264
▁Nicolas	-9265
▁Science	-9266
▁Similar	-9267
▁disclos	-9268
▁discred	-9269
▁hegemon	-9270
▁hostile	-9271
▁intoler	-9272
▁margins	-9273
▁pillars	-9274
▁recruit	-9275
▁virtual	-9276
▁Administ	-9277
▁diminish	-9278
▁freedoms	-9279
▁inaction	-9280
▁infected	-9281
▁postpone	-9282
▁prompted	-9283
▁restored	-9284
▁thousand	-9285
▁whenever	-9286
▁Pakistani	-9287
▁allocated	-9288
▁completed	-9289
▁declaring	-9290
▁diplomats	-9291
▁disregard	-9292
▁municipal	-9293
▁portfolio	-9294
▁reference	-9295
▁reforming	-9296
▁suppliers	-9297
▁Protection	-9298
▁attributed	-9299
▁biological	-9300
▁deployment	-9301
▁electronic	-9302
▁indigenous	-9303
▁presumably	-9304
▁resentment	-9305
▁Declaration	-9306
▁association	-9307
▁compromises	-9308
▁connections	-9309
▁continental	-9310
▁expectation	-9311
▁intensified	-9312
▁spectacular	-9313
▁deregulation	-9314
▁entrepreneur	-9315
▁breakthroughs	-9316
▁disappointing	-9317
▁investigation	-9318
-3	-9319
OK	-9320
afe	-9321
ixt	-9322
kak	-9323
law	-9324
rim	-9325
sol	-9326
sum	-9327
▁(“	-9328
▁26	-9329
▁8.	-9330
Year	-9331
iast	-9332
zing	-9333
▁-0.	-9334
▁150	-9335
▁Ent	-9336
▁Jud	-9337
▁NCD	-9338
▁Oil	-9339
▁Rem	-9340
▁Sol	-9341
Claud	-9342
ellen	-9343
itage	-9344
print	-9345
trans	-9346
▁Belg	-9347
▁Bund	-9348
▁Post	-9349
▁Stal	-9350
▁Yanu	-9351
▁culp	-9352
▁fake	-9353
▁succ	-9354
Claude	-9355
erates	-9356
kovych	-9357
needed	-9358
▁Exper	-9359
▁Fight	-9360
▁Franç	-9361
▁broke	-9362
▁chess	-9363
▁cliff	-9364
▁hence	-9365
▁inhab	-9366
▁ought	-9367
▁refin	-9368
▁river	-9369
▁swift	-9370
alemate	-9371
consist	-9372
seekers	-9373
▁Bosnia	-9374
▁Chávez	-9375
▁Marine	-9376
▁Terror	-9377
▁Twenty	-9378
▁Viktor	-9379
▁Yellen	-9380
▁checks	-9381
▁curric	-9382
▁errors	-9383
▁evolve	-9384
▁fought	-9385
▁hidden	-9386
▁induce	-9387
▁notice	-9388
▁spends	-9389
▁Summers	-9390
▁located	-9391
▁methane	-9392
▁minimal	-9393
▁postwar	-9394
▁storage	-9395
▁verdict	-9396
enhancing	-9397
insurance	-9398
resistant	-9399
▁Emmanuel	-9400
▁customer	-9401
▁episodes	-9402
▁flooding	-9403
▁ignoring	-9404
▁mainland	-9405
▁stagnant	-9406
▁stressed	-9407
▁Euroskept	-9408
▁combating	-9409
▁dedicated	-9410
▁defending	-9411
▁depressed	-9412
▁embracing	-9413
▁enhancing	-9414
▁exclusion	-9415
▁intensity	-9416
▁livestock	-9417
▁maintains	-9418
▁perfectly	-9419
▁professor	-9420
▁skeptical	-9421
▁suspicion	-9422
▁unpopular	-9423
▁voluntary	-9424
▁worsening	-9425
▁Yanukovych	-9426
▁capability	-9427
▁coordinate	-9428
▁narratives	-9429
▁negotiators	-9430
▁permanently	-9431
▁surrounding	-9432
▁subsidiaries	-9433
▁transforming	-9434
▁unilaterally	-9435
▁Congressional	-9436
▁Environmental	-9437
▁Globalization	-9438
▁unpredictable	-9439
▁Constitutional	-9440
▁underestimated	-9441
▁environmentally	-9442
,"	-9443
AT	-9444
BT	-9445
ko	-9446
TIP	-9447
eff	-9448
inf	-9449
▁--	-9450
▁Av	-9451
▁Ji	-9452
FORD	-9453
abet	-9454
bean	-9455
drop	-9456
eter	-9457
iasm	-9458
that	-9459
zero	-9460
▁11%	-9461
▁Ali	-9462
▁Att	-9463
▁Bor	-9464
▁Jan	-9465
▁Mel	-9466
▁Spe	-9467
▁Too	-9468
▁Wal	-9469
▁sle	-9470
▁syn	-9471
▁tab	-9472
▁tit	-9473
lovak	-9474
oldov	-9475
▁1950	-9476
▁Belt	-9477
▁Dodd	-9478
▁Snow	-9479
▁Time	-9480
▁aren	-9481
▁feat	-9482
▁hack	-9483
▁loos	-9484
▁mega	-9485
▁plag	-9486
▁sale	-9487
▁shot	-9488
insula	-9489
ocracy	-9490
states	-9491
uating	-9492
▁Costa	-9493
▁Lanka	-9494
▁Micro	-9495
▁River	-9496
▁appet	-9497
▁clash	-9498
▁irony	-9499
▁spons	-9500
▁wield	-9501
assador	-9502
erating	-9503
iencies	-9504
instein	-9505
reating	-9506
▁Amazon	-9507
▁Either	-9508
▁Former	-9509
▁Joseph	-9510
▁Moldov	-9511
▁Thomas	-9512
▁acquis	-9513
▁aggrav	-9514
▁drones	-9515
▁feared	-9516
▁gotten	-9517
▁pillar	-9518
▁recons	-9519
▁vastly	-9520
ineering	-9521
▁Bretton	-9522
▁Markets	-9523
▁Senator	-9524
▁Silicon	-9525
▁article	-9526
▁expects	-9527
▁inspire	-9528
▁logical	-9529
▁outrage	-9530
▁satisfy	-9531
▁surveys	-9532
estically	-9533
istically	-9534
▁Director	-9535
▁François	-9536
▁Friedman	-9537
▁bailouts	-9538
▁breaking	-9539
▁defeated	-9540
▁defining	-9541
▁dictator	-9542
▁disposal	-9543
▁facility	-9544
▁instinct	-9545
▁irrevers	-9546
▁offshore	-9547
▁dismissed	-9548
▁interview	-9549
▁misguided	-9550
▁overnight	-9551
▁pervasive	-9552
▁routinely	-9553
▁sacrifice	-9554
▁workplace	-9555
▁algorithms	-9556
▁globalized	-9557
▁grievances	-9558
▁indication	-9559
▁newspapers	-9560
▁protesters	-9561
▁derivatives	-9562
▁disparities	-9563
▁recommended	-9564
▁replacement	-9565
▁immunization	-9566
▁indefinitely	-9567
▁nationalists	-9568
▁telecommunic	-9569
▁stabilization	-9570
▁industrialized	-9571
▁interpretation	-9572
GI	-9573
If	-9574
KP	-9575
ec	-9576
ont	-9577
▁ho	-9578
▁om	-9579
arks	-9580
conf	-9581
ests	-9582
icit	-9583
ogen	-9584
pple	-9585
▁$3.	-9586
▁30-	-9587
▁Ach	-9588
▁BOJ	-9589
▁TPP	-9590
▁Tim	-9591
▁dry	-9592
▁fat	-9593
▁fro	-9594
▁hat	-9595
▁ped	-9596
▁ven	-9597
-2008	-9598
Frank	-9599
auses	-9600
ibaba	-9601
ienna	-9602
▁Debt	-9603
▁NGOs	-9604
▁Wild	-9605
▁anch	-9606
▁baby	-9607
▁fant	-9608
▁intr	-9609
▁outp	-9610
▁sick	-9611
Israel	-9612
consum	-9613
▁1,000	-9614
▁Boliv	-9615
▁Labor	-9616
▁Niger	-9617
▁blunt	-9618
▁conqu	-9619
▁craft	-9620
▁drone	-9621
▁genes	-9622
▁keeps	-9623
▁loose	-9624
▁outwe	-9625
▁slump	-9626
▁weigh	-9627
ariably	-9628
private	-9629
▁Franco	-9630
▁Refuge	-9631
▁analog	-9632
▁ballot	-9633
▁breast	-9634
▁eroded	-9635
▁excuse	-9636
▁fronts	-9637
▁handle	-9638
▁inward	-9639
▁overly	-9640
▁patent	-9641
▁soccer	-9642
▁sounds	-9643
▁vacuum	-9644
▁Kurdish	-9645
▁Michael	-9646
▁caution	-9647
▁clients	-9648
▁compare	-9649
▁dissent	-9650
▁malaise	-9651
▁monopol	-9652
▁obesity	-9653
▁reveals	-9654
▁tourism	-9655
▁unequal	-9656
▁Exchange	-9657
▁Franklin	-9658
▁assembly	-9659
▁entitled	-9660
▁imminent	-9661
▁maneuver	-9662
▁mathemat	-9663
▁opposing	-9664
▁receives	-9665
▁spectrum	-9666
▁Egyptians	-9667
▁assertive	-9668
▁democrats	-9669
▁depending	-9670
▁engineers	-9671
▁fostering	-9672
▁graduates	-9673
▁inconsist	-9674
▁indicator	-9675
▁insolvent	-9676
▁radically	-9677
▁reasoning	-9678
▁regulated	-9679
▁secretary	-9680
▁socialist	-9681
▁Ironically	-9682
▁comprising	-9683
▁enthusiasm	-9684
▁identities	-9685
▁infections	-9686
▁accommodate	-9687
▁bondholders	-9688
▁determining	-9689
▁exemplified	-9690
▁interaction	-9691
▁negotiation	-9692
▁deforestation	-9693
▁deteriorating	-9694
▁demonstrations	-9695
!”	-9696
EP	-9697
FS	-9698
iñ	-9699
ua	-9700
OMC	-9701
ahu	-9702
rol	-9703
uma	-9704
van	-9705
vol	-9706
arat	-9707
aste	-9708
eneg	-9709
euro	-9710
lose	-9711
mare	-9712
nedy	-9713
okyo	-9714
omic	-9715
ster	-9716
writ	-9717
▁-2.	-9718
▁Dal	-9719
▁Jim	-9720
▁Lad	-9721
▁Leg	-9722
▁Xin	-9723
▁Yas	-9724
▁civ	-9725
▁fre	-9726
▁hem	-9727
▁rid	-9728
▁vit	-9729
field	-9730
human	-9731
merce	-9732
organ	-9733
osion	-9734
urate	-9735
vedev	-9736
▁2030	-9737
▁Alex	-9738
▁Anti	-9739
▁Gene	-9740
▁WWII	-9741
▁grip	-9742
▁item	-9743
▁mild	-9744
▁unav	-9745
Palest	-9746
funded	-9747
school	-9748
ussein	-9749
▁Artic	-9750
▁Stock	-9751
▁Tokyo	-9752
▁Woods	-9753
▁judge	-9754
▁names	-9755
▁peril	-9756
▁prone	-9757
acities	-9758
▁Action	-9759
▁arrive	-9760
▁assass	-9761
▁cultiv	-9762
▁grants	-9763
▁locked	-9764
▁shrink	-9765
▁silent	-9766
▁Hussein	-9767
▁Kennedy	-9768
▁Koreans	-9769
▁bargain	-9770
▁beliefs	-9771
▁broaden	-9772
▁cholera	-9773
▁concess	-9774
▁conting	-9775
▁endorse	-9776
▁engines	-9777
▁erosion	-9778
▁holders	-9779
▁illustr	-9780
▁insight	-9781
▁journey	-9782
▁minutes	-9783
▁ordered	-9784
▁outsize	-9785
▁priorit	-9786
▁prudent	-9787
▁rethink	-9788
▁stalled	-9789
▁succumb	-9790
▁tempted	-9791
▁tougher	-9792
▁trapped	-9793
developed	-9794
▁Medvedev	-9795
▁affluent	-9796
▁attacked	-9797
▁backward	-9798
▁blocking	-9799
▁confined	-9800
▁formally	-9801
▁integral	-9802
▁invented	-9803
▁normally	-9804
▁opinions	-9805
▁packages	-9806
▁referred	-9807
▁tactical	-9808
▁traction	-9809
▁advocated	-9810
▁breakdown	-9811
▁mandatory	-9812
▁performed	-9813
▁proposing	-9814
▁realizing	-9815
▁sectarian	-9816
▁surprised	-9817
development	-9818
otechnology	-9819
▁attraction	-9820
▁blockchain	-9821
▁complaints	-9822
▁decisively	-9823
▁heightened	-9824
▁hurricanes	-9825
▁invariably	-9826
▁overlooked	-9827
▁respective	-9828
▁traditions	-9829
▁conclusions	-9830
▁philanthrop	-9831
▁revelations	-9832
▁underscores	-9833
▁marginalized	-9834
▁Administration	-9835
▁democratically	-9836
▁representation	-9837
RA	-9838
amm	-9839
epr	-9840
fty	-9841
iph	-9842
▁Br	-9843
▁nu	-9844
asty	-9845
bear	-9846
feld	-9847
lown	-9848
ques	-9849
wood	-9850
▁($1	-9851
▁75%	-9852
▁Hel	-9853
▁Red	-9854
▁Rou	-9855
▁tor	-9856
▁unh	-9857
▁vib	-9858
apons	-9859
eline	-9860
iracy	-9861
ullah	-9862
value	-9863
winds	-9864
▁1989	-9865
▁Alan	-9866
▁Gord	-9867
▁Move	-9868
▁Trad	-9869
▁Wars	-9870
▁aver	-9871
▁elig	-9872
▁flat	-9873
▁hate	-9874
▁hind	-9875
▁hire	-9876
▁1960’	-9877
▁2020,	-9878
▁Could	-9879
▁allev	-9880
▁avert	-9881
▁doors	-9882
▁farms	-9883
▁fruit	-9884
▁genoc	-9885
▁habit	-9886
▁intra	-9887
▁lifet	-9888
▁likes	-9889
▁mired	-9890
▁monet	-9891
▁named	-9892
▁ports	-9893
▁radio	-9894
▁rigor	-9895
▁roots	-9896
▁spoke	-9897
▁upper	-9898
levance	-9899
umbling	-9900
▁Senkak	-9901
▁benign	-9902
▁demise	-9903
▁devise	-9904
▁drives	-9905
▁rememb	-9906
▁seized	-9907
▁thinks	-9908
balanced	-9909
▁Alibaba	-9910
▁Digital	-9911
▁History	-9912
▁Romania	-9913
▁assured	-9914
▁condemn	-9915
▁consent	-9916
▁contact	-9917
▁ensuing	-9918
▁episode	-9919
▁evasion	-9920
▁fleeing	-9921
▁flowing	-9922
▁metrics	-9923
▁mindset	-9924
▁revised	-9925
▁settled	-9926
▁solving	-9927
▁spreads	-9928
▁Interest	-9929
▁Politics	-9930
▁advisers	-9931
▁consumed	-9932
▁defenses	-9933
▁determin	-9934
▁friendly	-9935
▁presents	-9936
▁selected	-9937
▁symbolic	-9938
employment	-9939
▁assessing	-9940
▁entertain	-9941
▁historian	-9942
▁offensive	-9943
▁accessible	-9944
▁anticipate	-9945
▁bargaining	-9946
▁developers	-9947
▁disturbing	-9948
▁encourages	-9949
▁insolvency	-9950
▁ministries	-9951
▁proclaimed	-9952
▁reportedly	-9953
▁superpower	-9954
▁supplement	-9955
▁turbulence	-9956
▁businessmen	-9957
▁complacency	-9958
▁contributes	-9959
▁incremental	-9960
▁probability	-9961
▁projections	-9962
▁theoretical	-9963
▁conversation	-9964
▁displacement	-9965
▁longstanding	-9966
▁conservatives	-9967
▁strategically	-9968
▁uncertainties	-9969
Cs	-9970
mas	-9971
nov	-9972
abao	-9973
aine	-9974
awat	-9975
case	-9976
cile	-9977
hist	-9978
namo	-9979
rend	-9980
resa	-9981
riad	-9982
uled	-9983
ulum	-9984
umes	-9985
umin	-9986
▁CIA	-9987
▁Fuk	-9988
▁Mat	-9989
▁Mem	-9990
▁Mic	-9991
▁Put	-9992
▁Six	-9993
▁jun	-9994
▁nan	-9995
▁nic	-9996
▁pes	-9997
▁pin	-9998
borne	-9999
endas	-10000
igher	-10001
uties	-10002
ánamo	-10003
▁Budd	-10004
▁CEOs	-10005
▁Gore	-10006
▁Land	-10007
▁Mont	-10008
▁Tian	-10009
▁Zeal	-10010
▁aged	-10011
▁airc	-10012
▁club	-10013
▁cush	-10014
▁empt	-10015
▁leap	-10016
▁loud	-10017
▁mini	-10018
anyahu	-10019
comers	-10020
elfare	-10021
ieving	-10022
public	-10023
supply	-10024
uously	-10025
vation	-10026
wealth	-10027
▁2005.	-10028
▁Armen	-10029
▁Haiti	-10030
▁Large	-10031
▁array	-10032
▁boast	-10033
▁drain	-10034
▁fines	-10035
▁fires	-10036
▁fract	-10037
▁inaug	-10038
▁touch	-10039
▁vague	-10040
▁veget	-10041
Western	-10042
athered	-10043
riminal	-10044
service	-10045
▁10,000	-10046
▁Jiabao	-10047
▁Stalin	-10048
▁Vienna	-10049
▁Warren	-10050
▁desert	-10051
▁doctor	-10052
▁electr	-10053
▁habits	-10054
▁harass	-10055
▁lacked	-10056
▁myriad	-10057
▁ratify	-10058
▁strain	-10059
▁winter	-10060
▁Poverty	-10061
▁Qaddafi	-10062
▁Theresa	-10063
▁Zealand	-10064
▁agendas	-10065
▁bearing	-10066
▁divorce	-10067
▁enlight	-10068
▁exagger	-10069
▁formula	-10070
▁handful	-10071
▁portion	-10072
▁removal	-10073
▁strange	-10074
▁western	-10075
▁Einstein	-10076
▁Iranians	-10077
▁aircraft	-10078
▁applying	-10079
▁backdrop	-10080
▁clinical	-10081
▁contains	-10082
▁contempl	-10083
▁excesses	-10084
▁headline	-10085
▁imagined	-10086
▁mistrust	-10087
▁partisan	-10088
▁ratified	-10089
▁revision	-10090
▁scarcity	-10091
▁sweeping	-10092
▁universe	-10093
ologically	-10094
▁Investors	-10095
▁Netanyahu	-10096
▁allegedly	-10097
▁certainty	-10098
▁contribut	-10099
▁describes	-10100
▁discourse	-10101
▁forgotten	-10102
▁injustice	-10103
▁reconcile	-10104
▁replacing	-10105
▁restraint	-10106
▁stalemate	-10107
▁tolerance	-10108
▁discourage	-10109
▁emphasizes	-10110
▁frustrated	-10111
▁suspicious	-10112
▁composition	-10113
▁discredited	-10114
▁residential	-10115
▁Independence	-10116
▁irreversible	-10117
▁approximately	-10118
▁exceptionally	-10119
▁justification	-10120
ET	-10121
FA	-10122
UL	-10123
ey	-10124
apt	-10125
big	-10126
fit	-10127
net	-10128
pts	-10129
unc	-10130
▁9.	-10131
▁CP	-10132
▁Ki	-10133
clos	-10134
erry	-10135
hips	-10136
nard	-10137
ohol	-10138
ourg	-10139
uras	-10140
▁12%	-10141
▁Dem	-10142
▁Ins	-10143
World	-10144
aksin	-10145
arted	-10146
ierra	-10147
licop	-10148
pered	-10149
phone	-10150
▁1998	-10151
▁Area	-10152
▁Mark	-10153
▁Open	-10154
▁Rest	-10155
▁clar	-10156
▁coff	-10157
▁cron	-10158
▁issu	-10159
▁maln	-10160
▁obsc	-10161
Soviet	-10162
dollar	-10163
elsius	-10164
eville	-10165
idable	-10166
ieties	-10167
▁Brown	-10168
▁Moral	-10169
▁bases	-10170
▁color	-10171
▁dirty	-10172
▁embod	-10173
▁feels	-10174
▁games	-10175
▁guess	-10176
▁incap	-10177
▁intim	-10178
▁patri	-10179
▁reaff	-10180
▁spike	-10181
defined	-10182
iversal	-10183
keeping	-10184
lovakia	-10185
ologist	-10186
onymous	-10187
▁Gaulle	-10188
▁Romney	-10189
▁Sierra	-10190
▁Thanks	-10191
▁adhere	-10192
▁attain	-10193
▁hazard	-10194
▁hoping	-10195
▁oldest	-10196
▁plunge	-10197
▁scores	-10198
▁square	-10199
▁traded	-10200
▁underg	-10201
resolved	-10202
▁Indians	-10203
▁Liberia	-10204
▁Maynard	-10205
▁Nothing	-10206
▁Senkaku	-10207
▁arsenal	-10208
▁despair	-10209
▁knowing	-10210
▁lifting	-10211
▁miracle	-10212
▁partial	-10213
▁propose	-10214
▁studied	-10215
▁vibrant	-10216
immigrant	-10217
izational	-10218
▁Eurozone	-10219
▁Movement	-10220
▁allocate	-10221
▁appetite	-10222
▁favorite	-10223
▁feedback	-10224
▁linkages	-10225
▁outweigh	-10226
▁persists	-10227
▁preoccup	-10228
▁printing	-10229
▁republic	-10230
▁respects	-10231
▁scandals	-10232
▁signaled	-10233
▁strictly	-10234
▁tangible	-10235
▁tolerate	-10236
▁violated	-10237
▁arbitrary	-10238
▁considers	-10239
▁exhausted	-10240
▁footprint	-10241
▁inherited	-10242
▁scientist	-10243
▁suspected	-10244
▁witnessed	-10245
▁Australian	-10246
▁Guantánamo	-10247
▁destroying	-10248
▁enthusiast	-10249
▁overcoming	-10250
▁reconsider	-10251
▁remembered	-10252
▁restricted	-10253
▁unintended	-10254
▁Agriculture	-10255
▁Politicians	-10256
▁concessions	-10257
▁constitutes	-10258
▁respondents	-10259
▁restricting	-10260
▁shareholder	-10261
▁trafficking	-10262
▁domestically	-10263
▁explanations	-10264
▁demonstrating	-10265
▁profitability	-10266
▁interdependence	-10267
bel	-10268
bán	-10269
erg	-10270
ikh	-10271
obs	-10272
omy	-10273
ped	-10274
too	-10275
▁Ox	-10276
atah	-10277
olly	-10278
tics	-10279
uepr	-10280
will	-10281
▁$20	-10282
▁-3.	-10283
▁Ice	-10284
▁MIT	-10285
▁Old	-10286
▁WHO	-10287
abric	-10288
after	-10289
asure	-10290
board	-10291
eling	-10292
great	-10293
icago	-10294
ivial	-10295
jiang	-10296
orbyn	-10297
rafat	-10298
▁Bulg	-10299
▁Kenn	-10300
▁Shar	-10301
▁ampl	-10302
▁belt	-10303
▁crus	-10304
▁dams	-10305
▁dual	-10306
▁impe	-10307
▁mant	-10308
▁pund	-10309
▁reun	-10310
▁shed	-10311
▁thin	-10312
arrass	-10313
oughly	-10314
usalem	-10315
▁1997,	-10316
▁Abbas	-10317
▁Alban	-10318
▁Fatah	-10319
▁Moham	-10320
▁coerc	-10321
▁fatal	-10322
▁socio	-10323
▁spear	-10324
▁swing	-10325
arshall	-10326
artisan	-10327
ication	-10328
liberal	-10329
ologies	-10330
▁Geneva	-10331
▁Martin	-10332
▁Nearly	-10333
▁bitter	-10334
▁debtor	-10335
▁exempt	-10336
▁fierce	-10337
▁genome	-10338
▁hiring	-10339
▁hybrid	-10340
▁massac	-10341
▁nobody	-10342
▁prolif	-10343
▁season	-10344
▁strang	-10345
▁worsen	-10346
▁Celsius	-10347
▁Earlier	-10348
▁Tobacco	-10349
▁alcohol	-10350
▁charism	-10351
▁clarity	-10352
▁cleaner	-10353
▁coupled	-10354
▁denying	-10355
▁depress	-10356
▁elusive	-10357
▁fiction	-10358
▁hardest	-10359
▁interim	-10360
▁outlets	-10361
▁sitting	-10362
▁unusual	-10363
reduction	-10364
ternative	-10365
▁Austrian	-10366
▁Official	-10367
▁abundant	-10368
▁covering	-10369
▁evolving	-10370
▁exporter	-10371
▁obtained	-10372
▁officers	-10373
▁outdated	-10374
▁prevents	-10375
▁refusing	-10376
▁renegoti	-10377
▁segments	-10378
▁sentence	-10379
▁standoff	-10380
▁Eurobonds	-10381
▁Mechanism	-10382
▁Obviously	-10383
▁attacking	-10384
▁explosion	-10385
▁formation	-10386
▁hostility	-10387
▁impending	-10388
▁qualified	-10389
▁struggled	-10390
▁withdrawn	-10391
▁withstand	-10392
▁autocratic	-10393
▁compliance	-10394
▁compounded	-10395
▁conviction	-10396
▁diagnostic	-10397
▁disorderly	-10398
▁formidable	-10399
▁privileged	-10400
▁profoundly	-10401
▁psychology	-10402
▁remarkably	-10403
▁substitute	-10404
▁succession	-10405
▁distinction	-10406
▁forecasting	-10407
▁identifying	-10408
▁proposition	-10409
▁publication	-10410
▁underground	-10411
proliferation	-10412
▁exploitation	-10413
▁inequalities	-10414
▁manufactured	-10415
▁subsequently	-10416
▁Conservatives	-10417
▁consequential	-10418
▁decentralized	-10419
▁participating	-10420
BM	-10421
”?	-10422
▁£	-10423
MEs	-10424
aur	-10425
dep	-10426
▁Du	-10427
away	-10428
chen	-10429
grid	-10430
ilip	-10431
inav	-10432
sett	-10433
uble	-10434
▁16%	-10435
▁45%	-10436
▁Cit	-10437
▁Com	-10438
▁ICT	-10439
▁Imm	-10440
▁Low	-10441
▁Pat	-10442
▁Zed	-10443
▁flu	-10444
▁mir	-10445
▁van	-10446
agine	-10447
athan	-10448
blown	-10449
eches	-10450
fuels	-10451
group	-10452
isite	-10453
oline	-10454
rians	-10455
richt	-10456
track	-10457
vable	-10458
▁100%	-10459
▁Fail	-10460
▁auto	-10461
▁bets	-10462
▁blog	-10463
▁hung	-10464
▁mudd	-10465
▁rush	-10466
▁unth	-10467
▁warn	-10468
German	-10469
ensity	-10470
ibbean	-10471
licate	-10472
ournal	-10473
risome	-10474
▁2007.	-10475
▁Black	-10476
▁Henry	-10477
▁Leone	-10478
▁Maast	-10479
▁Orbán	-10480
▁Scand	-10481
▁award	-10482
▁beaut	-10483
▁bleak	-10484
▁borne	-10485
▁catal	-10486
▁civic	-10487
▁crude	-10488
▁drops	-10489
▁erode	-10490
▁greed	-10491
▁irrig	-10492
▁recyc	-10493
▁rests	-10494
▁stick	-10495
arching	-10496
uration	-10497
▁Corbyn	-10498
▁Gordon	-10499
▁Michel	-10500
▁Santos	-10501
▁affair	-10502
▁bluepr	-10503
▁culmin	-10504
▁entity	-10505
▁guided	-10506
▁hearts	-10507
▁luxury	-10508
▁potent	-10509
▁provoc	-10510
▁regret	-10511
▁squand	-10512
▁stages	-10513
▁unreal	-10514
▁Article	-10515
▁Between	-10516
▁Britons	-10517
▁Moldova	-10518
▁Society	-10519
▁Swedish	-10520
▁Tibetan	-10521
▁appeals	-10522
▁cancers	-10523
▁credits	-10524
▁emerges	-10525
▁illicit	-10526
▁passion	-10527
▁talents	-10528
▁unravel	-10529
dependent	-10530
prisingly	-10531
rudential	-10532
▁Building	-10533
▁Canadian	-10534
▁Recently	-10535
▁attended	-10536
▁bacteria	-10537
▁emission	-10538
▁enforced	-10539
▁exceeded	-10540
▁feelings	-10541
▁floating	-10542
▁gasoline	-10543
▁literacy	-10544
▁occupied	-10545
▁operates	-10546
▁overhang	-10547
▁pipeline	-10548
▁pointing	-10549
▁preceded	-10550
▁reformed	-10551
▁stations	-10552
▁stunning	-10553
especially	-10554
▁Caribbean	-10555
▁Catalonia	-10556
▁Jerusalem	-10557
▁Scandinav	-10558
▁academics	-10559
▁ballistic	-10560
▁broadband	-10561
▁deploying	-10562
▁fragility	-10563
▁headwinds	-10564
▁launching	-10565
▁marketing	-10566
▁recipient	-10567
▁trillions	-10568
▁worrisome	-10569
▁Maastricht	-10570
▁accumulate	-10571
▁advocating	-10572
▁bipartisan	-10573
▁capitalize	-10574
▁groundwork	-10575
▁indicating	-10576
▁innovators	-10577
▁journalism	-10578
▁liberalism	-10579
▁mitigation	-10580
▁reflection	-10581
▁coefficient	-10582
▁concentrate	-10583
▁conferences	-10584
▁correlation	-10585
▁elimination	-10586
▁emphasizing	-10587
▁forthcoming	-10588
▁humiliation	-10589
▁perceptions	-10590
▁philosopher	-10591
▁stimulating	-10592
▁calculations	-10593
▁interactions	-10594
▁collaborative	-10595
▁Representative	-10596
▁disinformation	-10597
▁democratization	-10598
▁experimentation	-10599
-8	-10600
YO	-10601
hy	-10602
su	-10603
zy	-10604
▁¥	-10605
200	-10606
FTA	-10607
Pro	-10608
TIA	-10609
UNI	-10610
agh	-10611
dis	-10612
oha	-10613
rah	-10614
▁$9	-10615
▁90	-10616
▁Bu	-10617
▁Pu	-10618
OKYO	-10619
arth	-10620
inea	-10621
iors	-10622
obyl	-10623
rock	-10624
▁$40	-10625
▁DNA	-10626
▁Def	-10627
▁Ecu	-10628
▁Jac	-10629
▁Kyi	-10630
▁Suu	-10631
▁cri	-10632
▁hus	-10633
▁lev	-10634
▁mel	-10635
▁pit	-10636
▁rot	-10637
Islam	-10638
TIAGO	-10639
isive	-10640
reach	-10641
▁Drug	-10642
▁Fram	-10643
▁Lula	-10644
▁Nord	-10645
▁Soon	-10646
▁Thai	-10647
▁echo	-10648
▁elev	-10649
▁intu	-10650
▁ride	-10651
▁ring	-10652
▁tant	-10653
▁woes	-10654
hengen	-10655
ourish	-10656
people	-10657
ppling	-10658
ulture	-10659
▁1989,	-10660
▁1990,	-10661
▁2001.	-10662
▁Maybe	-10663
▁Scott	-10664
▁Smith	-10665
▁TOKYO	-10666
▁cruel	-10667
▁digit	-10668
▁frict	-10669
▁grass	-10670
▁naval	-10671
▁throw	-10672
▁tyran	-10673
America	-10674
changed	-10675
irected	-10676
looking	-10677
▁Arafat	-10678
▁anyway	-10679
▁expose	-10680
▁fabric	-10681
▁fright	-10682
▁incurs	-10683
▁influx	-10684
▁lethal	-10685
▁listed	-10686
▁mining	-10687
▁misman	-10688
▁poison	-10689
▁quotas	-10690
▁safely	-10691
▁sensit	-10692
▁string	-10693
▁tribal	-10694
hernobyl	-10695
▁Belgium	-10696
▁Challen	-10697
▁Chicago	-10698
▁Private	-10699
▁Thaksin	-10700
▁adviser	-10701
▁compass	-10702
▁discern	-10703
▁educate	-10704
▁examine	-10705
▁explore	-10706
▁extract	-10707
▁helpful	-10708
▁install	-10709
▁intimid	-10710
▁invited	-10711
▁millenn	-10712
▁mothers	-10713
▁physics	-10714
▁plagued	-10715
▁shorter	-10716
▁totally	-10717
▁traffic	-10718
▁trivial	-10719
▁watched	-10720
▁SANTIAGO	-10721
▁Schengen	-10722
▁deserves	-10723
▁discount	-10724
▁navigate	-10725
▁plastics	-10726
▁prevails	-10727
▁skeptics	-10728
▁speeches	-10729
▁suppress	-10730
▁symptoms	-10731
▁believing	-10732
▁broadcast	-10733
▁celebrate	-10734
▁champions	-10735
▁channeled	-10736
▁embarrass	-10737
▁exceeding	-10738
▁extension	-10739
▁forefront	-10740
▁frequency	-10741
▁newcomers	-10742
▁nightmare	-10743
▁penalties	-10744
▁permitted	-10745
▁privately	-10746
▁struggles	-10747
▁autonomous	-10748
▁continuous	-10749
▁disposable	-10750
▁divergence	-10751
▁exceptions	-10752
▁influenced	-10753
▁inherently	-10754
▁journalist	-10755
▁manageable	-10756
▁originally	-10757
▁philosophy	-10758
▁technocrats	-10759
▁transitions	-10760
▁undertaking	-10761
▁accomplished	-10762
▁disagreement	-10763
▁perspectives	-10764
▁prescription	-10765
▁beneficiaries	-10766
▁clearinghouse	-10767
▁reconstruction	-10768
▁redistribution	-10769
.,	-10770
PR	-10771
bl	-10772
ka	-10773
ta	-10774
LAN	-10775
ara	-10776
oca	-10777
pre	-10778
xon	-10779
▁65	-10780
▁9%	-10781
Chin	-10782
disc	-10783
isms	-10784
lass	-10785
lege	-10786
lers	-10787
moon	-10788
▁2.5	-10789
▁COP	-10790
▁EEA	-10791
▁Mur	-10792
▁Ris	-10793
▁Row	-10794
UNICH	-10795
acies	-10796
anium	-10797
atist	-10798
aucas	-10799
inery	-10800
oston	-10801
otine	-10802
ouses	-10803
produ	-10804
rants	-10805
▁Conc	-10806
▁Doha	-10807
▁Draw	-10808
▁Jong	-10809
▁Kash	-10810
▁News	-10811
▁Rica	-10812
▁TTIP	-10813
▁bell	-10814
▁cert	-10815
▁fled	-10816
▁gest	-10817
▁hurd	-10818
▁nurs	-10819
▁puzz	-10820
▁smok	-10821
▁vind	-10822
anship	-10823
esbank	-10824
headed	-10825
inians	-10826
seless	-10827
target	-10828
▁2006.	-10829
▁Exxon	-10830
▁Fifth	-10831
▁Techn	-10832
▁bless	-10833
▁booms	-10834
▁brave	-10835
▁defer	-10836
▁deple	-10837
▁effic	-10838
▁empty	-10839
▁fever	-10840
▁globe	-10841
▁infer	-10842
▁knock	-10843
▁movie	-10844
▁overe	-10845
▁prize	-10846
▁subdu	-10847
▁trick	-10848
▁unite	-10849
Chinese	-10850
comfort	-10851
raining	-10852
tenance	-10853
▁Boston	-10854
▁Empire	-10855
▁MUNICH	-10856
▁Manuel	-10857
▁Modern	-10858
▁ancest	-10859
▁conced	-10860
▁contam	-10861
▁convey	-10862
▁deputy	-10863
▁favors	-10864
▁firing	-10865
▁ideals	-10866
▁lasted	-10867
▁lesser	-10868
▁panels	-10869
▁plight	-10870
▁prejud	-10871
▁ranked	-10872
▁recipe	-10873
▁spoken	-10874
▁thrown	-10875
▁triple	-10876
▁wasted	-10877
▁wholes	-10878
▁wouldn	-10879
Semitism	-10880
curement	-10881
financed	-10882
icrobial	-10883
▁Academy	-10884
▁Drawing	-10885
▁Ecuador	-10886
▁Equally	-10887
▁Goldman	-10888
▁Snowden	-10889
▁antagon	-10890
▁bipolar	-10891
▁contend	-10892
▁council	-10893
▁ensures	-10894
▁fallout	-10895
▁footing	-10896
▁lagging	-10897
▁monthly	-10898
▁optimal	-10899
▁pundits	-10900
▁rampant	-10901
▁tighten	-10902
▁transit	-10903
▁uranium	-10904
▁Democrat	-10905
▁Medicare	-10906
▁Southern	-10907
▁centrist	-10908
▁decrease	-10909
▁emotions	-10910
▁evaluate	-10911
▁guerrill	-10912
▁incident	-10913
▁lifetime	-10914
▁missions	-10915
▁moreover	-10916
▁shocking	-10917
▁spurring	-10918
▁teaching	-10919
▁upheaval	-10920
▁2008-2009	-10921
▁Inflation	-10922
▁Microsoft	-10923
▁Northeast	-10924
▁autocrats	-10925
▁automated	-10926
▁balancing	-10927
▁budgetary	-10928
▁confronts	-10929
▁demograph	-10930
▁distorted	-10931
▁documents	-10932
▁empowered	-10933
▁ignorance	-10934
▁insisting	-10935
▁languages	-10936
▁operators	-10937
▁overthrow	-10938
▁rationale	-10939
▁reformers	-10940
▁schooling	-10941
▁somewhere	-10942
▁unchanged	-10943
▁capacities	-10944
▁committing	-10945
▁explaining	-10946
▁fertilizer	-10947
▁insistence	-10948
▁insurgency	-10949
▁manipulate	-10950
▁predicting	-10951
▁prediction	-10952
▁reinforces	-10953
▁repressive	-10954
▁skepticism	-10955
▁unresolved	-10956
▁accusations	-10957
▁controversy	-10958
▁enlightened	-10959
▁imagination	-10960
▁implication	-10961
▁macroeconom	-10962
▁manufacture	-10963
▁materialize	-10964
▁prohibition	-10965
▁prosecutors	-10966
▁understands	-10967
▁Historically	-10968
▁underpinning	-10969
▁predominantly	-10970
15	-10971
ST	-10972
ki	-10973
▁i	-10974
PEC	-10975
ads	-10976
avi	-10977
awn	-10978
elf	-10979
igl	-10980
mod	-10981
ora	-10982
oup	-10983
ras	-10984
who	-10985
▁MP	-10986
aved	-10987
avor	-10988
eded	-10989
enei	-10990
igil	-10991
perc	-10992
seen	-10993
▁1.3	-10994
▁AKP	-10995
▁Eff	-10996
▁Nat	-10997
▁aro	-10998
▁awa	-10999
▁bus	-11000
▁cig	-11001
anged	-11002
atell	-11003
itous	-11004
peror	-11005
yield	-11006
▁1.5%	-11007
▁Data	-11008
▁Home	-11009
▁Kham	-11010
▁Less	-11011
▁Mult	-11012
▁Norm	-11013
▁Stan	-11014
▁akin	-11015
▁band	-11016
▁gift	-11017
▁laud	-11018
▁ling	-11019
▁nerv	-11020
▁plot	-11021
▁shel	-11022
▁urge	-11023
ankind	-11024
enable	-11025
ferent	-11026
fiscal	-11027
▁2,000	-11028
▁About	-11029
▁Parad	-11030
▁Royal	-11031
▁Using	-11032
▁centr	-11033
▁enshr	-11034
▁magic	-11035
▁peers	-11036
▁score	-11037
▁smugg	-11038
▁tanks	-11039
▁tries	-11040
▁units	-11041
aucasus	-11042
enomics	-11043
finance	-11044
inkable	-11045
ulatory	-11046
ussions	-11047
▁Budget	-11048
▁Compet	-11049
▁Madrid	-11050
▁Prince	-11051
▁burned	-11052
▁cement	-11053
▁devote	-11054
▁fixing	-11055
▁insult	-11056
▁native	-11057
▁nomine	-11058
▁orders	-11059
▁ostens	-11060
▁outset	-11061
▁reserv	-11062
▁stores	-11063
▁storms	-11064
▁wishes	-11065
entially	-11066
illusion	-11067
ructural	-11068
▁Bolivia	-11069
▁Imagine	-11070
▁Journal	-11071
▁Mohamed	-11072
▁Wilders	-11073
▁arrival	-11074
▁careers	-11075
▁hearing	-11076
▁helicop	-11077
▁inhabit	-11078
▁manager	-11079
▁maximum	-11080
▁militar	-11081
▁motives	-11082
▁oversee	-11083
▁pockets	-11084
▁prostit	-11085
▁refrain	-11086
▁renewal	-11087
▁rewards	-11088
▁stepped	-11089
▁surging	-11090
▁trusted	-11091
regulated	-11092
▁Khamenei	-11093
▁Olympics	-11094
▁Rousseff	-11095
▁activism	-11096
▁gathered	-11097
▁genocide	-11098
▁initiate	-11099
▁memories	-11100
▁mistaken	-11101
▁misunder	-11102
▁perceive	-11103
▁protocol	-11104
▁reviving	-11105
▁thriving	-11106
▁Chernobyl	-11107
▁Christmas	-11108
▁amounting	-11109
▁collected	-11110
▁epidemics	-11111
▁excellent	-11112
▁fisheries	-11113
▁immigrant	-11114
▁machinery	-11115
▁mentioned	-11116
▁orthodoxy	-11117
▁suspended	-11118
▁tightened	-11119
engineering	-11120
▁Ukrainians	-11121
▁accurately	-11122
▁calculated	-11123
▁coalitions	-11124
▁deliberate	-11125
▁depreciate	-11126
▁militarily	-11127
▁positioned	-11128
▁registered	-11129
▁safeguards	-11130
▁sentiments	-11131
▁shortfalls	-11132
▁witnessing	-11133
▁disappeared	-11134
▁empowerment	-11135
▁legislators	-11136
▁limitations	-11137
▁maintenance	-11138
▁occupations	-11139
▁procurement	-11140
▁disadvantage	-11141
▁complementary	-11142
▁intellectuals	-11143
▁organizational	-11144
▁entrepreneurial	-11145
45	-11146
ID	-11147
POR	-11148
ald	-11149
ali	-11150
asi	-11151
bar	-11152
bes	-11153
bur	-11154
cep	-11155
ika	-11156
kew	-11157
onn	-11158
uts	-11159
vin	-11160
yip	-11161
zai	-11162
▁Dr	-11163
▁NP	-11164
ilty	-11165
inge	-11166
keep	-11167
last	-11168
mail	-11169
obil	-11170
oung	-11171
unta	-11172
west	-11173
▁17%	-11174
▁Ash	-11175
▁FTA	-11176
▁Lag	-11177
▁Nap	-11178
▁ODA	-11179
▁Raj	-11180
▁Ret	-11181
▁Tar	-11182
▁fur	-11183
▁lik	-11184
▁mad	-11185
▁odd	-11186
▁rej	-11187
▁sad	-11188
▁sli	-11189
▁voc	-11190
Afric	-11191
aping	-11192
cular	-11193
erval	-11194
itant	-11195
ppled	-11196
▁0.5%	-11197
▁2050	-11198
▁Bhut	-11199
▁Care	-11200
▁Crit	-11201
▁Ever	-11202
▁FOMC	-11203
▁Mahm	-11204
▁Mali	-11205
▁Need	-11206
▁Prop	-11207
▁Resp	-11208
▁dose	-11209
▁fish	-11210
▁king	-11211
▁myst	-11212
▁obso	-11213
▁twin	-11214
arming	-11215
fueled	-11216
member	-11217
utable	-11218
▁2000.	-11219
▁2050.	-11220
▁Cairo	-11221
▁Event	-11222
▁Recep	-11223
▁chart	-11224
▁floor	-11225
▁hypoc	-11226
▁lofty	-11227
▁metap	-11228
▁proof	-11229
▁reson	-11230
▁rever	-11231
▁scene	-11232
▁slack	-11233
▁swaps	-11234
▁tumor	-11235
▁vigil	-11236
ersonal	-11237
limited	-11238
profile	-11239
weapons	-11240
▁Baltic	-11241
▁Calder	-11242
▁Guinea	-11243
▁Scient	-11244
▁Tayyip	-11245
▁absurd	-11246
▁beings	-11247
▁cataly	-11248
▁compel	-11249
▁doomed	-11250
▁laying	-11251
▁marine	-11252
▁miscon	-11253
▁player	-11254
▁pollut	-11255
▁proves	-11256
▁rebels	-11257
▁reperc	-11258
▁revolt	-11259
▁satell	-11260
▁shield	-11261
▁sports	-11262
▁suited	-11263
▁swings	-11264
▁switch	-11265
▁tenure	-11266
▁upside	-11267
▁College	-11268
▁Failure	-11269
▁Iceland	-11270
▁Rowhani	-11271
▁barrier	-11272
▁clearer	-11273
▁counted	-11274
▁culprit	-11275
▁curbing	-11276
▁curtail	-11277
▁cushion	-11278
▁essence	-11279
▁forming	-11280
▁ignores	-11281
▁imposes	-11282
▁letting	-11283
▁morning	-11284
▁nervous	-11285
▁picking	-11286
▁rebound	-11287
▁revived	-11288
▁rivalry	-11289
▁staying	-11290
▁subdued	-11291
▁symptom	-11292
▁unavoid	-11293
▁visions	-11294
▁Caucasus	-11295
▁Children	-11296
▁Contrary	-11297
▁Marshall	-11298
▁Ministry	-11299
▁daughter	-11300
▁doubling	-11301
▁engineer	-11302
▁executed	-11303
▁grouping	-11304
▁heritage	-11305
▁incompet	-11306
▁narrowly	-11307
▁nicotine	-11308
▁obsolete	-11309
▁oligarch	-11310
▁prescrib	-11311
▁proposes	-11312
▁underval	-11313
▁accompany	-11314
▁admission	-11315
▁capturing	-11316
▁confusion	-11317
▁constrain	-11318
▁correctly	-11319
▁defensive	-11320
▁generates	-11321
▁incapable	-11322
▁leveraged	-11323
▁outbreaks	-11324
▁radiation	-11325
▁resistant	-11326
▁statehood	-11327
▁surpassed	-11328
▁containing	-11329
▁convenient	-11330
▁dependency	-11331
▁portfolios	-11332
▁regulating	-11333
▁separation	-11334
▁Alternative	-11335
▁destination	-11336
▁disillusion	-11337
▁eradication	-11338
▁illustrates	-11339
▁imperatives	-11340
▁persecution	-11341
▁realization	-11342
▁resignation	-11343
▁Transatlantic	-11344
▁accommodation	-11345
▁unfortunately	-11346
▁multilateralism	-11347
GF	-11348
IR	-11349
QE	-11350
SB	-11351
ano	-11352
dem	-11353
ota	-11354
rev	-11355
zen	-11356
▁AN	-11357
▁CT	-11358
▁PI	-11359
▁ax	-11360
▁et	-11361
appy	-11362
hrop	-11363
idal	-11364
irac	-11365
risy	-11366
▁1.2	-11367
▁204	-11368
▁FBI	-11369
▁Hur	-11370
▁Kur	-11371
▁Lux	-11372
▁Min	-11373
▁rum	-11374
▁sat	-11375
5,000	-11376
ework	-11377
iably	-11378
icked	-11379
illon	-11380
inked	-11381
izens	-11382
month	-11383
vigor	-11384
▁$300	-11385
▁Dise	-11386
▁Gand	-11387
▁Hiro	-11388
▁Mand	-11389
▁NCDs	-11390
▁Prad	-11391
▁Stat	-11392
▁blue	-11393
▁dust	-11394
▁epic	-11395
▁phot	-11396
▁ruth	-11397
▁ship	-11398
▁swap	-11399
▁tear	-11400
▁webs	-11401
acious	-11402
anches	-11403
etting	-11404
export	-11405
handed	-11406
itated	-11407
ivable	-11408
normal	-11409
ranted	-11410
reason	-11411
reated	-11412
social	-11413
terror	-11414
▁1991,	-11415
▁Annan	-11416
▁Antar	-11417
▁Guang	-11418
▁Impro	-11419
▁Money	-11420
▁bombs	-11421
▁bread	-11422
▁error	-11423
▁junta	-11424
▁lobby	-11425
▁pages	-11426
▁realm	-11427
▁reign	-11428
▁sched	-11429
▁scram	-11430
▁spark	-11431
▁swept	-11432
▁voter	-11433
achment	-11434
attered	-11435
herence	-11436
ometers	-11437
ourcing	-11438
ropical	-11439
▁Around	-11440
▁Credit	-11441
▁League	-11442
▁Zedong	-11443
▁batter	-11444
▁breaks	-11445
▁buyers	-11446
▁diabet	-11447
▁duties	-11448
▁guilty	-11449
▁jumped	-11450
▁overhe	-11451
▁subtle	-11452
▁surrog	-11453
▁writer	-11454
ceptible	-11455
commerce	-11456
ourished	-11457
secutive	-11458
▁Overall	-11459
▁Pradesh	-11460
▁Service	-11461
▁Studies	-11462
▁Syrians	-11463
▁cocaine	-11464
▁convict	-11465
▁courses	-11466
▁crossed	-11467
▁debated	-11468
▁durable	-11469
▁guiding	-11470
▁nominee	-11471
▁overdue	-11472
▁payroll	-11473
▁reaches	-11474
▁refuses	-11475
▁seekers	-11476
▁specter	-11477
▁undergo	-11478
olidarity	-11479
political	-11480
▁Calderón	-11481
▁Intellig	-11482
▁Xinjiang	-11483
▁abstract	-11484
▁activist	-11485
▁adapting	-11486
▁agreeing	-11487
▁aversion	-11488
▁deciding	-11489
▁examined	-11490
▁exported	-11491
▁farmland	-11492
▁fighters	-11493
▁football	-11494
▁illusion	-11495
▁instruct	-11496
▁maternal	-11497
▁opponent	-11498
▁organize	-11499
▁reassure	-11500
▁rendered	-11501
▁settings	-11502
imicrobial	-11503
▁Economist	-11504
▁analytics	-11505
▁conscious	-11506
▁diversify	-11507
▁geography	-11508
▁governors	-11509
▁illnesses	-11510
▁necessity	-11511
▁outsiders	-11512
▁pessimism	-11513
▁regulator	-11514
▁relevance	-11515
▁reversing	-11516
▁socialism	-11517
▁violation	-11518
competitive	-11519
▁absolutely	-11520
▁ambassador	-11521
▁categories	-11522
▁delegation	-11523
▁disclosure	-11524
▁disconnect	-11525
▁performing	-11526
▁privileges	-11527
▁supportive	-11528
▁systematic	-11529
▁adversaries	-11530
▁calculation	-11531
▁consecutive	-11532
▁signatories	-11533
▁unthinkable	-11534
▁vaccination	-11535
establishment	-11536
▁environments	-11537
▁tuberculosis	-11538
▁repercussions	-11539
LO	-11540
WF	-11541
You	-11542
ala	-11543
but	-11544
irt	-11545
lan	-11546
rey	-11547
▁Da	-11548
▁Ts	-11549
▁VI	-11550
ESCO	-11551
airy	-11552
ecut	-11553
edge	-11554
erto	-11555
icks	-11556
pace	-11557
prom	-11558
raid	-11559
sche	-11560
ship	-11561
tion	-11562
▁24%	-11563
▁400	-11564
▁Has	-11565
▁Hay	-11566
▁Moz	-11567
▁Ram	-11568
▁Rio	-11569
▁Was	-11570
▁dat	-11571
▁luc	-11572
▁mos	-11573
▁rub	-11574
▁tie	-11575
▁ves	-11576
Qaeda	-11577
aming	-11578
asset	-11579
found	-11580
gical	-11581
heads	-11582
iform	-11583
ister	-11584
popul	-11585
ports	-11586
rance	-11587
range	-11588
▁1991	-11589
▁BRCA	-11590
▁Rums	-11591
▁Stra	-11592
▁damp	-11593
▁hier	-11594
▁hunt	-11595
▁migr	-11596
▁rapp	-11597
▁walk	-11598
▁west	-11599
ledged	-11600
lywood	-11601
ooting	-11602
rapped	-11603
ubborn	-11604
usions	-11605
▁1979,	-11606
▁Dream	-11607
▁Innov	-11608
▁Nazis	-11609
▁Singh	-11610
▁Trust	-11611
▁Youth	-11612
▁cents	-11613
▁exped	-11614
▁foods	-11615
▁ghost	-11616
▁ineff	-11617
▁merch	-11618
▁opium	-11619
▁rebel	-11620
▁recal	-11621
▁recur	-11622
▁ships	-11623
▁sorts	-11624
▁spell	-11625
▁urged	-11626
▁video	-11627
▁vivid	-11628
▁widen	-11629
elected	-11630
itement	-11631
▁Balkan	-11632
▁Chirac	-11633
▁Fillon	-11634
▁Forces	-11635
▁Luxemb	-11636
▁Nature	-11637
▁Puerto	-11638
▁Regard	-11639
▁UNESCO	-11640
▁affirm	-11641
▁assemb	-11642
▁banned	-11643
▁dreams	-11644
▁endure	-11645
▁hatred	-11646
▁immune	-11647
▁repeal	-11648
▁silver	-11649
▁suprem	-11650
▁timely	-11651
▁tribun	-11652
▁unjust	-11653
▁visits	-11654
▁worlds	-11655
▁yellow	-11656
Japanese	-11657
changing	-11658
regional	-11659
ropriate	-11660
▁Control	-11661
▁Mahmoud	-11662
▁William	-11663
▁aligned	-11664
▁anytime	-11665
▁augment	-11666
▁betting	-11667
▁biology	-11668
▁counsel	-11669
▁cynical	-11670
▁derived	-11671
▁desired	-11672
▁heating	-11673
▁impasse	-11674
▁offices	-11675
▁passage	-11676
▁secured	-11677
▁strains	-11678
▁tighter	-11679
▁tipping	-11680
▁viewing	-11681
▁volunte	-11682
▁weakens	-11683
▁Bulgaria	-11684
▁Progress	-11685
▁Rumsfeld	-11686
▁Services	-11687
▁category	-11688
▁concepts	-11689
▁diabetes	-11690
▁favoring	-11691
▁impeding	-11692
▁improves	-11693
▁interpre	-11694
▁killings	-11695
▁liberals	-11696
▁lobbying	-11697
▁maturity	-11698
▁protects	-11699
▁quantity	-11700
▁resisted	-11701
▁solvency	-11702
▁sterling	-11703
▁survived	-11704
▁Himalayan	-11705
▁Relations	-11706
▁Socialist	-11707
▁automatic	-11708
▁ceasefire	-11709
▁everybody	-11710
▁inspiring	-11711
▁referenda	-11712
▁submitted	-11713
▁uncomfort	-11714
▁unleashed	-11715
▁upholding	-11716
▁watershed	-11717
▁wholesale	-11718
conditional	-11719
▁Bundesbank	-11720
▁complained	-11721
▁exploiting	-11722
▁indirectly	-11723
▁irrigation	-11724
▁kilometers	-11725
▁maximizing	-11726
▁peacefully	-11727
▁questioned	-11728
▁reasonably	-11729
▁responsive	-11730
▁undergoing	-11731
▁wealthiest	-11732
▁allegations	-11733
▁battlefield	-11734
▁compromised	-11735
▁contentious	-11736
▁depreciated	-11737
▁destabilize	-11738
▁outstanding	-11739
▁speculators	-11740
▁superiority	-11741
▁artificially	-11742
▁indifference	-11743
▁transitional	-11744
▁corresponding	-11745
▁identification	-11746
▁systematically	-11747
▁transformative	-11748
▁notwithstanding	-11749
-9	-11750
75	-11751
AC	-11752
Vs	-11753
nn	-11754
sy	-11755
zi	-11756
FSF	-11757
ada	-11758
aky	-11759
aph	-11760
bin	-11761
bul	-11762
dad	-11763
hon	-11764
iat	-11765
isa	-11766
sky	-11767
sub	-11768
uni	-11769
▁Ko	-11770
▁Ku	-11771
Arab	-11772
door	-11773
exas	-11774
fast	-11775
flow	-11776
ifts	-11777
inis	-11778
laim	-11779
mble	-11780
orry	-11781
plan	-11782
prot	-11783
ugos	-11784
uits	-11785
▁13%	-11786
▁2%.	-11787
▁Abu	-11788
▁Aid	-11789
▁Ext	-11790
▁Gam	-11791
▁Liu	-11792
▁PLA	-11793
▁Rod	-11794
▁Shi	-11795
▁bin	-11796
▁dil	-11797
▁upd	-11798
chers	-11799
cture	-11800
enter	-11801
falls	-11802
iates	-11803
skill	-11804
stone	-11805
▁1920	-11806
▁Alas	-11807
▁Case	-11808
▁Gini	-11809
▁Kiss	-11810
▁Marg	-11811
▁Maur	-11812
▁Pope	-11813
▁Rein	-11814
▁Shen	-11815
▁disg	-11816
▁hast	-11817
▁lest	-11818
▁merc	-11819
▁nutr	-11820
▁rice	-11821
acking	-11822
aghdad	-11823
erable	-11824
estyle	-11825
ewater	-11826
ulsion	-11827
▁Congo	-11828
▁Dubai	-11829
▁Euras	-11830
▁Force	-11831
▁Sadly	-11832
▁aston	-11833
▁cance	-11834
▁datab	-11835
▁dealt	-11836
▁impet	-11837
▁inapp	-11838
▁inval	-11839
▁items	-11840
▁overl	-11841
▁posts	-11842
▁prest	-11843
▁quasi	-11844
▁secre	-11845
▁stamp	-11846
▁theme	-11847
▁trees	-11848
▁unden	-11849
Israeli	-11850
Russian	-11851
centric	-11852
reaking	-11853
repared	-11854
uctions	-11855
ugoslav	-11856
▁Darwin	-11857
▁Higher	-11858
▁Leader	-11859
▁Oxford	-11860
▁Sharon	-11861
▁bribes	-11862
▁copper	-11863
▁counts	-11864
▁embark	-11865
▁forged	-11866
▁gamble	-11867
▁handed	-11868
▁mechan	-11869
▁overst	-11870
▁rebell	-11871
▁reiter	-11872
▁resett	-11873
▁resume	-11874
▁tended	-11875
▁theirs	-11876
▁valued	-11877
berspace	-11878
children	-11879
dictions	-11880
ittances	-11881
location	-11882
payments	-11883
▁Current	-11884
▁Olympic	-11885
▁Osborne	-11886
▁Rouhani	-11887
▁Workers	-11888
▁beating	-11889
▁demagog	-11890
▁destiny	-11891
▁intract	-11892
▁morally	-11893
▁persons	-11894
▁prerequ	-11895
▁publish	-11896
▁reacted	-11897
▁readily	-11898
▁realism	-11899
▁restaur	-11900
▁squeeze	-11901
▁therapy	-11902
▁tyranny	-11903
▁warrant	-11904
Americans	-11905
ilization	-11906
▁Catholic	-11907
▁Scottish	-11908
▁comments	-11909
▁confused	-11910
▁convened	-11911
▁converge	-11912
▁depended	-11913
▁embarked	-11914
▁everyday	-11915
▁likewise	-11916
▁messages	-11917
▁stubborn	-11918
▁wherever	-11919
generation	-11920
▁Achieving	-11921
▁Amendment	-11922
▁Financing	-11923
▁Peninsula	-11924
▁blueprint	-11925
▁classical	-11926
▁comprises	-11927
▁criticize	-11928
▁detention	-11929
▁exercises	-11930
▁exploited	-11931
▁lifestyle	-11932
▁militants	-11933
▁paralysis	-11934
▁procedure	-11935
▁processed	-11936
▁reinvigor	-11937
▁resembles	-11938
▁unlimited	-11939
functioning	-11940
▁Liberation	-11941
▁behavioral	-11942
▁continuity	-11943
▁distressed	-11944
▁distribute	-11945
▁enormously	-11946
▁escalation	-11947
▁fulfilling	-11948
▁functional	-11949
▁intervened	-11950
▁organizing	-11951
▁practition	-11952
▁preference	-11953
▁reassuring	-11954
▁relentless	-11955
▁translated	-11956
productivity	-11957
▁Information	-11958
▁appointment	-11959
▁conditional	-11960
▁conflicting	-11961
▁departments	-11962
▁entitlement	-11963
▁geopolitics	-11964
▁ingredients	-11965
▁integrating	-11966
▁intelligent	-11967
▁proportions	-11968
▁unavoidable	-11969
▁administered	-11970
▁declarations	-11971
▁devaluations	-11972
▁differential	-11973
▁disappointed	-11974
▁contradictory	-11975
▁deterioration	-11976
▁jurisdictions	-11977
▁underestimate	-11978
gs	-11979
sl	-11980
awa	-11981
exp	-11982
iar	-11983
lom	-11984
nat	-11985
rik	-11986
▁AT	-11987
▁Ay	-11988
aire	-11989
ales	-11990
ania	-11991
aque	-11992
aths	-11993
eled	-11994
emia	-11995
gery	-11996
iege	-11997
imer	-11998
lood	-11999
nals	-12000
otal	-12001
play	-12002
ribe	-12003
role	-12004
tier	-12005
▁-1.	-12006
▁Hug	-12007
▁Kir	-12008
▁Piñ	-12009
▁Sar	-12010
▁USS	-12011
▁Val	-12012
▁Vot	-12013
▁Way	-12014
▁gay	-12015
allow	-12016
amber	-12017
anmen	-12018
apter	-12019
arraf	-12020
diagn	-12021
earth	-12022
ilton	-12023
intao	-12024
lived	-12025
luded	-12026
ourge	-12027
oving	-12028
rying	-12029
ukuni	-12030
wered	-12031
▁1994	-12032
▁2.5%	-12033
▁Fisc	-12034
▁Jeff	-12035
▁Uber	-12036
▁ages	-12037
▁aven	-12038
▁boys	-12039
▁cite	-12040
▁grab	-12041
▁jail	-12042
▁medd	-12043
▁milk	-12044
▁owes	-12045
▁rage	-12046
▁samp	-12047
▁stew	-12048
▁tape	-12049
Brazil	-12050
anding	-12051
determ	-12052
ighbor	-12053
iglitz	-12054
ridden	-12055
▁Delhi	-12056
▁Faced	-12057
▁Later	-12058
▁Short	-12059
▁Texas	-12060
▁Uribe	-12061
▁Young	-12062
▁agent	-12063
▁breed	-12064
▁cloud	-12065
▁disse	-12066
▁fired	-12067
▁forum	-12068
▁havoc	-12069
▁inert	-12070
▁inexp	-12071
▁misal	-12072
▁motor	-12073
▁penet	-12074
▁pilot	-12075
▁resum	-12076
▁shake	-12077
▁slows	-12078
▁sport	-12079
▁steam	-12080
ighting	-12081
ignific	-12082
ordable	-12083
▁Anyone	-12084
▁Execut	-12085
▁Gandhi	-12086
▁Jintao	-12087
▁Piñera	-12088
▁Wilson	-12089
▁arises	-12090
▁banker	-12091
▁enjoys	-12092
▁flying	-12093
▁fruits	-12094
▁frustr	-12095
▁hamper	-12096
▁insurg	-12097
▁length	-12098
▁picked	-12099
▁pieces	-12100
▁racism	-12101
▁submar	-12102
▁virtue	-12103
usharraf	-12104
▁Armenia	-12105
▁Fischer	-12106
▁Malaria	-12107
▁Morales	-12108
▁Paradox	-12109
▁Working	-12110
▁appease	-12111
▁chooses	-12112
▁clinics	-12113
▁endured	-12114
▁existed	-12115
▁fortune	-12116
▁futures	-12117
▁hitting	-12118
▁hostage	-12119
▁husband	-12120
▁inhibit	-12121
▁intrins	-12122
▁lowered	-12123
▁origins	-12124
▁pledges	-12125
▁pulling	-12126
▁regards	-12127
▁reliant	-12128
▁riskier	-12129
▁strides	-12130
▁volumes	-12131
▁widened	-12132
autionary	-12133
▁Hamilton	-12134
▁Italians	-12135
▁Opportun	-12136
▁Sciences	-12137
▁Stiglitz	-12138
▁Yasukuni	-12139
▁biofuels	-12140
▁capitals	-12141
▁catalyst	-12142
▁catching	-12143
▁contempt	-12144
▁deadline	-12145
▁deepened	-12146
▁drilling	-12147
▁drinking	-12148
▁enjoying	-12149
▁equation	-12150
▁inclined	-12151
▁journals	-12152
▁markedly	-12153
▁punished	-12154
▁punitive	-12155
▁robotics	-12156
▁succeeds	-12157
▁tempting	-12158
▁thinkers	-12159
▁treasury	-12160
▁visiting	-12161
celeration	-12162
▁Framework	-12163
▁Strategic	-12164
▁brutality	-12165
▁eradicate	-12166
▁infection	-12167
▁inflicted	-12168
▁lawmakers	-12169
▁pipelines	-12170
▁proactive	-12171
▁purchased	-12172
▁reactions	-12173
▁satisfied	-12174
▁sidelines	-12175
▁therapies	-12176
▁viability	-12177
established	-12178
▁Securities	-12179
▁antibiotic	-12180
▁competence	-12181
▁constraint	-12182
▁eighteenth	-12183
▁nomination	-12184
▁professors	-12185
▁rebuilding	-12186
▁recipients	-12187
▁unbalanced	-12188
▁overwhelmed	-12189
▁susceptible	-12190
▁withdrawing	-12191
globalization	-12192
▁Intelligence	-12193
▁experimental	-12194
▁liberalizing	-12195
▁perpetrators	-12196
▁simultaneous	-12197
▁Comprehensive	-12198
▁acknowledging	-12199
▁distinguished	-12200
▁externalities	-12201
▁capitalization	-12202
▁disappointment	-12203
-4	-12204
11	-12205
AL	-12206
EV	-12207
IT	-12208
No	-12209
da	-12210
vo	-12211
wa	-12212
-15	-12213
iza	-12214
osé	-12215
rup	-12216
san	-12217
ube	-12218
usp	-12219
”),	-12220
▁Cy	-12221
▁Ur	-12222
▁ri	-12223
SOEs	-12224
amac	-12225
bons	-12226
core	-12227
fulf	-12228
gian	-12229
igue	-12230
lant	-12231
onic	-12232
othe	-12233
▁0.2	-12234
▁1.4	-12235
▁Beg	-12236
▁Bot	-12237
▁Dom	-12238
▁FSB	-12239
▁Fac	-12240
▁Gra	-12241
▁McC	-12242
▁Met	-12243
▁Nav	-12244
▁Ser	-12245
▁Ste	-12246
▁sab	-12247
▁upt	-12248
chner	-12249
eding	-12250
major	-12251
otion	-12252
spons	-12253
there	-12254
ucker	-12255
urban	-12256
ureau	-12257
▁CTBT	-12258
▁Main	-12259
▁SMEs	-12260
▁STEM	-12261
▁Star	-12262
▁Well	-12263
▁Zhou	-12264
▁adds	-12265
▁cler	-12266
▁doom	-12267
▁hect	-12268
▁lens	-12269
▁loop	-12270
▁medi	-12271
▁mend	-12272
▁owed	-12273
▁synt	-12274
▁thor	-12275
▁tone	-12276
▁tric	-12277
▁user	-12278
ainted	-12279
andise	-12280
around	-12281
asures	-12282
debted	-12283
decade	-12284
enegal	-12285
houses	-12286
ourced	-12287
pelled	-12288
roleum	-12289
▁1992,	-12290
▁1999,	-12291
▁2002.	-12292
▁3,000	-12293
▁5,000	-12294
▁Dalai	-12295
▁Guard	-12296
▁MILAN	-12297
▁Peter	-12298
▁Small	-12299
▁Start	-12300
▁carri	-12301
▁clock	-12302
▁delus	-12303
▁disen	-12304
▁doses	-12305
▁email	-12306
▁exert	-12307
▁march	-12308
▁maybe	-12309
▁pecul	-12310
▁plent	-12311
▁proxy	-12312
▁stars	-12313
amacare	-12314
ifiable	-12315
manship	-12316
serving	-12317
setting	-12318
welfare	-12319
▁Angola	-12320
▁Bhutan	-12321
▁Confuc	-12322
▁Hurric	-12323
▁afraid	-12324
▁breath	-12325
▁bullet	-12326
▁bypass	-12327
▁dearth	-12328
▁dismal	-12329
▁futile	-12330
▁indict	-12331
▁intrus	-12332
▁jailed	-12333
▁judged	-12334
▁opaque	-12335
▁pestic	-12336
▁remedy	-12337
▁rounds	-12338
▁stockp	-12339
▁surged	-12340
▁unsett	-12341
directed	-12342
educated	-12343
equality	-12344
ertainly	-12345
indebted	-12346
iniscent	-12347
oliberal	-12348
queville	-12349
resource	-12350
▁Experts	-12351
▁Senegal	-12352
▁advised	-12353
▁bridges	-12354
▁circles	-12355
▁clarify	-12356
▁clashes	-12357
▁crowded	-12358
▁earning	-12359
▁handled	-12360
▁hardlin	-12361
▁herself	-12362
▁hurdles	-12363
▁impacts	-12364
▁insists	-12365
▁loyalty	-12366
▁nuanced	-12367
▁offense	-12368
▁overval	-12369
▁plunged	-12370
▁prestig	-12371
▁revital	-12372
▁summits	-12373
▁uniform	-12374
▁unleash	-12375
▁utterly	-12376
▁violate	-12377
criptions	-12378
▁Facility	-12379
▁Margaret	-12380
▁Millions	-12381
▁articles	-12382
▁branches	-12383
▁divisive	-12384
▁flourish	-12385
▁incurred	-12386
▁inflated	-12387
▁innovate	-12388
▁metaphor	-12389
▁morality	-12390
▁mountain	-12391
▁patience	-12392
▁precious	-12393
▁rigorous	-12394
▁servants	-12395
▁shopping	-12396
▁societal	-12397
▁supercon	-12398
▁sympathy	-12399
▁Colombian	-12400
▁Hungarian	-12401
▁Kissinger	-12402
▁competent	-12403
▁diagnosed	-12404
▁evidently	-12405
▁execution	-12406
▁explosive	-12407
▁exporting	-12408
▁incidents	-12409
▁liberties	-12410
▁lingering	-12411
▁locations	-12412
▁neglected	-12413
▁notorious	-12414
▁persuaded	-12415
▁plentiful	-12416
▁plummeted	-12417
▁polarized	-12418
▁revealing	-12419
▁scheduled	-12420
▁worldview	-12421
▁Luxembourg	-12422
▁Regardless	-12423
▁announcing	-12424
▁automobile	-12425
▁casualties	-12426
▁collapsing	-12427
▁compassion	-12428
▁depressing	-12429
▁healthcare	-12430
▁imposition	-12431
▁mitigating	-12432
▁mobilizing	-12433
▁ostensibly	-12434
▁precarious	-12435
▁quantities	-12436
▁simplistic	-12437
▁worthwhile	-12438
▁diversified	-12439
▁inhabitants	-12440
▁restoration	-12441
▁strengthens	-12442
▁unrealistic	-12443
▁deteriorated	-12444
▁highlighting	-12445
▁inconsistent	-12446
▁totalitarian	-12447
▁unconditional	-12448
▁unwillingness	-12449
▁understandably	-12450
▁diversification	-12451
ED	-12452
GB	-12453
GH	-12454
MU	-12455
Me	-12456
ais	-12457
cit	-12458
ede	-12459
hot	-12460
iah	-12461
oko	-12462
pat	-12463
pes	-12464
ros	-12465
tle	-12466
two	-12467
ura	-12468
▁(2	-12469
▁Bi	-12470
▁Hy	-12471
ften	-12472
heid	-12473
hent	-12474
imag	-12475
inde	-12476
inqu	-12477
iped	-12478
ndra	-12479
rous	-12480
▁2%,	-12481
▁21%	-12482
▁95%	-12483
▁CDF	-12484
▁Cap	-12485
▁EPP	-12486
▁Len	-12487
▁Rog	-12488
▁ath	-12489
▁dra	-12490
▁etc	-12491
▁geo	-12492
▁oxy	-12493
▁rav	-12494
▁thw	-12495
South	-12496
eness	-12497
lance	-12498
liest	-12499
ogens	-12500
peace	-12501
perty	-12502
qiang	-12503
rable	-12504
ricts	-12505
ridge	-12506
roche	-12507
roots	-12508
swana	-12509
▁1979	-12510
▁Deep	-12511
▁Lama	-12512
▁Miss	-12513
▁Nare	-12514
▁Pand	-12515
▁Seas	-12516
▁Wang	-12517
▁arts	-12518
▁axis	-12519
▁butt	-12520
▁cycl	-12521
▁detr	-12522
▁dies	-12523
▁emit	-12524
▁glim	-12525
▁hasn	-12526
▁hint	-12527
▁mine	-12528
▁skew	-12529
▁tank	-12530
▁visa	-12531
▁wear	-12532
50,000	-12533
idding	-12534
inable	-12535
linked	-12536
parent	-12537
return	-12538
weight	-12539
▁1950’	-12540
▁1998,	-12541
▁2018,	-12542
▁Boris	-12543
▁Cypri	-12544
▁Games	-12545
▁Kerry	-12546
▁Shell	-12547
▁Stern	-12548
▁Years	-12549
▁arrog	-12550
▁audit	-12551
▁calam	-12552
▁colon	-12553
▁crony	-12554
▁dairy	-12555
▁films	-12556
▁grids	-12557
▁opted	-12558
▁quota	-12559
▁sever	-12560
▁shame	-12561
▁smoke	-12562
▁sober	-12563
▁theor	-12564
Semitic	-12565
estyles	-12566
fledged	-12567
managed	-12568
overing	-12569
sighted	-12570
▁Bureau	-12571
▁Kenyan	-12572
▁Panama	-12573
▁abound	-12574
▁affili	-12575
▁backst	-12576
▁bosses	-12577
▁deport	-12578
▁dubbed	-12579
▁famine	-12580
▁hailed	-12581
▁hydrop	-12582
▁impart	-12583
▁infant	-12584
▁killer	-12585
▁makers	-12586
▁masses	-12587
▁meters	-12588
▁papers	-12589
▁submit	-12590
▁trades	-12591
▁wisely	-12592
breaking	-12593
icularly	-12594
thinking	-12595
▁300,000	-12596
▁Critics	-12597
▁Looking	-12598
▁Meeting	-12599
▁Serbian	-12600
▁Support	-12601
▁anxious	-12602
▁arising	-12603
▁dictate	-12604
▁exclude	-12605
▁fertile	-12606
▁founder	-12607
▁heading	-12608
▁impetus	-12609
▁matched	-12610
▁obliged	-12611
▁overest	-12612
▁permits	-12613
▁preempt	-12614
▁reactor	-12615
▁readers	-12616
▁reservo	-12617
▁smarter	-12618
▁unhappy	-12619
▁utility	-12620
▁varying	-12621
rochement	-12622
strategic	-12623
▁Botswana	-12624
▁Consumer	-12625
▁Narendra	-12626
▁Nigerian	-12627
▁blessing	-12628
▁brothers	-12629
▁centered	-12630
▁commerce	-12631
▁commonly	-12632
▁consists	-12633
▁disclose	-12634
▁efficacy	-12635
▁embodied	-12636
▁factions	-12637
▁gridlock	-12638
▁handling	-12639
▁inferior	-12640
▁landmark	-12641
▁militant	-12642
▁minerals	-12643
▁provider	-12644
▁rainfall	-12645
▁reciproc	-12646
▁resigned	-12647
▁shutdown	-12648
▁sizeable	-12649
▁tailored	-12650
▁tourists	-12651
▁uprising	-12652
▁Tiananmen	-12653
▁decreased	-12654
▁denounced	-12655
▁detriment	-12656
▁directors	-12657
▁disparate	-12658
▁enforcing	-12659
▁judgments	-12660
▁logistics	-12661
▁modernize	-12662
▁portrayed	-12663
▁privilege	-12664
▁utilities	-12665
▁wealthier	-12666
Palestinian	-12667
▁Eventually	-12668
▁Regulatory	-12669
▁Resolution	-12670
▁Solidarity	-12671
▁achievable	-12672
▁bolstering	-12673
▁courageous	-12674
▁curriculum	-12675
▁depositors	-12676
▁engineered	-12677
▁expressing	-12678
▁internally	-12679
▁leveraging	-12680
▁lifestyles	-12681
▁literature	-12682
▁overshadow	-12683
▁successive	-12684
▁wastewater	-12685
▁celebration	-12686
▁citizenship	-12687
▁collaborate	-12688
▁countryside	-12689
▁denominated	-12690
▁description	-12691
▁exaggerated	-12692
▁manipulated	-12693
▁merchandise	-12694
▁observation	-12695
▁personality	-12696
▁practically	-12697
▁reminiscent	-12698
▁remittances	-12699
▁substantive	-12700
▁technically	-12701
▁enthusiastic	-12702
▁governmental	-12703
▁occasionally	-12704
▁persistently	-12705
▁questionable	-12706
▁systemically	-12707
▁disadvantaged	-12708
▁disagreements	-12709
▁discretionary	-12710
-6	-12711
De	-12712
TT	-12713
fl	-12714
gi	-12715
ARP	-12716
HAN	-12717
New	-12718
bad	-12719
ila	-12720
non	-12721
opt	-12722
pos	-12723
”).	-12724
▁34	-12725
▁36	-12726
▁Ce	-12727
▁Ol	-12728
▁SP	-12729
▁Sa	-12730
▁Zh	-12731
▁“[	-12732
anch	-12733
arde	-12734
bene	-12735
eder	-12736
gans	-12737
hart	-12738
imil	-12739
iral	-12740
list	-12741
lude	-12742
opia	-12743
osni	-12744
rior	-12745
roso	-12746
star	-12747
upid	-12748
zhen	-12749
zhou	-12750
▁$60	-12751
▁Bur	-12752
▁CPC	-12753
▁Ide	-12754
▁Mek	-12755
▁NPT	-12756
▁RMB	-12757
▁STO	-12758
▁Sin	-12759
▁Tig	-12760
▁Toc	-12761
▁boy	-12762
▁ele	-12763
▁fee	-12764
▁lin	-12765
▁mig	-12766
▁owe	-12767
▁rus	-12768
Leave	-12769
achal	-12770
achev	-12771
amous	-12772
attle	-12773
chest	-12774
henko	-12775
heres	-12776
inate	-12777
isure	-12778
ivism	-12779
opian	-12780
osite	-12781
ostal	-12782
otism	-12783
ottom	-12784
pivot	-12785
raged	-12786
smart	-12787
tered	-12788
ulent	-12789
umble	-12790
äuble	-12791
▁$500	-12792
▁1900	-12793
▁1992	-12794
▁1999	-12795
▁3.5%	-12796
▁50%.	-12797
▁6.5%	-12798
▁Life	-12799
▁Poll	-12800
▁Pres	-12801
▁Salv	-12802
▁Tanz	-12803
▁Turn	-12804
▁apes	-12805
▁busy	-12806
▁flam	-12807
▁forb	-12808
▁gang	-12809
▁glut	-12810
▁harb	-12811
▁mole	-12812
▁murd	-12813
▁omin	-12814
▁peso	-12815
▁plut	-12816
▁poet	-12817
▁soci	-12818
▁spin	-12819
▁sway	-12820
▁swit	-12821
▁thro	-12822
▁wood	-12823
asions	-12824
inence	-12825
inston	-12826
isible	-12827
ocaust	-12828
oliday	-12829
ometer	-12830
orders	-12831
▁Hence	-12832
▁Hosni	-12833
▁Janet	-12834
▁Urban	-12835
▁bears	-12836
▁curve	-12837
▁disgu	-12838
▁dread	-12839
▁drift	-12840
▁ingen	-12841
▁messy	-12842
▁onset	-12843
▁shore	-12844
▁stone	-12845
▁stuff	-12846
▁veter	-12847
balance	-12848
compass	-12849
conserv	-12850
ustomed	-12851
versely	-12852
▁Cities	-12853
▁Edward	-12854
▁Frankf	-12855
▁Fukush	-12856
▁Single	-12857
▁Syriza	-12858
▁Things	-12859
▁apolog	-12860
▁bloods	-12861
▁branch	-12862
▁commem	-12863
▁covers	-12864
▁covert	-12865
▁hosted	-12866
▁merits	-12867
▁metrop	-12868
▁muscle	-12869
▁prosec	-12870
▁routes	-12871
▁sevent	-12872
▁speaks	-12873
▁strive	-12874
▁Barroso	-12875
▁Jacques	-12876
▁Network	-12877
▁Winston	-12878
▁acquies	-12879
▁apparat	-12880
▁drastic	-12881
▁escaped	-12882
▁fantasy	-12883
▁forging	-12884
▁garment	-12885
▁hopeful	-12886
▁inertia	-12887
▁locally	-12888
▁manages	-12889
▁outlays	-12890
▁profile	-12891
▁quantum	-12892
▁quietly	-12893
▁reminds	-12894
▁replied	-12895
▁roadmap	-12896
▁signing	-12897
▁subsidy	-12898
▁tightly	-12899
▁tripled	-12900
▁vessels	-12901
communist	-12902
dominated	-12903
roductive	-12904
sponsored	-12905
ugoslavia	-12906
▁Cultural	-12907
▁Military	-12908
▁Regional	-12909
▁Schäuble	-12910
▁Shenzhen	-12911
▁absorbed	-12912
▁academia	-12913
▁arriving	-12914
▁cleaning	-12915
▁crossing	-12916
▁graduate	-12917
▁hypothes	-12918
▁instance	-12919
▁location	-12920
▁militias	-12921
▁outlined	-12922
▁reinvent	-12923
▁relating	-12924
▁reminded	-12925
▁retrench	-12926
▁ruthless	-12927
▁stopping	-12928
▁subjects	-12929
▁subprime	-12930
▁variable	-12931
▁vigorous	-12932
▁villages	-12933
ranational	-12934
▁Executive	-12935
▁Hurricane	-12936
▁Musharraf	-12937
▁ambiguous	-12938
▁combining	-12939
▁computing	-12940
▁convicted	-12941
▁deterrent	-12942
▁districts	-12943
▁millennia	-12944
▁postponed	-12945
▁rebalance	-12946
▁relatives	-12947
▁resisting	-12948
▁sentences	-12949
▁spillover	-12950
▁undergone	-12951
▁Capitalism	-12952
▁Management	-12953
▁Venezuelan	-12954
▁accordance	-12955
▁appearance	-12956
▁championed	-12957
▁chancellor	-12958
▁circumvent	-12959
▁compatible	-12960
▁completion	-12961
▁conducting	-12962
▁conspiracy	-12963
▁cosmopolit	-12964
▁cyberspace	-12965
▁designated	-12966
▁dimensions	-12967
▁dissidents	-12968
▁historians	-12969
▁hydropower	-12970
▁insurgents	-12971
▁jeopardize	-12972
▁monopolies	-12973
▁prioritize	-12974
▁pronounced	-12975
▁prudential	-12976
▁stagnating	-12977
▁subsidized	-12978
▁suggestion	-12979
▁valuations	-12980
▁xenophobic	-12981
▁creditworth	-12982
▁dismantling	-12983
▁expressions	-12984
▁intractable	-12985
▁meaningless	-12986
▁overarching	-12987
▁overheating	-12988
▁resolutions	-12989
▁specialists	-12990
▁specialized	-12991
▁undervalued	-12992
▁Unemployment	-12993
▁coordinating	-12994
▁deficiencies	-12995
▁exacerbating	-12996
▁geographical	-12997
▁imprisonment	-12998
▁intensifying	-12999
▁jeopardizing	-13000
▁malnutrition	-13001
▁manipulating	-13002
▁assertiveness	-13003
▁precautionary	-13004
▁rapprochement	-13005
▁socioeconomic	-13006
▁uncomfortable	-13007
▁attractiveness	-13008
▁nanotechnology	-13009
-5	-13010
CK	-13011
RF	-13012
3%,	-13013
IFA	-13014
aya	-13015
dam	-13016
ida	-13017
lod	-13018
oma	-13019
rea	-13020
umi	-13021
vio	-13022
▁IT	-13023
▁OX	-13024
APOR	-13025
This	-13026
What	-13027
achu	-13028
aned	-13029
arre	-13030
assy	-13031
aund	-13032
best	-13033
deep	-13034
epid	-13035
ifty	-13036
loom	-13037
oglo	-13038
quer	-13039
▁$4.	-13040
▁14%	-13041
▁28%	-13042
▁Adv	-13043
▁Ale	-13044
▁Ens	-13045
▁Fox	-13046
▁GEN	-13047
▁III	-13048
▁Lim	-13049
▁Mog	-13050
▁Pin	-13051
▁wre	-13052
APORE	-13053
aires	-13054
craft	-13055
elior	-13056
grown	-13057
helps	-13058
ivist	-13059
ocaly	-13060
ombie	-13061
overe	-13062
overy	-13063
ringe	-13064
setts	-13065
steps	-13066
▁10%.	-13067
▁20%,	-13068
▁Adam	-13069
▁Beng	-13070
▁Dear	-13071
▁Farm	-13072
▁Hard	-13073
▁Hugo	-13074
▁Plen	-13075
▁SING	-13076
▁bird	-13077
▁boon	-13078
▁clim	-13079
▁fren	-13080
▁rall	-13081
▁vari	-13082
akable	-13083
arling	-13084
atists	-13085
hecked	-13086
hering	-13087
irates	-13088
ixture	-13089
letion	-13090
olitan	-13091
perial	-13092
rected	-13093
ricket	-13094
strong	-13095
undrum	-13096
▁2018.	-13097
▁2025.	-13098
▁Advis	-13099
▁Aside	-13100
▁Bache	-13101
▁Cuban	-13102
▁Daily	-13103
▁Early	-13104
▁Jiang	-13105
▁Larry	-13106
▁Which	-13107
▁alert	-13108
▁atroc	-13109
▁ballo	-13110
▁brill	-13111
▁diets	-13112
▁embar	-13113
▁heter	-13114
▁naive	-13115
▁plate	-13116
▁pregn	-13117
▁prote	-13118
▁slide	-13119
▁stric	-13120
▁surre	-13121
▁troop	-13122
▁twist	-13123
▁verge	-13124
▁visas	-13125
ardship	-13126
ervical	-13127
foreign	-13128
hemical	-13129
iscally	-13130
million	-13131
racking	-13132
ringing	-13133
termism	-13134
▁Carter	-13135
▁Karzai	-13136
▁Milton	-13137
▁Napole	-13138
▁OXFORD	-13139
▁Phelps	-13140
▁Silvio	-13141
▁Thirty	-13142
▁agrees	-13143
▁alumin	-13144
▁caliph	-13145
▁clever	-13146
▁coffee	-13147
▁coined	-13148
▁deduct	-13149
▁enroll	-13150
▁freeze	-13151
▁glance	-13152
▁indoor	-13153
▁muster	-13154
▁nostal	-13155
▁noting	-13156
▁nurses	-13157
▁pulled	-13158
▁repaid	-13159
▁replic	-13160
▁screen	-13161
▁strife	-13162
▁testim	-13163
▁traits	-13164
▁worthy	-13165
ermanent	-13166
esterday	-13167
standard	-13168
▁Albania	-13169
▁Efforts	-13170
▁Keqiang	-13171
▁Outlook	-13172
▁adapted	-13173
▁amelior	-13174
▁analyze	-13175
▁coexist	-13176
▁costing	-13177
▁decides	-13178
▁devised	-13179
▁dragged	-13180
▁endemic	-13181
▁leftist	-13182
▁leisure	-13183
▁retains	-13184
▁retired	-13185
▁shocked	-13186
▁shouldn	-13187
▁supreme	-13188
▁turnout	-13189
▁wounded	-13190
achusetts	-13191
▁Americas	-13192
▁Bachelet	-13193
▁Criminal	-13194
▁Dialogue	-13195
▁Everyone	-13196
▁Mohammed	-13197
▁Nowadays	-13198
▁Province	-13199
▁coercion	-13200
▁defended	-13201
▁deprived	-13202
▁develops	-13203
▁dividing	-13204
▁downgrad	-13205
▁eligible	-13206
▁extremes	-13207
▁fortunes	-13208
▁highways	-13209
▁insurers	-13210
▁massacre	-13211
▁peculiar	-13212
▁sometime	-13213
▁tortured	-13214
▁vigilant	-13215
revolution	-13216
▁Certainly	-13217
▁Communism	-13218
▁Frankfurt	-13219
▁Fukushima	-13220
▁Hollywood	-13221
▁Insurance	-13222
▁Migration	-13223
▁SINGAPORE	-13224
▁Taiwanese	-13225
▁Universal	-13226
▁alleviate	-13227
▁apparatus	-13228
▁audiences	-13229
▁avoidance	-13230
▁bloodshed	-13231
▁chemicals	-13232
▁compelled	-13233
▁crucially	-13234
▁diffusion	-13235
▁hypocrisy	-13236
▁importing	-13237
▁lucrative	-13238
▁mobilized	-13239
▁obsession	-13240
▁parallels	-13241
▁polluting	-13242
▁prevalent	-13243
▁recycling	-13244
▁repayment	-13245
▁spotlight	-13246
▁unchecked	-13247
▁Christians	-13248
▁Inequality	-13249
▁Structural	-13250
▁Technology	-13251
▁accustomed	-13252
▁asymmetric	-13253
▁authorized	-13254
▁celebrated	-13255
▁critically	-13256
▁documented	-13257
▁extraction	-13258
▁harassment	-13259
▁invitation	-13260
▁liberation	-13261
▁majorities	-13262
▁minimizing	-13263
▁moderation	-13264
▁objections	-13265
▁offsetting	-13266
▁oppression	-13267
▁personally	-13268
▁positively	-13269
▁prosecutor	-13270
▁squandered	-13271
▁xenophobia	-13272
▁Environment	-13273
▁Tocqueville	-13274
▁coincidence	-13275
▁communicate	-13276
▁constructed	-13277
▁contemplate	-13278
▁discoveries	-13279
▁drastically	-13280
▁intervening	-13281
▁proceedings	-13282
▁recruitment	-13283
▁refinancing	-13284
▁supervisory	-13285
▁transferred	-13286
▁underscored	-13287
▁unregulated	-13288
▁voluntarily	-13289
Proliferation	-13290
▁accumulating	-13291
▁constraining	-13292
▁continuation	-13293
▁incompatible	-13294
▁incompetence	-13295
▁modification	-13296
▁technocratic	-13297
▁Massachusetts	-13298
▁practitioners	-13299
▁reunification	-13300
▁investigations	-13301
21	-13302
At	-13303
Ke	-13304
400	-13305
HOL	-13306
ado	-13307
bro	-13308
far	-13309
ows	-13310
pse	-13311
rac	-13312
zbe	-13313
▁32	-13314
▁37	-13315
▁Ib	-13316
▁Sk	-13317
▁ug	-13318
-198	-13319
fits	-13320
game	-13321
iece	-13322
ldom	-13323
okes	-13324
poor	-13325
roat	-13326
rome	-13327
tery	-13328
ttes	-13329
uese	-13330
urit	-13331
▁1.6	-13332
▁10.	-13333
▁18%	-13334
▁36%	-13335
▁38%	-13336
▁Bad	-13337
▁DRC	-13338
▁ESG	-13339
▁Fre	-13340
▁Kem	-13341
▁MPs	-13342
▁Ott	-13343
▁Rad	-13344
▁Rob	-13345
▁SWF	-13346
▁Yuk	-13347
▁biz	-13348
▁bog	-13349
▁cam	-13350
▁coh	-13351
▁gig	-13352
▁lad	-13353
▁lax	-13354
▁lit	-13355
▁nit	-13356
alism	-13357
apego	-13358
appro	-13359
books	-13360
cycle	-13361
eller	-13362
erion	-13363
eters	-13364
heric	-13365
ighed	-13366
iller	-13367
ioxid	-13368
polar	-13369
pture	-13370
surge	-13371
▁$800	-13372
▁1.5°	-13373
▁1996	-13374
▁Arun	-13375
▁Clos	-13376
▁Dani	-13377
▁FIFA	-13378
▁Gorb	-13379
▁Jere	-13380
▁José	-13381
▁Left	-13382
▁Lith	-13383
▁OPEC	-13384
▁Rico	-13385
▁Sich	-13386
▁Step	-13387
▁Uzbe	-13388
▁bind	-13389
▁dent	-13390
▁drow	-13391
▁eman	-13392
▁evac	-13393
▁fits	-13394
▁hang	-13395
▁inad	-13396
▁mamm	-13397
▁quit	-13398
▁sche	-13399
▁snow	-13400
▁song	-13401
▁stro	-13402
▁vain	-13403
arette	-13404
ascent	-13405
author	-13406
giving	-13407
▁Joint	-13408
▁Kurds	-13409
▁Osama	-13410
▁Pinoc	-13411
▁Recon	-13412
▁abide	-13413
▁amend	-13414
▁burge	-13415
▁cardi	-13416
▁debac	-13417
▁drama	-13418
▁egreg	-13419
▁erupt	-13420
▁expon	-13421
▁freed	-13422
▁horse	-13423
▁hosts	-13424
▁kills	-13425
▁marsh	-13426
▁memor	-13427
▁paved	-13428
▁redef	-13429
▁repud	-13430
▁scant	-13431
▁spots	-13432
▁stall	-13433
▁tenth	-13434
▁tepid	-13435
▁wheat	-13436
angered	-13437
arettes	-13438
athetic	-13439
carbons	-13440
imposed	-13441
istence	-13442
keepers	-13443
oglobin	-13444
respect	-13445
seeking	-13446
western	-13447
▁Arctic	-13448
▁Cancer	-13449
▁Establ	-13450
▁Import	-13451
▁Mekong	-13452
▁Prices	-13453
▁Recogn	-13454
▁Rising	-13455
▁Saudis	-13456
▁Sovere	-13457
▁Voters	-13458
▁autumn	-13459
▁betray	-13460
▁buffer	-13461
▁cartel	-13462
▁citing	-13463
▁clause	-13464
▁comply	-13465
▁enters	-13466
▁equals	-13467
▁hungry	-13468
▁landsl	-13469
▁licens	-13470
▁lights	-13471
▁mature	-13472
▁peaked	-13473
▁posing	-13474
▁praise	-13475
▁render	-13476
▁spared	-13477
▁surviv	-13478
▁uneven	-13479
iscrimin	-13480
reported	-13481
▁Century	-13482
▁Company	-13483
▁Consequ	-13484
▁Lithuan	-13485
▁Respons	-13486
▁Roughly	-13487
▁Sichuan	-13488
▁Turkmen	-13489
▁approve	-13490
▁belongs	-13491
▁beneath	-13492
▁bizarre	-13493
▁bombing	-13494
▁bonuses	-13495
▁cartels	-13496
▁chaotic	-13497
▁embargo	-13498
▁emotion	-13499
▁employs	-13500
▁hackers	-13501
▁illiter	-13502
▁invaded	-13503
▁married	-13504
▁mixture	-13505
▁nurture	-13506
▁obscure	-13507
▁presupp	-13508
▁proflig	-13509
▁proving	-13510
▁reprodu	-13511
▁scapego	-13512
▁shelter	-13513
▁virtues	-13514
▁wonders	-13515
exporting	-13516
▁Buddhist	-13517
▁Currency	-13518
▁Refugees	-13519
▁Standard	-13520
▁Tanzania	-13521
▁aluminum	-13522
▁analyses	-13523
▁cervical	-13524
▁charisma	-13525
▁counting	-13526
▁depleted	-13527
▁duration	-13528
▁envision	-13529
▁exposing	-13530
▁fiscally	-13531
▁incoming	-13532
▁mandates	-13533
▁pandemic	-13534
▁predicts	-13535
▁proteins	-13536
▁provoked	-13537
▁recourse	-13538
▁remedies	-13539
▁resemble	-13540
▁retained	-13541
▁surveyed	-13542
▁totaling	-13543
▁uniquely	-13544
▁ventures	-13545
celerating	-13546
▁Challenge	-13547
▁Gorbachev	-13548
▁Holocaust	-13549
▁Terrorism	-13550
▁abilities	-13551
▁amendment	-13552
▁attending	-13553
▁basically	-13554
▁bolstered	-13555
▁disparity	-13556
▁dissatisf	-13557
▁employing	-13558
▁enshrined	-13559
▁intensive	-13560
▁mentality	-13561
▁paramount	-13562
▁physician	-13563
▁planetary	-13564
▁rejecting	-13565
▁reporters	-13566
▁substance	-13567
▁underwrit	-13568
▁unrelated	-13569
▁Portuguese	-13570
▁annexation	-13571
▁burgeoning	-13572
▁commentary	-13573
▁contingent	-13574
▁deductions	-13575
▁enrichment	-13576
▁neoliberal	-13577
▁powerhouse	-13578
▁pragmatism	-13579
▁prevalence	-13580
▁recovering	-13581
▁sacrifices	-13582
▁stabilized	-13583
▁structured	-13584
▁tendencies	-13585
surprisingly	-13586
▁appreciated	-13587
▁campaigners	-13588
▁commissions	-13589
▁contracting	-13590
▁contributor	-13591
▁deteriorate	-13592
▁disciplines	-13593
▁investigate	-13594
▁mathematics	-13595
▁orientation	-13596
▁pessimistic	-13597
▁preparation	-13598
▁retaliation	-13599
▁Agricultural	-13600
▁compromising	-13601
▁consolidated	-13602
▁consultation	-13603
▁cosmopolitan	-13604
▁discouraging	-13605
▁headquarters	-13606
▁hydrocarbons	-13607
▁transferring	-13608
▁complications	-13609
▁nationalistic	-13610
EF	-13611
FP	-13612
JP	-13613
ML	-13614
OE	-13615
uy	-13616
és	-13617
EVA	-13618
chi	-13619
dog	-13620
ids	-13621
mir	-13622
rip	-13623
rob	-13624
rov	-13625
▁29	-13626
▁Il	-13627
EOUL	-13628
HOLM	-13629
apor	-13630
blem	-13631
bond	-13632
dule	-13633
fair	-13634
held	-13635
hind	-13636
iden	-13637
ilma	-13638
meal	-13639
otyp	-13640
ours	-13641
paid	-13642
rows	-13643
take	-13644
text	-13645
uber	-13646
warf	-13647
▁$30	-13648
▁1%.	-13649
▁183	-13650
▁42%	-13651
▁EMU	-13652
▁GNP	-13653
▁Ger	-13654
▁Gul	-13655
▁Hun	-13656
▁Los	-13657
▁MGI	-13658
▁Rap	-13659
▁Tam	-13660
▁ans	-13661
▁haw	-13662
▁mac	-13663
▁mic	-13664
▁sla	-13665
▁til	-13666
▁woe	-13667
Great	-13668
Mobil	-13669
aders	-13670
angel	-13671
antil	-13672
chant	-13673
idity	-13674
iency	-13675
illes	-13676
izumi	-13677
nesty	-13678
orous	-13679
pling	-13680
umber	-13681
▁$200	-13682
▁1940	-13683
▁1995	-13684
▁Amid	-13685
▁Club	-13686
▁Come	-13687
▁Dist	-13688
▁EFSF	-13689
▁Fern	-13690
▁Mikh	-13691
▁Nich	-13692
▁Oslo	-13693
▁PISA	-13694
▁USSR	-13695
▁Vict	-13696
▁bull	-13697
▁clou	-13698
▁dece	-13699
▁drew	-13700
▁glac	-13701
▁hole	-13702
▁inqu	-13703
▁peas	-13704
▁pour	-13705
▁proc	-13706
▁ruin	-13707
▁synd	-13708
▁ugly	-13709
▁unre	-13710
▁unve	-13711
▁vend	-13712
▁wasn	-13713
CKHOLM	-13714
Keynes	-13715
buying	-13716
franch	-13717
ifting	-13718
losion	-13719
ousing	-13720
paying	-13721
placed	-13722
ragile	-13723
riding	-13724
▁1980,	-13725
▁2000’	-13726
▁2004.	-13727
▁Anglo	-13728
▁Based	-13729
▁Cross	-13730
▁Dilma	-13731
▁Leave	-13732
▁Local	-13733
▁Mayor	-13734
▁Poles	-13735
▁Price	-13736
▁SEOUL	-13737
▁absor	-13738
▁aided	-13739
▁arena	-13740
▁blocs	-13741
▁copyr	-13742
▁downs	-13743
▁dwarf	-13744
▁envis	-13745
▁esche	-13746
▁haunt	-13747
▁libel	-13748
▁looph	-13749
▁lucky	-13750
▁marry	-13751
▁mayor	-13752
▁rents	-13753
▁sugar	-13754
▁suits	-13755
▁unsur	-13756
▁usage	-13757
banking	-13758
billion	-13759
educing	-13760
ensible	-13761
feating	-13762
increas	-13763
itively	-13764
neutral	-13765
ography	-13766
politik	-13767
▁20,000	-13768
▁Bernie	-13769
▁Ending	-13770
▁GENEVA	-13771
▁Gender	-13772
▁Little	-13773
▁Rogoff	-13774
▁broker	-13775
▁derive	-13776
▁elabor	-13777
▁finger	-13778
▁golden	-13779
▁havens	-13780
▁hugely	-13781
▁mantra	-13782
▁passes	-13783
▁prover	-13784
▁redund	-13785
▁rigged	-13786
▁salary	-13787
▁scaled	-13788
▁seldom	-13789
▁sister	-13790
▁stifle	-13791
▁tactic	-13792
▁unlock	-13793
▁varied	-13794
Atlantic	-13795
Pakistan	-13796
earnings	-13797
ensurate	-13798
renching	-13799
▁Burmese	-13800
▁Chilean	-13801
▁Eurasia	-13802
▁Kashmir	-13803
▁Kenneth	-13804
▁Koizumi	-13805
▁Lagarde	-13806
▁Medical	-13807
▁Mikhail	-13808
▁Tencent	-13809
▁Volcker	-13810
▁anymore	-13811
▁blaming	-13812
▁bloated	-13813
▁clauses	-13814
▁defines	-13815
▁dumping	-13816
▁fearing	-13817
▁impeded	-13818
▁inflict	-13819
▁inherit	-13820
▁insider	-13821
▁instant	-13822
▁longest	-13823
▁passive	-13824
▁polling	-13825
▁provoke	-13826
▁rejects	-13827
▁slavery	-13828
▁smokers	-13829
▁stature	-13830
▁symbols	-13831
▁writers	-13832
alitarian	-13833
etization	-13834
president	-13835
uckerberg	-13836
▁Abdullah	-13837
▁Ensuring	-13838
▁Kirchner	-13839
▁Pinochet	-13840
▁Slovakia	-13841
▁answered	-13842
▁asserted	-13843
▁assessed	-13844
▁critique	-13845
▁detained	-13846
▁district	-13847
▁escaping	-13848
▁goodwill	-13849
▁hardline	-13850
▁meddling	-13851
▁observer	-13852
▁obsessed	-13853
▁operated	-13854
▁perilous	-13855
▁polluted	-13856
▁presumed	-13857
▁proceeds	-13858
▁prohibit	-13859
▁radicals	-13860
▁reactors	-13861
▁reaffirm	-13862
▁resolute	-13863
▁rewarded	-13864
▁schedule	-13865
▁sciences	-13866
▁senators	-13867
▁sticking	-13868
▁stresses	-13869
▁supplier	-13870
▁takeover	-13871
▁tradeoff	-13872
▁traveled	-13873
▁tropical	-13874
▁Alexander	-13875
▁Arunachal	-13876
▁Governing	-13877
▁STOCKHOLM	-13878
▁abolished	-13879
▁abundance	-13880
▁adjusting	-13881
▁anonymous	-13882
▁attribute	-13883
▁beautiful	-13884
▁civilized	-13885
▁colleague	-13886
▁consuming	-13887
▁criterion	-13888
▁defenders	-13889
▁disrupted	-13890
▁dominates	-13891
▁downturns	-13892
▁egregious	-13893
▁excluding	-13894
▁exploring	-13895
▁fortunate	-13896
▁fulfilled	-13897
▁importers	-13898
▁installed	-13899
▁jihadists	-13900
▁listening	-13901
▁massively	-13902
▁northeast	-13903
▁occupying	-13904
▁organisms	-13905
▁pandemics	-13906
▁paralyzed	-13907
▁readiness	-13908
▁reckoning	-13909
▁searching	-13910
▁servicing	-13911
▁subsidize	-13912
▁survivors	-13913
▁testimony	-13914
▁turbulent	-13915
▁underpins	-13916
▁uprisings	-13917
▁ExxonMobil	-13918
▁Innovation	-13919
▁Yugoslavia	-13920
▁analytical	-13921
▁architects	-13922
▁conception	-13923
▁convention	-13924
▁distortion	-13925
▁domination	-13926
▁downstream	-13927
▁endangered	-13928
▁geographic	-13929
▁grassroots	-13930
▁hardliners	-13931
▁helicopter	-13932
▁incumbents	-13933
▁influences	-13934
▁invaluable	-13935
▁multipolar	-13936
▁preventive	-13937
▁references	-13938
▁reiterated	-13939
▁resurgence	-13940
▁standpoint	-13941
▁successors	-13942
▁undeniable	-13943
▁unraveling	-13944
▁Independent	-13945
▁advancement	-13946
▁articulated	-13947
▁automobiles	-13948
▁campaigning	-13949
▁corporation	-13950
▁facilitates	-13951
▁incorporate	-13952
▁influencing	-13953
▁preoccupied	-13954
▁programming	-13955
▁questioning	-13956
▁stewardship	-13957
▁Commonwealth	-13958
▁attributable	-13959
▁constituents	-13960
▁generational	-13961
▁peacekeeping	-13962
▁prerequisite	-13963
▁relentlessly	-13964
▁assassination	-13965
▁demonstration	-13966
▁entertainment	-13967
▁harmonization	-13968
▁mismanagement	-13969
▁mutualization	-13970
▁philosophical	-13971
▁supranational	-13972
▁Unsurprisingly	-13973
▁conditionality	-13974
▁intermediaries	-13975
▁predictability	-13976
10	-13977
AA	-13978
CL	-13979
GU	-13980
LE	-13981
di	-13982
iy	-13983
▁­	-13984
-90	-13985
HEN	-13986
One	-13987
can	-13988
een	-13989
ela	-13990
gue	-13991
hea	-13992
iko	-13993
ión	-13994
ofi	-13995
oln	-13996
tal	-13997
zhe	-13998
ïve	-13999
▁33	-14000
▁6,	-14001
▁BP	-14002
▁IS	-14003
....	-14004
PBOC	-14005
acea	-14006
acks	-14007
exus	-14008
fake	-14009
from	-14010
inda	-14011
main	-14012
ocke	-14013
rape	-14014
razy	-14015
sent	-14016
turn	-14017
ukou	-14018
viol	-14019
xual	-14020
▁1.8	-14021
▁44%	-14022
▁CBO	-14023
▁Heb	-14024
▁LDP	-14025
▁Lou	-14026
▁Sho	-14027
▁Tea	-14028
▁Tro	-14029
▁cro	-14030
▁fel	-14031
▁hoc	-14032
▁jar	-14033
▁mom	-14034
▁tip	-14035
,000,	-14036
ammar	-14037
chnya	-14038
const	-14039
icate	-14040
index	-14041
ocene	-14042
ogene	-14043
osity	-14044
prise	-14045
rooms	-14046
stage	-14047
still	-14048
umbia	-14049
ustry	-14050
utive	-14051
▁0.7%	-14052
▁1967	-14053
▁Airb	-14054
▁Aung	-14055
▁Boko	-14056
▁Else	-14057
▁Hans	-14058
▁Iron	-14059
▁Karl	-14060
▁Mike	-14061
▁Self	-14062
▁Sett	-14063
▁Task	-14064
▁Test	-14065
▁Tric	-14066
▁Vacc	-14067
▁Were	-14068
▁asks	-14069
▁awak	-14070
▁dorm	-14071
▁fans	-14072
▁furn	-14073
▁gear	-14074
▁hall	-14075
▁ills	-14076
▁lows	-14077
▁plug	-14078
▁pond	-14079
▁sand	-14080
▁sink	-14081
▁stip	-14082
▁tyco	-14083
▁unsu	-14084
atched	-14085
conian	-14086
ipient	-14087
nation	-14088
ocused	-14089
olving	-14090
riched	-14091
roatia	-14092
scious	-14093
ularly	-14094
▁1973,	-14095
▁Abdel	-14096
▁Alzhe	-14097
▁Biden	-14098
▁Filip	-14099
▁Haram	-14100
▁Hayek	-14101
▁Integ	-14102
▁Laden	-14103
▁Naval	-14104
▁Nexus	-14105
▁Owing	-14106
▁Renzi	-14107
▁Round	-14108
▁Turks	-14109
▁Yukos	-14110
▁arose	-14111
▁clamp	-14112
▁cling	-14113
▁clust	-14114
▁draws	-14115
▁filed	-14116
▁highs	-14117
▁inner	-14118
▁laund	-14119
▁lingu	-14120
▁loses	-14121
▁meets	-14122
▁naïve	-14123
▁neuro	-14124
▁petty	-14125
▁recei	-14126
▁recru	-14127
▁riots	-14128
▁scrat	-14129
▁shaky	-14130
▁shoes	-14131
▁siege	-14132
▁sorry	-14133
▁spoil	-14134
▁thank	-14135
▁vocal	-14136
healthy	-14137
icament	-14138
lasting	-14139
lective	-14140
ocratic	-14141
rafting	-14142
ranking	-14143
ristina	-14144
secular	-14145
urances	-14146
▁Annual	-14147
▁Castro	-14148
▁Direct	-14149
▁Jeremy	-14150
▁Maduro	-14151
▁Morgan	-14152
▁Mozamb	-14153
▁Taking	-14154
▁Threat	-14155
▁anchor	-14156
▁ascend	-14157
▁babies	-14158
▁couldn	-14159
▁crowds	-14160
▁crunch	-14161
▁defect	-14162
▁delays	-14163
▁digest	-14164
▁domain	-14165
▁embold	-14166
▁endang	-14167
▁extrav	-14168
▁hiding	-14169
▁impair	-14170
▁ironic	-14171
▁mirror	-14172
▁misery	-14173
▁misuse	-14174
▁motion	-14175
▁myself	-14176
▁nearby	-14177
▁occupy	-14178
▁oxygen	-14179
▁patron	-14180
▁priced	-14181
▁puzzle	-14182
▁racist	-14183
▁sacred	-14184
▁skewed	-14185
▁staged	-14186
▁transc	-14187
▁tumult	-14188
▁wildly	-14189
▁writes	-14190
designed	-14191
itigroup	-14192
pectedly	-14193
ribution	-14194
tradable	-14195
whatever	-14196
▁Baghdad	-14197
▁Catalan	-14198
▁Charlie	-14199
▁Judging	-14200
▁Muammar	-14201
▁Pandora	-14202
▁accepts	-14203
▁conform	-14204
▁conglom	-14205
▁cricket	-14206
▁debacle	-14207
▁divides	-14208
▁emitted	-14209
▁emperor	-14210
▁ensured	-14211
▁faction	-14212
▁filling	-14213
▁fosters	-14214
▁hosting	-14215
▁nascent	-14216
▁orchest	-14217
▁panacea	-14218
▁patents	-14219
▁pursues	-14220
▁redress	-14221
▁risking	-14222
▁seeming	-14223
▁selfish	-14224
▁solvent	-14225
▁station	-14226
▁suffice	-14227
▁surgery	-14228
▁teacher	-14229
▁upgrade	-14230
▁wrought	-14231
President	-14232
democracy	-14233
icultural	-14234
itionally	-14235
▁Chechnya	-14236
▁Columbia	-14237
▁Creating	-14238
▁Managing	-14239
▁Medicaid	-14240
▁Nicholas	-14241
▁airlines	-14242
▁antioxid	-14243
▁bombings	-14244
▁canceled	-14245
▁commemor	-14246
▁congress	-14247
▁database	-14248
▁delaying	-14249
▁delicate	-14250
▁destined	-14251
▁deterred	-14252
▁diamonds	-14253
▁elevated	-14254
▁exciting	-14255
▁finished	-14256
▁friction	-14257
▁hardship	-14258
▁headscar	-14259
▁hesitate	-14260
▁inadvert	-14261
▁legacies	-14262
▁mandated	-14263
▁modified	-14264
▁peasants	-14265
▁promotes	-14266
▁reassert	-14267
▁relation	-14268
▁retirees	-14269
▁sequence	-14270
▁surgical	-14271
▁vitality	-14272
ignificant	-14273
ortsighted	-14274
▁Abenomics	-14275
▁Alzheimer	-14276
▁Eurogroup	-14277
▁Household	-14278
▁Solutions	-14279
▁apartheid	-14280
▁assembled	-14281
▁believers	-14282
▁calculate	-14283
▁contested	-14284
▁depletion	-14285
▁designing	-14286
▁dismantle	-14287
▁divergent	-14288
▁downgrade	-14289
▁encompass	-14290
▁hegemonic	-14291
▁homegrown	-14292
▁invention	-14293
▁invisible	-14294
▁measuring	-14295
▁moderates	-14296
▁pathogens	-14297
▁populated	-14298
▁preceding	-14299
▁prompting	-14300
▁repeating	-14301
▁requested	-14302
▁stagnated	-14303
▁subjected	-14304
▁supremacy	-14305
▁surrogacy	-14306
▁untenable	-14307
▁unusually	-14308
▁varieties	-14309
consumption	-14310
▁Corruption	-14311
▁Employment	-14312
▁Keynesians	-14313
▁atrocities	-14314
▁completing	-14315
▁federation	-14316
▁hesitation	-14317
▁illustrate	-14318
▁ironically	-14319
▁overvalued	-14320
▁pessimists	-14321
▁plummeting	-14322
▁restraints	-14323
▁sovereigns	-14324
▁surrounded	-14325
▁vigorously	-14326
roprudential	-14327
▁Opportunity	-14328
▁Recognizing	-14329
▁astonishing	-14330
▁compensated	-14331
▁convenience	-14332
▁determinant	-14333
▁discouraged	-14334
▁egalitarian	-14335
▁exploration	-14336
▁interpreted	-14337
▁predicament	-14338
▁preventable	-14339
▁sensitivity	-14340
▁subsistence	-14341
▁suppressing	-14342
▁associations	-14343
▁commensurate	-14344
▁demographics	-14345
▁individually	-14346
▁investigated	-14347
▁ratification	-14348
▁satisfaction	-14349
▁Revolutionary	-14350
▁antimicrobial	-14351
▁demonstrators	-14352
▁inappropriate	-14353
▁extraordinarily	-14354
▁technologically	-14355
BD	-14356
En	-14357
MA	-14358
NB	-14359
PJ	-14360
Zs	-14361
[...]
