<unk>	0
<pad>	0
<s>	0
</s>	0
▁—	-0
经济	-1
中国	-2
美国	-3
国家	-4
▁但	-5
20	-6
一个	-7
欧洲	-8
我们	-9
可能	-10
政府	-11
▁这	-12
他们	-13
问题	-14
世界	-15
▁在	-16
可以	-17
全球	-18
增长	-19
政策	-20
这一	-21
政治	-22
已经	-23
没有	-24
欧盟	-25
需要	-26
市场	-27
▁”	-28
▁,	-29
银行	-30
其他	-31
这些	-32
因为	-33
如果	-34
投资	-35
▁。	-36
主义	-37
金融	-38
以及	-39
发展	-40
必须	-41
▁)	-42
危机	-43
社会	-44
国际	-45
▁而	-46
英国	-47
重要	-48
应该	-49
00	-50
大的	-51
影响	-52
领导	-53
不是	-54
201	-55
它们	-56
货币	-57
支持	-58
通过	-59
▁%	-60
因此	-61
地区	-62
美元	-63
事实	-64
所有	-65
方面	-66
19	-67
企业	-68
200	-69
认为	-70
尽管	-71
实现	-72
民主	-73
成为	-74
正在	-75
同时	-76
计划	-77
的是	-78
目标	-79
无法	-80
的人	-81
解决	-82
欧元	-83
提供	-84
许多	-85
包括	-86
现在	-87
这样	-88
总统	-89
部分	-90
导致	-91
能够	-92
进行	-93
增加	-94
贸易	-95
情况	-96
公司	-97
开始	-98
组织	-99
债务	-100
改革	-101
如此	-102
就是	-103
自己	-104
▁如果	-105
收入	-106
的经济	-107
自由	-108
变化	-109
的一	-110
风险	-111
未来	-112
财政	-113
技术	-114
▁但是	-115
事实上	-116
人们	-117
机构	-118
带来	-119
安全	-120
主要	-121
资本	-122
长期	-123
基础	-124
获得	-125
持续	-126
这个	-127
一些	-128
非洲	-129
生产	-130
▁当	-131
发生	-132
工作	-133
领导人	-134
▁中国	-135
能源	-136
什么	-137
▁“	-138
之间	-139
目前	-140
罗斯	-141
采取	-142
年的	-143
德国	-144
更加	-145
研究	-146
任何	-147
行动	-148
存在	-149
结果	-150
世纪	-151
气候	-152
要求	-153
关系	-154
那些	-155
▁事实上	-156
印度	-157
最近	-158
更多	-159
那么	-160
过去	-161
俄罗斯	-162
到了	-163
▁此	-164
特别	-165
成员	-166
性的	-167
的国家	-168
不会	-169
央行	-170
稳定	-171
挑战	-172
造成	-173
成功	-174
作为	-175
规模	-176
日本	-177
DP	-178
甚至	-179
价格	-180
这种	-181
合作	-182
环境	-183
▁我们	-184
面临	-185
也是	-186
利益	-187
严重	-188
国内	-189
GDP	-190
新的	-191
时间	-192
亚洲	-193
战略	-194
人的	-195
中的	-196
联合	-197
决定	-198
以来	-199
利率	-200
比如	-201
消费	-202
对于	-203
十年	-204
继续	-205
an	-206
不同	-207
▁因此	-208
亿美元	-209
人民	-210
er	-211
服务	-212
欧元区	-213
如何	-214
措施	-215
并不	-216
如今	-217
意味	-218
建立	-219
教育	-220
公共	-221
一直	-222
▁美国	-223
成本	-224
产生	-225
水平	-226
力的	-227
▁此外	-228
选择	-229
特朗	-230
一种	-231
只有	-232
机会	-233
提高	-234
系统	-235
意味着	-236
学家	-237
特朗普	-238
作用	-239
国家的	-240
这样的	-241
出现	-242
▁不	-243
表明	-244
下降	-245
仍然	-246
来说	-247
威胁	-248
部门	-249
随着	-250
同样	-251
保护	-252
实施	-253
▁尽管	-254
令人	-255
国的	-256
战争	-257
实际	-258
竞争	-259
历史	-260
希望	-261
原因	-262
并且	-263
最终	-264
行为	-265
资产	-266
一步	-267
他们的	-268
on	-269
中国的	-270
监管	-271
需求	-272
联盟	-273
使用	-274
制度	-275
生活	-276
的问题	-277
改变	-278
关键	-279
拥有	-280
能力	-281
价值	-282
经济体	-283
方案	-284
利亚	-285
来自	-286
移民	-287
不可	-288
共同	-289
不能	-290
协议	-291
管理	-292
基金	-293
降低	-294
劳动	-295
斯坦	-296
特别是	-297
似乎	-298
项目	-299
出口	-300
资源	-301
控制	-302
时候	-303
为了	-304
委员	-305
是否	-306
承诺	-307
有效	-308
▁这一	-309
资金	-310
选举	-311
西方	-312
反对	-313
还是	-314
人口	-315
▁这些	-316
伊朗	-317
非常	-318
减少	-319
美国的	-320
决策	-321
多数	-322
创造	-323
接受	-324
法国	-325
因素	-326
上的	-327
方式	-328
各国	-329
的情况	-330
其中	-331
体系	-332
委员会	-333
数据	-334
▁与	-335
受到	-336
大部分	-337
从而	-338
程度	-339
也许	-340
即使	-341
冲突	-342
几乎	-343
一样	-344
考虑	-345
有可能	-346
确保	-347
完全	-348
超过	-349
保持	-350
是一个	-351
地方	-352
和平	-353
领域	-354
不断	-355
由于	-356
和其他	-357
的最	-358
▁(	-359
谈判	-360
模式	-361
设施	-362
不仅	-363
力量	-364
提出	-365
自身	-366
进一步	-367
外交	-368
得到	-369
的政治	-370
之一	-371
家庭	-372
城市	-373
▁欧洲	-374
类似	-375
或者	-376
了一	-377
那样	-378
还有	-379
真正	-380
就业	-381
重新	-382
联合国	-383
发达	-384
制定	-385
化的	-386
ar	-387
年代	-388
贷款	-389
虽然	-390
en	-391
▁从	-392
帮助	-393
来越	-394
避免	-395
参与	-396
联储	-397
越来越	-398
关注	-399
军事	-400
▁他们	-401
改善	-402
的新	-403
相反	-404
结构	-405
变得	-406
自己的	-407
活动	-408
推动	-409
而且	-410
观点	-411
而不是	-412
美联储	-413
基本	-414
通胀	-415
气候变化	-416
利用	-417
50	-418
破坏	-419
一次	-420
应对	-421
他的	-422
某些	-423
成员国	-424
in	-425
10	-426
者的	-427
▁比如	-428
创新	-429
都是	-430
取得	-431
大量	-432
今天	-433
巴马	-434
相当	-435
好的	-436
援助	-437
赤字	-438
▁对	-439
医疗	-440
奥巴马	-441
贫困	-442
过程	-443
30	-444
刺激	-445
000	-446
al	-447
支出	-448
之间的	-449
相关	-450
限制	-451
平等	-452
责任	-453
基础设施	-454
色列	-455
以色列	-456
表现	-457
数字	-458
做出	-459
起来	-460
只是	-461
具有	-462
方法	-463
规则	-464
的政策	-465
根本	-466
地位	-467
现实	-468
信息	-469
状况	-470
的大	-471
关于	-472
拉克	-473
法律	-474
首先	-475
健康	-476
危险	-477
ti	-478
重要的	-479
传统	-480
制造	-481
预算	-482
会议	-483
在于	-484
民众	-485
上升	-486
经济增长	-487
债券	-488
上述	-489
努力	-490
全世界	-491
199	-492
新兴	-493
可能会	-494
知道	-495
当前	-496
日益	-497
至少	-498
报告	-499
条件	-500
用于	-501
确定	-502
指出	-503
压力	-504
▁当然	-505
人类	-506
投资者	-507
巨大的	-508
个人	-509
繁荣	-510
融资	-511
结束	-512
的话	-513
▁最	-514
希腊	-515
的影响	-516
发现	-517
公民	-518
机制	-519
阿拉	-520
可持续	-521
交易	-522
独立	-523
维持	-524
是在	-525
平衡	-526
事件	-527
显然	-528
革命	-529
将会	-530
相对	-531
很多	-532
意大	-533
此同时	-534
▁我	-535
商业	-536
官员	-537
民族	-538
权力	-539
而言	-540
意大利	-541
土耳	-542
恐怖	-543
土耳其	-544
▁他	-545
石油	-546
尤其	-547
2008	-548
扩大	-549
经济学家	-550
▁其	-551
我们的	-552
后的	-553
or	-554
成了	-555
▁如今	-556
今年	-557
私人	-558
整个	-559
共和	-560
就会	-561
直接	-562
预测	-563
时代	-564
难民	-565
才能	-566
武器	-567
陷入	-568
衰退	-569
▁有	-570
必要	-571
识到	-572
运动	-573
发展中国	-574
商品	-575
依赖	-576
第二	-577
调整	-578
劳动力	-579
后果	-580
税收	-581
错误	-582
进步	-583
标准	-584
金融危机	-585
发展中国家	-586
试图	-587
阿拉伯	-588
代表	-589
爆发	-590
行业	-591
伊斯	-592
不再	-593
尼亚	-594
工业	-595
开发	-596
年轻	-597
的情况下	-598
进入	-599
排放	-600
之前	-601
经济的	-602
科学	-603
所谓	-604
克兰	-605
损失	-606
外国	-607
伊斯兰	-608
主权	-609
巴西	-610
乌克兰	-611
达到	-612
年来	-613
大规模	-614
两个	-615
失业	-616
而是	-617
建设	-618
趋势	-619
担心	-620
针对	-621
这一点	-622
问题的	-623
核心	-624
内部	-625
明确	-626
根据	-627
叙利亚	-628
及其	-629
不可能	-630
依然	-631
媒体	-632
儿童	-633
十分	-634
每年	-635
产品	-636
流动	-637
选民	-638
更多的	-639
相信	-640
证明	-641
▁它	-642
中东	-643
伙伴	-644
汇率	-645
或许	-646
一场	-647
储蓄	-648
文化	-649
难以	-650
现代	-651
唯一	-652
年前	-653
理解	-654
行的	-655
正确	-656
▁S	-657
,000	-658
去年	-659
▁与此同时	-660
欧洲央行	-661
公众	-662
迅速	-663
大幅	-664
有所	-665
极端	-666
复杂	-667
正如	-668
政府的	-669
之后	-670
解释	-671
的全球	-672
意义	-673
但是	-674
大学	-675
阻止	-676
生产率	-677
失败	-678
短期	-679
大多数	-680
准备	-681
货币政策	-682
反应	-683
手段	-684
议会	-685
的时候	-686
主席	-687
积极	-688
视为	-689
伊拉克	-690
欧洲的	-691
不足	-692
吸引	-693
并非	-694
网络	-695
引发	-696
更为	-697
加入	-698
来的	-699
▁随着	-700
期间	-701
农业	-702
中央	-703
卫生	-704
有的	-705
埃及	-706
承认	-707
▁一	-708
经历	-709
并没有	-710
面对	-711
个月	-712
往往	-713
宣布	-714
范围	-715
▁相反	-716
不到	-717
应当	-718
比亚	-719
广泛	-720
拒绝	-721
▁首先	-722
了一个	-723
容易	-724
中心	-725
促进	-726
权利	-727
条约	-728
联邦	-729
平均	-730
基于	-731
达成	-732
遏制	-733
足够	-734
理由	-735
治理	-736
重大	-737
助于	-738
无论	-739
削减	-740
讨论	-741
一致	-742
复苏	-743
然而	-744
腐败	-745
过度	-746
80	-747
只能	-748
缺乏	-749
市场的	-750
这是	-751
领袖	-752
暴力	-753
最大的	-754
▁201	-755
▁C	-756
人民币	-757
将在	-758
总理	-759
es	-760
布什	-761
灾难	-762
方面的	-763
▁:	-764
贬值	-765
财富	-766
不平等	-767
允许	-768
形成	-769
快速	-770
收益	-771
数量	-772
显示	-773
预期	-774
▁虽然	-775
工具	-776
下的	-777
代价	-778
执行	-779
时期	-780
死亡	-781
带来的	-782
.5	-783
也不	-784
支付	-785
调查	-786
第三	-787
政权	-788
充分	-789
自然	-790
崛起	-791
干预	-792
它们的	-793
愿意	-794
形式	-795
失去	-796
仅仅	-797
地区的	-798
开放	-799
▁该	-800
毫无	-801
高的	-802
▁更	-803
办法	-804
有利	-805
欧盟的	-806
11	-807
加强	-808
经常	-809
ic	-810
协定	-811
通常	-812
班牙	-813
西班牙	-814
巨大	-815
强调	-816
转型	-817
进程	-818
民粹	-819
集团	-820
疾病	-821
▁现在	-822
联系	-823
富汗	-824
阿富汗	-825
伦敦	-826
决策者	-827
一项	-828
好处	-829
承担	-830
的信	-831
速度	-832
共和党	-833
经验	-834
主义者	-835
经济学	-836
保证	-837
外部	-838
鼓励	-839
实际上	-840
批评	-841
正是	-842
紧缩	-843
出了	-844
原则	-845
工资	-846
感到	-847
购买	-848
引起	-849
效率	-850
负债	-851
人员	-852
反映	-853
有助于	-854
的美国	-855
60	-856
分子	-857
寻求	-858
毕竟	-859
韩国	-860
的增长	-861
90	-862
投票	-863
某种	-864
MF	-865
理论	-866
进口	-867
评估	-868
集中	-869
发达国家	-870
70	-871
除了	-872
12	-873
有关	-874
燃料	-875
知识	-876
部长	-877
合理	-878
目的	-879
赢得	-880
转移	-881
政策的	-882
所以	-883
扩张	-884
治疗	-885
角色	-886
IMF	-887
15	-888
巴勒	-889
的欧洲	-890
之外	-891
任务	-892
公开	-893
处于	-894
巴勒斯坦	-895
实力	-896
主义的	-897
并不是	-898
女性	-899
朝鲜	-900
比例	-901
人权	-902
优势	-903
潜在	-904
恢复	-905
即便	-906
强化	-907
储备	-908
框架	-909
认识到	-910
专家	-911
完成	-912
简单	-913
在一	-914
统治	-915
的主要	-916
el	-917
处理	-918
建议	-919
纽约	-920
多的	-921
第一	-922
▁P	-923
的目标	-924
再次	-925
所谓的	-926
困难	-927
国会	-928
大约	-929
▁欧盟	-930
其他国家	-931
合法	-932
道德	-933
▁然而	-934
供应	-935
成立	-936
退出	-937
的支持	-938
本身	-939
工人	-940
40	-941
▁、	-942
的那样	-943
另一	-944
阿根	-945
全面	-946
增长的	-947
确实	-948
阿根廷	-949
也会	-950
政党	-951
另一个	-952
全球经济	-953
担忧	-954
的不	-955
▁A	-956
转变	-957
妇女	-958
立场	-959
策略	-960
是因为	-961
分析	-962
的风险	-963
百万	-964
例如	-965
肯定	-966
防止	-967
动荡	-968
表示	-969
▁就	-970
也在	-971
公平	-972
巴基	-973
当局	-974
▁M	-975
群体	-976
▁发	-977
例子	-978
曾经	-979
巴基斯坦	-980
两国	-981
态度	-982
穆斯	-983
程度上	-984
▁目前	-985
的社会	-986
看到	-987
福利	-988
▁这种	-989
穆斯林	-990
25	-991
is	-992
普京	-993
▁为了	-994
为什么	-995
民主党	-996
消费者	-997
的方式	-998
塞尔	-999
▁而且	-1000
tion	-1001
的一个	-1002
统一	-1003
它的	-1004
宗教	-1005
证据	-1006
▁毕竟	-1007
人都	-1008
只要	-1009
年中	-1010
生命	-1011
下跌	-1012
▁由于	-1013
加剧	-1014
很大	-1015
污染	-1016
和经济	-1017
造成的	-1018
崩溃	-1019
打击	-1020
相比	-1021
解决方案	-1022
冲击	-1023
▁但这	-1024
脆弱	-1025
▁即使	-1026
▁的	-1027
国民	-1028
生物	-1029
秩序	-1030
也将	-1031
想要	-1032
效果	-1033
进展	-1034
追求	-1035
找到	-1036
▁英国	-1037
▁》	-1038
袭击	-1039
增长率	-1040
和政治	-1041
宪法	-1042
▁这样	-1043
可能性	-1044
保守	-1045
▁但在	-1046
美国和	-1047
也有	-1048
削弱	-1049
银行的	-1050
2015	-1051
满足	-1052
坚持	-1053
习近	-1054
体制	-1055
这场	-1056
▁发自	-1057
习近平	-1058
常常	-1059
质量	-1060
严重的	-1061
更大的	-1062
左右	-1063
明显	-1064
思想	-1065
逐渐	-1066
巴黎	-1067
怀疑	-1068
it	-1069
具体	-1070
现象	-1071
贡献	-1072
将是	-1073
预计	-1074
的国际	-1075
保险	-1076
远远	-1077
事情	-1078
总体	-1079
激励	-1080
观察	-1081
▁它们	-1082
东西	-1083
▁一个	-1084
年以来	-1085
做法	-1086
情绪	-1087
全球化	-1088
使得	-1089
即将	-1090
年轻人	-1091
前景	-1092
系列	-1093
at	-1094
宽松	-1095
▁最后	-1096
的关键	-1097
基金组织	-1098
分配	-1099
最大	-1100
消息	-1101
▁对于	-1102
一位	-1103
技能	-1104
至关	-1105
▁因为	-1106
工程	-1107
真实	-1108
▁许多	-1109
并未	-1110
方针	-1111
普遍	-1112
强大的	-1113
的原因	-1114
需要的	-1115
面临着	-1116
万亿美元	-1117
一切	-1118
其实	-1119
宏观	-1120
放弃	-1121
障碍	-1122
发挥	-1123
局面	-1124
膨胀	-1125
设计	-1126
的世界	-1127
一体	-1128
值得	-1129
提升	-1130
2010	-1131
很难	-1132
都会	-1133
政客	-1134
新闻	-1135
状态	-1136
il	-1137
区域	-1138
注意	-1139
互联	-1140
天然	-1141
少数	-1142
恶化	-1143
正式	-1144
制裁	-1145
官方	-1146
金融市场	-1147
▁以	-1148
同意	-1149
泡沫	-1150
的政府	-1151
的能力	-1152
美国人	-1153
1.	-1154
▁结果	-1155
地球	-1156
滋病	-1157
事务	-1158
共识	-1159
各种	-1160
组成	-1161
货币基金组织	-1162
一定	-1163
共产	-1164
执政	-1165
▁要	-1166
国有	-1167
土地	-1168
的高	-1169
糟糕	-1170
艾滋病	-1171
▁自	-1172
峰会	-1173
想象	-1174
清楚	-1175
提供了	-1176
个国家	-1177
单一	-1178
回报	-1179
也没有	-1180
真正的	-1181
18	-1182
am	-1183
投入	-1184
方向	-1185
精英	-1186
▁特别是	-1187
分裂	-1188
破产	-1189
阶级	-1190
▁世界	-1191
▁这是	-1192
信用	-1193
军队	-1194
道路	-1195
可以在	-1196
和社会	-1197
的结果	-1198
的重要	-1199
地产	-1200
教训	-1201
精神	-1202
苏联	-1203
负担	-1204
了解	-1205
规定	-1206
角度	-1207
波动	-1208
阶段	-1209
大陆	-1210
领土	-1211
问题上	-1212
停滞	-1213
大选	-1214
补贴	-1215
om	-1216
主导	-1217
墨西	-1218
而非	-1219
▁R	-1220
负责	-1221
墨西哥	-1222
不但	-1223
立法	-1224
重组	-1225
▁据	-1226
为止	-1227
决于	-1228
取决于	-1229
重要的是	-1230
产业	-1231
层面	-1232
显著	-1233
永远	-1234
汽车	-1235
该国	-1236
转向	-1237
▁同样	-1238
2009	-1239
▁B	-1240
停止	-1241
得多	-1242
推进	-1243
食品	-1244
ur	-1245
周期	-1246
适应	-1247
争论	-1248
当时	-1249
几十年	-1250
▁也	-1251
华盛	-1252
协调	-1253
很快	-1254
替代	-1255
空间	-1256
▁那么	-1257
华盛顿	-1258
在美国	-1259
相当于	-1260
▁-	-1261
人士	-1262
出的	-1263
有效的	-1264
类似的	-1265
否则	-1266
计算	-1267
国际社会	-1268
攻击	-1269
见的	-1270
在过去	-1271
利润	-1272
符合	-1273
还要	-1274
▁正如	-1275
ac	-1276
▁F	-1277
克里	-1278
忽视	-1279
智能	-1280
脱欧	-1281
低于	-1282
则是	-1283
更好	-1284
账户	-1285
▁所有	-1286
效应	-1287
种族	-1288
科技	-1289
过程中	-1290
民粹主义	-1291
不得	-1292
岗位	-1293
股市	-1294
警告	-1295
美国总统	-1296
互联网	-1297
分之一	-1298
所面临	-1299
呼吁	-1300
对其	-1301
制造业	-1302
不管	-1303
发布	-1304
失业率	-1305
意识	-1306
氧化	-1307
重点	-1308
的机会	-1309
从未	-1310
信任	-1311
团结	-1312
本国	-1313
幸的是	-1314
的挑战	-1315
as	-1316
信心	-1317
充满	-1318
不确定	-1319
▁为	-1320
依靠	-1321
欢迎	-1322
现有	-1323
房地产	-1324
俄国	-1325
候选	-1326
当今	-1327
接近	-1328
放缓	-1329
最高	-1330
天然气	-1331
来源	-1332
看来	-1333
社区	-1334
情况下	-1335
斗争	-1336
概念	-1337
消除	-1338
学生	-1339
致力	-1340
这类	-1341
2013	-1342
0.	-1343
双方	-1344
变革	-1345
多少	-1346
多样	-1347
摆脱	-1348
最后	-1349
也可以	-1350
考虑到	-1351
国际货币基金组织	-1352
化石	-1353
就能	-1354
当地	-1355
彻底	-1356
自身的	-1357
ation	-1358
▁新	-1359
供给	-1360
边境	-1361
变暖	-1362
有人	-1363
股票	-1364
高达	-1365
▁包括	-1366
和美国	-1367
致力于	-1368
▁D	-1369
指标	-1370
机器	-1371
▁19	-1372
最近的	-1373
而不	-1374
透明	-1375
不同的	-1376
的中国	-1377
..	-1378
北约	-1379
2014	-1380
之中	-1381
就像	-1382
而易	-1383
迫使	-1384
除非	-1385
ol	-1386
上涨	-1387
二十	-1388
尔兰	-1389
旨在	-1390
胜利	-1391
都在	-1392
▁G	-1393
农民	-1394
孩子	-1395
构建	-1396
爱尔兰	-1397
被迫	-1398
首相	-1399
危机的	-1400
核武器	-1401
总是	-1402
▁没有	-1403
估计	-1404
独裁	-1405
盟友	-1406
▁中国的	-1407
未能	-1408
性和	-1409
有着	-1410
正确的	-1411
采用	-1412
一直在	-1413
化石燃料	-1414
新兴市场	-1415
伤害	-1416
但却	-1417
差距	-1418
100	-1419
▁政府	-1420
尤其是	-1421
竞争力	-1422
自我	-1423
量的	-1424
的基础	-1425
re	-1426
对手	-1427
更大	-1428
有限	-1429
者和	-1430
通货	-1431
▁以及	-1432
▁通过	-1433
结构性	-1434
不过	-1435
约束	-1436
的发展	-1437
局势	-1438
并在	-1439
疫苗	-1440
出现了	-1441
前的	-1442
在内	-1443
学习	-1444
富裕	-1445
格兰	-1446
紧张	-1447
一代	-1448
地缘	-1449
债权	-1450
萧条	-1451
ent	-1452
以上	-1453
北京	-1454
多边	-1455
退欧	-1456
▁T	-1457
寻找	-1458
▁I	-1459
右翼	-1460
言论	-1461
2007	-1462
克尔	-1463
法院	-1464
▁人们	-1465
让我们	-1466
那就是	-1467
发表	-1468
普通	-1469
的投资	-1470
2012	-1471
人和	-1472
▁例如	-1473
价值观	-1474
双边	-1475
粮食	-1476
更好的	-1477
大大	-1478
正常	-1479
监督	-1480
直到	-1481
缅甸	-1482
集体	-1483
有利于	-1484
假设	-1485
出来	-1486
签署	-1487
缺少	-1488
身份	-1489
事会	-1490
将其	-1491
▁这个	-1492
带来了	-1493
这意味着	-1494
举行	-1495
基因	-1496
开支	-1497
提振	-1498
规划	-1499
长的	-1500
那里	-1501
▁其中	-1502
增加了	-1503
显而易	-1504
2.	-1505
信贷	-1506
前所	-1507
势力	-1508
受益	-1509
禁止	-1510
质疑	-1511
▁作为	-1512
不仅仅	-1513
可以通过	-1514
et	-1515
当选	-1516
的反	-1517
2016	-1518
保障	-1519
是对	-1520
世界上	-1521
流动性	-1522
这样做	-1523
发达经济体	-1524
严格	-1525
增强	-1526
批准	-1527
指责	-1528
真的	-1529
取得了	-1530
的金融	-1531
取代	-1532
外汇	-1533
定义	-1534
是一	-1535
称为	-1536
程序	-1537
背景	-1538
▁根据	-1539
学校	-1540
年后	-1541
生存	-1542
遭到	-1543
and	-1544
在未来	-1545
影响力	-1546
具备	-1547
司法	-1548
扮演	-1549
竞选	-1550
为何	-1551
对此	-1552
相互	-1553
遭受	-1554
量化	-1555
阻碍	-1556
地缘政治	-1557
武装	-1558
疑问	-1559
痛苦	-1560
说法	-1561
世界的	-1562
二氧化	-1563
的同时	-1564
争议	-1565
后者	-1566
对话	-1567
混乱	-1568
潜力	-1569
香港	-1570
▁无论	-1571
全部	-1572
差异	-1573
平台	-1574
盈余	-1575
的研究	-1576
的财政	-1577
中央银行	-1578
▁是	-1579
克林	-1580
思维	-1581
要么	-1582
邻国	-1583
驱动	-1584
▁但如果	-1585
的一部分	-1586
▁到	-1587
▁将	-1588
在这	-1589
高于	-1590
▁类似	-1591
得到了	-1592
报道	-1593
指数	-1594
模型	-1595
比较	-1596
过于	-1597
▁一些	-1598
导致了	-1599
二氧化碳	-1600
外交政策	-1601
当然	-1602
有一	-1603
都不	-1604
候选人	-1605
发生了	-1606
2000	-1607
至关重要	-1608
东盟	-1609
布鲁	-1610
我的	-1611
衡量	-1612
三个	-1613
二战	-1614
公投	-1615
跨国	-1616
鉴于	-1617
▁E	-1618
官僚	-1619
是不	-1620
智利	-1621
相同	-1622
▁最近	-1623
关税	-1624
内容	-1625
激进	-1626
答案	-1627
记录	-1628
该地区	-1629
恐怖主义	-1630
民族主义	-1631
▁不幸的是	-1632
21	-1633
大国	-1634
研发	-1635
所带来的	-1636
可持续发展	-1637
再生	-1638
加速	-1639
可靠	-1640
理念	-1641
随后	-1642
马斯	-1643
一体化	-1644
的观点	-1645
通货膨胀	-1646
启动	-1647
年间	-1648
操纵	-1649
需的	-1650
取消	-1651
实验	-1652
得以	-1653
怎样	-1654
明白	-1655
今天的	-1656
造成了	-1657
2011	-1658
沙特	-1659
访问	-1660
很可能	-1661
所需要的	-1662
尔多	-1663
持有	-1664
波兰	-1665
至于	-1666
▁同时	-1667
不应该	-1668
在欧洲	-1669
科学家	-1670
足够的	-1671
两大	-1672
哥伦	-1673
强大	-1674
癌症	-1675
议院	-1676
▁只有	-1677
的长期	-1678
哥伦比亚	-1679
分歧	-1680
在其	-1681
思考	-1682
美洲	-1683
自动	-1684
▁不管	-1685
前所未	-1686
负债表	-1687
下去	-1688
之下	-1689
强烈	-1690
有些	-1691
杠杆	-1692
▁全球	-1693
ro	-1694
展开	-1695
测试	-1696
统计	-1697
绿色	-1698
走向	-1699
足以	-1700
资产负债表	-1701
很少	-1702
告诉	-1703
实体	-1704
时刻	-1705
然后	-1706
产生的	-1707
就必须	-1708
欧洲人	-1709
经历了	-1710
获得了	-1711
▁类似地	-1712
传染	-1713
农村	-1714
几个	-1715
属于	-1716
能否	-1717
这项	-1718
不得不	-1719
中国和	-1720
未来的	-1721
表现出	-1722
中国经济	-1723
乐观	-1724
克服	-1725
加上	-1726
阿尔	-1727
发生的	-1728
的工作	-1729
世界银行	-1730
我们必须	-1731
太阳	-1732
管制	-1733
维亚	-1734
缺陷	-1735
通缩	-1736
都有	-1737
马克	-1738
资本主义	-1739
2%	-1740
th	-1741
之路	-1742
德里	-1743
最为	-1744
论坛	-1745
同样的	-1746
升级	-1747
退休	-1748
毫无疑问	-1749
仍在	-1750
低的	-1751
困境	-1752
意识到	-1753
倾向	-1754
包容	-1755
才是	-1756
更高	-1757
的前	-1758
说明	-1759
许多人	-1760
安排	-1761
日程	-1762
的作用	-1763
举措	-1764
凯恩	-1765
培训	-1766
宣称	-1767
犯罪	-1768
结论	-1769
而这	-1770
▁其次	-1771
▁在这	-1772
的可能性	-1773
▁这意味着	-1774
of	-1775
传播	-1776
成果	-1777
理想	-1778
说服	-1779
诸多	-1780
可再生	-1781
▁特朗普	-1782
实行	-1783
尊重	-1784
认识	-1785
和金融	-1786
美国在	-1787
un	-1788
南非	-1789
成就	-1790
整体	-1791
温和	-1792
14	-1793
与其	-1794
全民	-1795
形势	-1796
意愿	-1797
者们	-1798
违约	-1799
各地	-1800
团体	-1801
抑制	-1802
▁200	-1803
5%	-1804
人工	-1805
促使	-1806
担任	-1807
毫不	-1808
的未来	-1809
新兴经济体	-1810
ed	-1811
▁《	-1812
专业	-1813
借贷	-1814
冷战	-1815
几年	-1816
左翼	-1817
按照	-1818
捍卫	-1819
生态	-1820
由此	-1821
预防	-1822
中国在	-1823
还没有	-1824
变得更加	-1825
量化宽松	-1826
主张	-1827
产出	-1828
全国	-1829
欧盟委员会	-1830
ch	-1831
▁如	-1832
会在	-1833
刚刚	-1834
动力	-1835
喜欢	-1836
妥协	-1837
对抗	-1838
森林	-1839
深刻	-1840
缓慢	-1841
贫穷	-1842
▁纽约	-1843
了这一	-1844
产阶级	-1845
生活在	-1846
失衡	-1847
引入	-1848
特征	-1849
▁伦敦	-1850
ul	-1851
给予	-1852
▁也许	-1853
世界经济	-1854
之处	-1855
外的	-1856
建筑	-1857
行长	-1858
遭遇	-1859
克林顿	-1860
17	-1861
升值	-1862
感觉	-1863
描述	-1864
现金	-1865
起到	-1866
可能是	-1867
政府和	-1868
的人口	-1869
问题是	-1870
不可避免	-1871
us	-1872
万人	-1873
明智	-1874
现状	-1875
还会	-1876
ter	-1877
▁而在	-1878
的改革	-1879
发电	-1880
巨额	-1881
幸运	-1882
资格	-1883
198	-1884
凯恩斯	-1885
因为它	-1886
服务业	-1887
被视为	-1888
错误的	-1889
采取行动	-1890
ad	-1891
医生	-1892
占据	-1893
另外	-1894
构成	-1895
气体	-1896
危险的	-1897
对中国	-1898
布鲁塞尔	-1899
自由贸易	-1900
这些国家	-1901
▁尽管如此	-1902
对待	-1903
应用	-1904
高度	-1905
500	-1906
也就是	-1907
第一个	-1908
默克尔	-1909
▁即	-1910
发动	-1911
句话	-1912
强劲	-1913
意见	-1914
支撑	-1915
早已	-1916
电视	-1917
西洋	-1918
部队	-1919
197	-1920
▁去年	-1921
▁并且	-1922
已经在	-1923
提出的	-1924
的市场	-1925
其它	-1926
尝试	-1927
议员	-1928
不用	-1929
来看	-1930
犹太	-1931
表达	-1932
▁除了	-1933
的核心	-1934
中产阶级	-1935
国防	-1936
巩固	-1937
循环	-1938
抵制	-1939
拯救	-1940
灵活	-1941
用来	-1942
紧密	-1943
这么	-1944
太阳能	-1945
伙伴关系	-1946
但在	-1947
定的	-1948
宣传	-1949
恐惧	-1950
职业	-1951
ing	-1952
提出了	-1953
中国领导人	-1954
▁H	-1955
众多	-1956
回归	-1957
奇怪	-1958
存款	-1959
覆盖	-1960
辩论	-1961
非法	-1962
企业的	-1963
的行为	-1964
稳定的	-1965
宏观经济	-1966
人均	-1967
大型	-1968
强制	-1969
留在	-1970
边缘	-1971
▁上述	-1972
之所以	-1973
对美国	-1974
就可以	-1975
数百万	-1976
亿美元的	-1977
互相	-1978
帝国	-1979
惩罚	-1980
承受	-1981
损害	-1982
澳大	-1983
维护	-1984
回到	-1985
强硬	-1986
法庭	-1987
矛盾	-1988
究竟	-1989
和中国	-1990
大西洋	-1991
成功的	-1992
是一种	-1993
进行了	-1994
最重要的	-1995
金融机构	-1996
▁并	-1997
空气	-1998
经营	-1999
结合	-2000
澳大利亚	-2001
不受	-2002
性别	-2003
抵押	-2004
更高的	-2005
英国的	-2006
全球变暖	-2007
货币联盟	-2008
▁换	-2009
任期	-2010
受害	-2011
各自	-2012
温室	-2013
看法	-2014
重建	-2015
改革的	-2016
形态	-2017
故事	-2018
紧迫	-2019
诚然	-2020
语言	-2021
▁20	-2022
公司的	-2023
反映了	-2024
一起	-2025
不利	-2026
中所	-2027
加坡	-2028
发行	-2029
心理	-2030
掌握	-2031
本地	-2032
海外	-2033
都将	-2034
▁过去	-2035
与美国	-2036
为基础	-2037
原因是	-2038
人工智能	-2039
体现	-2040
党派	-2041
加拉	-2042
穷人	-2043
镇压	-2044
▁非洲	-2045
也无法	-2046
在中国	-2047
达到了	-2048
很大程度上	-2049
包含	-2050
廉价	-2051
恰恰	-2052
愤怒	-2053
指导	-2054
纳德	-2055
评论	-2056
可再生能源	-2057
的经济增长	-2058
不愿	-2059
数十	-2060
早期	-2061
海洋	-2062
贝尔	-2063
▁德国	-2064
的数据	-2065
私人部门	-2066
一旦	-2067
付出	-2068
以后	-2069
借款	-2070
准确	-2071
瑞典	-2072
▁甚至	-2073
的承诺	-2074
le	-2075
▁比	-2076
▁近	-2077
不够	-2078
东亚	-2079
居民	-2080
斯特	-2081
条款	-2082
极为	-2083
瑞拉	-2084
绝对	-2085
脱离	-2086
荷兰	-2087
著名	-2088
▁诚然	-2089
▁那些	-2090
被认为	-2091
各国政府	-2092
这个问题	-2093
13	-2094
协助	-2095
委内	-2096
尔德	-2097
时的	-2098
比率	-2099
短缺	-2100
边界	-2101
历史上	-2102
存在的	-2103
目前的	-2104
中国政府	-2105
委内瑞拉	-2106
决心	-2107
加拿	-2108
所在	-2109
特殊	-2110
电力	-2111
让人	-2112
和投资	-2113
看起来	-2114
16	-2115
▁L	-2116
▁和	-2117
一点	-2118
中期	-2119
安倍	-2120
客户	-2121
牺牲	-2122
示威	-2123
绝非	-2124
超级	-2125
过剩	-2126
▁或者	-2127
在全球	-2128
有一个	-2129
的地区	-2130
▁实际上	-2131
减速	-2132
尚未	-2133
有了	-2134
越南	-2135
▁今天	-2136
在一起	-2137
的战略	-2138
还需要	-2139
温室气体	-2140
中间	-2141
人数	-2142
出于	-2143
月的	-2144
法案	-2145
流入	-2146
渠道	-2147
要比	-2148
▁of	-2149
将继续	-2150
工业化	-2151
必要的	-2152
是美国	-2153
目前为止	-2154
不太	-2155
产量	-2156
入侵	-2157
月份	-2158
极大	-2159
的对	-2160
组合	-2161
药物	-2162
低收入	-2163
合法性	-2164
的民主	-2165
的银行	-2166
不确定性	-2167
这一目标	-2168
op	-2169
▁简	-2170
参加	-2171
整合	-2172
突然	-2173
结核	-2174
葡萄	-2175
记者	-2176
这次	-2177
释放	-2178
▁日本	-2179
是如此	-2180
也是如此	-2181
以前	-2182
公约	-2183
年度	-2184
拉丁	-2185
更有	-2186
清洁	-2187
约翰	-2188
议程	-2189
▁第三	-2190
的计划	-2191
已经开始	-2192
义务	-2193
五年	-2194
变成	-2195
她们	-2196
扩散	-2197
涉及	-2198
能在	-2199
诊断	-2200
▁即便	-2201
尔多安	-2202
投资于	-2203
采取了	-2204
领域的	-2205
特别是在	-2206
不要	-2207
位于	-2208
博拉	-2209
消失	-2210
煤炭	-2211
首次	-2212
发展的	-2213
▁在过去	-2214
埃尔多安	-2215
业务	-2216
分之	-2217
召开	-2218
放在	-2219
斯科	-2220
几个月	-2221
埃博拉	-2222
劳动力市场	-2223
▁K	-2224
产能	-2225
修正	-2226
名义	-2227
员工	-2228
必然	-2229
标志	-2230
紧急	-2231
要素	-2232
▁第二	-2233
的债务	-2234
的努力	-2235
第一次	-2236
肯尼亚	-2237
所造成的	-2238
油价	-2239
生素	-2240
离开	-2241
纳入	-2242
解放	-2243
实现了	-2244
意识形态	-2245
ob	-2246
▁让	-2247
一般	-2248
以此	-2249
任命	-2250
作出	-2251
愿景	-2252
无疑	-2253
高级	-2254
▁今年	-2255
▁其他	-2256
产生了	-2257
吸引力	-2258
所有人	-2259
的唯一	-2260
的环境	-2261
2017	-2262
不久	-2263
两种	-2264
国外	-2265
忽略	-2266
加拿大	-2267
政治家	-2268
的地方	-2269
的需求	-2270
另一方面	-2271
▁上	-2272
住房	-2273
公正	-2274
台湾	-2275
抗议	-2276
是个	-2277
法治	-2278
违反	-2279
一系列	-2280
同时也	-2281
收入的	-2282
注意力	-2283
的时间	-2284
的领导	-2285
1990	-2286
te	-2287
下来	-2288
兄弟	-2289
哪些	-2290
实践	-2291
操作	-2292
试验	-2293
超越	-2294
迹象	-2295
的措施	-2296
国有企业	-2297
兴趣	-2298
而在	-2299
随之	-2300
民主的	-2301
的变化	-2302
ment	-2303
▁在美国	-2304
我们需要	-2305
回答	-2306
学院	-2307
拉美	-2308
无人	-2309
阵营	-2310
限于	-2311
合组织	-2312
的技术	-2313
都没有	-2314
2020	-2315
▁所有这些	-2316
前所未有的	-2317
一年	-2318
动物	-2319
回应	-2320
季度	-2321
导向	-2322
导弹	-2323
扭曲	-2324
相似	-2325
给了	-2326
言之	-2327
过渡	-2328
金砖	-2329
▁In	-2330
也应该	-2331
共产党	-2332
的方法	-2333
葡萄牙	-2334
让他们	-2335
不仅仅是	-2336
以往	-2337
优先	-2338
否认	-2339
恐慌	-2340
比重	-2341
疲软	-2342
罗马	-2343
麻烦	-2344
计划的	-2345
拉丁美洲	-2346
3.	-2347
一半	-2348
个体	-2349
交通	-2350
化为	-2351
孤立	-2352
抵消	-2353
权的	-2354
的威胁	-2355
一下	-2356
声称	-2357
当中	-2358
都要	-2359
▁印度	-2360
▁还有	-2361
共和国	-2362
句话说	-2363
哈马斯	-2364
理事会	-2365
的生活	-2366
目的是	-2367
陷入了	-2368
基础设施投资	-2369
偿还	-2370
出售	-2371
尼日	-2372
想法	-2373
至今	-2374
谨慎	-2375
马里	-2376
基金会	-2377
孟加拉	-2378
的行动	-2379
不可持续	-2380
开发银行	-2381
基地	-2382
最新	-2383
物价	-2384
用的	-2385
反对派	-2386
和服务	-2387
的利益	-2388
上去	-2389
之为	-2390
可信	-2391
大会	-2392
密集	-2393
打破	-2394
推行	-2395
有时	-2396
获益	-2397
身上	-2398
亿欧元	-2399
仅仅是	-2400
仍然是	-2401
集中在	-2402
可能导致	-2403
怎么	-2404
指控	-2405
渴望	-2406
病毒	-2407
纳税	-2408
终于	-2409
警察	-2410
逆转	-2411
逻辑	-2412
地方政府	-2413
经合组织	-2414
os	-2415
▁N	-2416
做好	-2417
升高	-2418
困扰	-2419
安理	-2420
层次	-2421
抓住	-2422
摧毁	-2423
暴露	-2424
消灭	-2425
认真	-2426
当前的	-2427
的事实	-2428
的最佳	-2429
外汇储备	-2430
3%	-2431
ri	-2432
于是	-2433
化和	-2434
常规	-2435
放松	-2436
期望	-2437
柏林	-2438
证券	-2439
一直是	-2440
人们对	-2441
巴拉克	-2442
的公共	-2443
2005	-2444
▁可	-2445
东欧	-2446
严峻	-2447
人道	-2448
感染	-2449
推翻	-2450
此前	-2451
税率	-2452
西亚	-2453
▁可以	-2454
▁显然	-2455
企业家	-2456
抗生素	-2457
段时间	-2458
的危险	-2459
2006	-2460
我们可以	-2461
民主国家	-2462
美国经济	-2463
不满	-2464
其在	-2465
动作	-2466
声明	-2467
注于	-2468
激烈	-2469
电子	-2470
股东	-2471
财务	-2472
过来	-2473
部署	-2474
10%	-2475
▁问题	-2476
人们的	-2477
发生在	-2478
范围内	-2479
已经成为	-2480
▁你	-2481
外围	-2482
无力	-2483
没能	-2484
浪费	-2485
突破	-2486
ers	-2487
利比亚	-2488
支持者	-2489
机构的	-2490
的选择	-2491
以及其他	-2492
绝大多数	-2493
ag	-2494
不如	-2495
功能	-2496
流向	-2497
纷纷	-2498
认定	-2499
也不会	-2500
宗商品	-2501
的例子	-2502
2030	-2503
伊斯兰教	-2504
1%	-2505
两者	-2506
主流	-2507
仍有	-2508
内战	-2509
到的	-2510
加以	-2511
各方	-2512
密切	-2513
律宾	-2514
情报	-2515
手中	-2516
持久	-2517
排除	-2518
积累	-2519
第四	-2520
资助	-2521
背景下	-2522
菲律宾	-2523
幸运的是	-2524
欧盟成员国	-2525
oo	-2526
之上	-2527
发起	-2528
固定	-2529
垄断	-2530
完美	-2531
巴嫩	-2532
根源	-2533
烟草	-2534
经过	-2535
运作	-2536
选项	-2537
逐步	-2538
遵守	-2539
art	-2540
▁不过	-2541
▁只要	-2542
也必须	-2543
的军事	-2544
的决定	-2545
▁俄罗斯	-2546
丧失	-2547
争取	-2548
只会	-2549
患者	-2550
每个	-2551
深远	-2552
还能	-2553
不用说	-2554
好消息	-2555
的历史	-2556
黎巴嫩	-2557
之时	-2558
亿人	-2559
保留	-2560
在线	-2561
暂时	-2562
问责	-2563
的成本	-2564
的自由	-2565
的速度	-2566
2001	-2567
▁;	-2568
也能	-2569
了对	-2570
人物	-2571
南亚	-2572
吸收	-2573
式的	-2574
朋友	-2575
for	-2576
在经济	-2577
所需的	-2578
许多国家	-2579
ce	-2580
一条	-2581
命运	-2582
契约	-2583
营养	-2584
谴责	-2585
谷歌	-2586
费用	-2587
都能	-2588
受到了	-2589
将成为	-2590
的一些	-2591
的价格	-2592
英格兰	-2593
超过了	-2594
▁大	-2595
以便	-2596
份额	-2597
失望	-2598
是有	-2599
更快	-2600
每天	-2601
科索	-2602
获取	-2603
震惊	-2604
人口的	-2605
在内的	-2606
支持的	-2607
新加坡	-2608
更好地	-2609
的能源	-2610
科索沃	-2611
尼日利亚	-2612
建立一个	-2613
金融体系	-2614
li	-2615
▁W	-2616
壁垒	-2617
尼斯	-2618
百分	-2619
▁鉴于	-2620
安理会	-2621
的任务	-2622
称之为	-2623
部门的	-2624
主权债务	-2625
全球金融危机	-2626
人在	-2627
减轻	-2628
变为	-2629
对外	-2630
年龄	-2631
引导	-2632
方说	-2633
用户	-2634
获胜	-2635
讽刺	-2636
青年	-2637
...	-2638
一部分	-2639
举行的	-2640
低利率	-2641
合理的	-2642
增长和	-2643
失去了	-2644
的最新	-2645
的资金	-2646
▁奥巴马	-2647
所面临的	-2648
▁换句话说	-2649
例外	-2650
南部	-2651
卡梅	-2652
实质	-2653
尔的	-2654
深入	-2655
缓解	-2656
艰难	-2657
行政	-2658
设备	-2659
▁法国	-2660
也可能	-2661
影响到	-2662
成功地	-2663
良好的	-2664
▁美联储	-2665
24	-2666
一家	-2667
信号	-2668
做的	-2669
减税	-2670
动机	-2671
助长	-2672
占领	-2673
有多	-2674
永久	-2675
近期	-2676
和安全	-2677
技术的	-2678
进行的	-2679
▁欧元区	-2680
经常项目	-2681
经济发展	-2682
非洲国家	-2683
不良	-2684
中共	-2685
总额	-2686
接触	-2687
毒品	-2688
真相	-2689
饱受	-2690
会议上	-2691
债权人	-2692
创造了	-2693
教育和	-2694
的货币	-2695
监管者	-2696
社会的	-2697
▁这就是	-2698
制约	-2699
太平	-2700
担保	-2701
更具	-2702
林斯	-2703
深度	-2704
致命	-2705
解体	-2706
发展中	-2707
唐纳德	-2708
水平的	-2709
但它	-2710
低估	-2711
国务	-2712
小组	-2713
立刻	-2714
赋予	-2715
▁他的	-2716
受害者	-2717
和欧洲	-2718
是为了	-2719
的东西	-2720
的做法	-2721
的最大	-2722
都必须	-2723
领导的	-2724
恐怖分子	-2725
长期以来	-2726
不了	-2727
中有	-2728
加大	-2729
意料	-2730
明年	-2731
流行	-2732
防御	-2733
ity	-2734
的关系	-2735
的后果	-2736
共产主义	-2737
显而易见	-2738
资产价格	-2739
可怕	-2740
小时	-2741
幅度	-2742
年底	-2743
总值	-2744
情形	-2745
活力	-2746
耐药	-2747
高速	-2748
所有的	-2749
有能力	-2750
系统的	-2751
特朗普的	-2752
下滑	-2753
以下	-2754
兑现	-2755
接着	-2756
日渐	-2757
途径	-2758
销售	-2759
下降到	-2760
专注于	-2761
太平洋	-2762
很多人	-2763
相关的	-2764
结核病	-2765
降低了	-2766
因为他们	-2767
越来越多	-2768
这一问题	-2769
▁幸运的是	-2770
35	-2771
两位	-2772
使其	-2773
区别	-2774
响应	-2775
庇护	-2776
形象	-2777
悲剧	-2778
房价	-2779
移动	-2780
负面	-2781
投资和	-2782
现代化	-2783
的人们	-2784
的压力	-2785
的理由	-2786
能力的	-2787
不平等性	-2788
很有可能	-2789
um	-2790
到来	-2791
改进	-2792
敏感	-2793
某个	-2794
点是	-2795
私营	-2796
考验	-2797
还在	-2798
阶层	-2799
▁不仅	-2800
还必须	-2801
大宗商品	-2802
8%	-2803
产权	-2804
他在	-2805
埃塞	-2806
她的	-2807
并将	-2808
投机	-2809
显得	-2810
觉得	-2811
一开始	-2812
和国际	-2813
大萧条	-2814
选举中	-2815
三分之一	-2816
的重要性	-2817
美国政府	-2818
▁欧洲央行	-2819
丰富	-2820
共享	-2821
出生	-2822
古巴	-2823
彼此	-2824
本质	-2825
正义	-2826
死刑	-2827
理性	-2828
补偿	-2829
那个	-2830
那种	-2831
重塑	-2832
几年来	-2833
在一个	-2834
埃塞俄	-2835
投资的	-2836
自由化	-2837
诺贝尔	-2838
▁...	-2839
▁但这一	-2840
7%	-2841
ab	-2842
一路	-2843
不安	-2844
伦理	-2845
养老	-2846
医学	-2847
急剧	-2848
普及	-2849
没人	-2850
综合	-2851
说是	-2852
距离	-2853
还将	-2854
选票	-2855
不足以	-2856
他们在	-2857
提供的	-2858
美元的	-2859
负责任	-2860
埃塞俄比亚	-2861
DG	-2862
事业	-2863
动员	-2864
反而	-2865
多元	-2866
定价	-2867
强势	-2868
拿出	-2869
游戏	-2870
物种	-2871
纠正	-2872
良好	-2873
蔓延	-2874
运用	-2875
高效	-2876
▁而这	-2877
主义和	-2878
些时候	-2879
会导致	-2880
和环境	-2881
政治上	-2882
的共同	-2883
银行和	-2884
▁这样的	-2885
从事	-2886
保健	-2887
信誉	-2888
关闭	-2889
复兴	-2890
战斗	-2891
文章	-2892
疟疾	-2893
萨德	-2894
融入	-2895
规范	-2896
陷阱	-2897
债务的	-2898
反过来	-2899
时代的	-2900
的反应	-2901
2004	-2902
id	-2903
ig	-2904
判断	-2905
昂贵	-2906
权威	-2907
迫切	-2908
顾问	-2909
▁亚洲	-2910
▁除非	-2911
应该是	-2912
的权利	-2913
重要性	-2914
▁但这些	-2915
1,	-2916
45	-2917
一国	-2918
两年	-2919
严厉	-2920
但这	-2921
僵局	-2922
充足	-2923
到底	-2924
匈牙	-2925
施加	-2926
细胞	-2927
落实	-2928
要想	-2929
观念	-2930
设立	-2931
道理	-2932
保守党	-2933
匈牙利	-2934
很容易	-2935
的欧盟	-2936
非洲的	-2937
▁简言之	-2938
欧洲国家	-2939
全力	-2940
出资	-2941
分别	-2942
加沙	-2943
各个	-2944
合同	-2945
抛弃	-2946
文明	-2947
最低	-2948
殖民	-2949
注入	-2950
私有	-2951
重视	-2952
300	-2953
出现在	-2954
对欧洲	-2955
导致的	-2956
有效地	-2957
看上去	-2958
适用于	-2959
银行家	-2960
塞尔维亚	-2961
一份	-2962
一名	-2963
下了	-2964
何种	-2965
修改	-2966
医院	-2967
声音	-2968
披露	-2969
毁灭	-2970
法官	-2971
群众	-2972
落后	-2973
首席	-2974
形成了	-2975
百分点	-2976
的公司	-2977
的成功	-2978
经济和	-2979
成员国的	-2980
ev	-2981
不少	-2982
分享	-2983
创业	-2984
发明	-2985
完整	-2986
延长	-2987
开展	-2988
是由	-2989
演讲	-2990
纳粹	-2991
职位	-2992
补充	-2993
讲话	-2994
196	-2995
▁如此	-2996
参与者	-2997
和日本	-2998
在国际	-2999
是中国	-3000
的人民	-3001
的态度	-3002
的贸易	-3003
世界其他	-3004
政策制定	-3005
显而易见的	-3006
越来越多的	-3007
▁O	-3008
两次	-3009
临时	-3010
乔治	-3011
人为	-3012
原本	-3013
多年	-3014
推迟	-3015
此次	-3016
物质	-3017
缺口	-3018
英镑	-3019
融合	-3020
起诉	-3021
配置	-3022
.5%	-3023
也不是	-3024
人认为	-3025
十年的	-3026
可能的	-3027
广泛的	-3028
有力的	-3029
目标的	-3030
苏格兰	-3031
布什政府	-3032
的大规模	-3033
财政部长	-3034
这样一个	-3035
ci	-3036
做到	-3037
学术	-3038
性质	-3039
是最	-3040
歧视	-3041
瑞士	-3042
约旦	-3043
路线	-3044
面前	-3045
十年中	-3046
卡梅伦	-3047
的信息	-3048
的力量	-3049
▁199	-3050
▁and	-3051
▁联合国	-3052
人民银行	-3053
▁这是一个	-3054
ir	-3055
ve	-3056
了其	-3057
合适	-3058
小的	-3059
成长	-3060
教授	-3061
期待	-3062
步骤	-3063
清算	-3064
领先	-3065
▁当时	-3066
多年来	-3067
引起了	-3068
明确的	-3069
权力的	-3070
的水平	-3071
世界各地	-3072
▁在这方面	-3073
不在	-3074
人力	-3075
位置	-3076
大战	-3077
宣言	-3078
工党	-3079
布莱	-3080
授权	-3081
沉重	-3082
泰国	-3083
煽动	-3084
萎靡	-3085
起了	-3086
▁所以	-3087
不需要	-3088
的所有	-3089
的移民	-3090
透明度	-3091
长时间	-3092
风险的	-3093
▁考虑到	-3094
英国退欧	-3095
某种程度上	-3096
▁除	-3097
一轮	-3098
为例	-3099
低碳	-3100
催生	-3101
剑桥	-3102
南海	-3103
坚定	-3104
就在	-3105
就将	-3106
屠杀	-3107
德拉	-3108
滥用	-3109
生育	-3110
相应	-3111
评级	-3112
▁最终	-3113
▁经济	-3114
倾向于	-3115
的安全	-3116
研究所	-3117
转化为	-3118
与此同时	-3119
所有这些	-3120
的问题是	-3121
eb	-3122
▁马	-3123
从来	-3124
但其	-3125
就越	-3126
席位	-3127
才会	-3128
本月	-3129
迄今	-3130
里斯	-3131
页岩	-3132
关系的	-3133
庞大的	-3134
影响的	-3135
的法律	-3136
ational	-3137
不上	-3138
为其	-3139
为此	-3140
予以	-3141
享受	-3142
却是	-3143
基督	-3144
无关	-3145
机遇	-3146
材料	-3147
消极	-3148
清晰	-3149
类型	-3150
老龄	-3151
象征	-3152
运转	-3153
▁就像	-3154
价值的	-3155
企业和	-3156
多样性	-3157
将导致	-3158
工作的	-3159
政府在	-3160
的一项	-3161
的权力	-3162
的经验	-3163
财政政策	-3164
▁2008	-3165
23	-3166
上限	-3167
使命	-3168
冒险	-3169
填补	-3170
外界	-3171
本人	-3172
格鲁	-3173
的确	-3174
社交	-3175
签订	-3176
纠纷	-3177
额外	-3178
今年的	-3179
和全球	-3180
生产力	-3181
的战争	-3182
相对于	-3183
领导层	-3184
▁美国的	-3185
所有人都	-3186
的经济体	-3187
27	-3188
信仰	-3189
和解	-3190
情景	-3191
成熟	-3192
终结	-3193
雄心	-3194
首脑	-3195
▁至少	-3196
在这个	-3197
的说法	-3198
相对较	-3199
背后的	-3200
▁for	-3201
▁他们的	-3202
▁但我们	-3203
沙特阿拉伯	-3204
3⁄	-3205
ay	-3206
▁用	-3207
丑闻	-3208
主宰	-3209
出台	-3210
印象	-3211
夏天	-3212
审查	-3213
所得	-3214
扭转	-3215
来讲	-3216
运行	-3217
3⁄4	-3218
也许是	-3219
以至于	-3220
引发了	-3221
突尼斯	-3222
一个国家	-3223
二十世纪	-3224
和意大利	-3225
国家安全	-3226
资本市场	-3227
这些问题	-3228
温室气体排放	-3229
互动	-3230
交流	-3231
估算	-3232
保罗	-3233
利息	-3234
北欧	-3235
哈拉	-3236
地利	-3237
引擎	-3238
弱势	-3239
忧虑	-3240
所能	-3241
推广	-3242
提醒	-3243
更是	-3244
监控	-3245
▁巴西	-3246
中国人	-3247
传染病	-3248
十年来	-3249
奥地利	-3250
存在着	-3251
几乎没有	-3252
生产总值	-3253
证据表明	-3254
分散	-3255
压倒	-3256
反弹	-3257
在不	-3258
干涉	-3259
悲观	-3260
所说	-3261
拉里	-3262
拖累	-3263
无可	-3264
最初	-3265
狭隘	-3266
申请	-3267
男性	-3268
看似	-3269
十年前	-3270
各国的	-3271
因为这	-3272
就需要	-3273
形式的	-3274
时间里	-3275
机器人	-3276
构成了	-3277
阿萨德	-3278
自然资源	-3279
▁毫无疑问	-3280
否决	-3281
哈根	-3282
在此	-3283
秘密	-3284
纪念	-3285
苏丹	-3286
与其他	-3287
也需要	-3288
做出了	-3289
只不过	-3290
已成为	-3291
得不到	-3292
的增加	-3293
马克龙	-3294
▁华盛顿	-3295
保护主义	-3296
在很大程度上	-3297
6%	-3298
▁由	-3299
专制	-3300
中等	-3301
偿付	-3302
南欧	-3303
哥本	-3304
团队	-3305
国债	-3306
大多	-3307
姆林	-3308
家族	-3309
巨头	-3310
特定	-3311
艺术	-3312
花费	-3313
▁国际	-3314
众议院	-3315
伴随着	-3316
到来的	-3317
制度的	-3318
协议的	-3319
法国的	-3320
获得的	-3321
都可以	-3322
1980	-3323
哥本哈根	-3324
金融稳定	-3325
预算赤字	-3326
4%	-3327
▁她	-3328
世俗	-3329
你们	-3330
倒闭	-3331
凸显	-3332
加快	-3333
审慎	-3334
工厂	-3335
政变	-3336
敦促	-3337
最佳	-3338
榜样	-3339
诱惑	-3340
重重	-3341
难题	-3342
不再是	-3343
不稳定	-3344
十年代	-3345
可行的	-3346
并不能	-3347
建立了	-3348
必须在	-3349
战争的	-3350
的效果	-3351
目标是	-3352
财政赤字	-3353
一套	-3354
不应	-3355
减排	-3356
加州	-3357
哈佛	-3358
多么	-3359
害怕	-3360
广告	-3361
或是	-3362
暴跌	-3363
消耗	-3364
电影	-3365
等待	-3366
背后	-3367
连续	-3368
面积	-3369
20%	-3370
man	-3371
▁有些	-3372
与中国	-3373
也同样	-3374
利益的	-3375
总需求	-3376
是否会	-3377
的企业	-3378
2050	-3379
▁欧洲的	-3380
▁这也是	-3381
更不用说	-3382
欧洲议会	-3383
没有什么	-3384
并不意味着	-3385
至关重要的	-3386
CC	-3387
IP	-3388
上了	-3389
伟大	-3390
全新	-3391
公决	-3392
公布	-3393
关心	-3394
办公	-3395
和新	-3396
完善	-3397
平民	-3398
弱点	-3399
方的	-3400
民意	-3401
沦为	-3402
热情	-3403
西藏	-3404
训练	-3405
和政府	-3406
的现实	-3407
的角色	-3408
让美国	-3409
这两个	-3410
都需要	-3411
▁大部分	-3412
几十年来	-3413
英国脱欧	-3414
▁如果我们	-3415
28	-3416
伯特	-3417
克利	-3418
发放	-3419
可行	-3420
很有	-3421
提议	-3422
收缩	-3423
极其	-3424
电脑	-3425
立即	-3426
而论	-3427
艰巨	-3428
识别	-3429
马拉	-3430
以确保	-3431
伊朗的	-3432
大学的	-3433
建立在	-3434
极大的	-3435
组成的	-3436
非政府	-3437
▁也就是	-3438
克里姆林	-3439
实现这一目标	-3440
oh	-3441
两倍	-3442
便利	-3443
先进	-3444
化学	-3445
天气	-3446
崩盘	-3447
梦想	-3448
武力	-3449
药品	-3450
跨境	-3451
马上	-3452
鼓吹	-3453
ich	-3454
了一项	-3455
唯一的	-3456
基本上	-3457
通胀率	-3458
ec	-3459
丹麦	-3460
人群	-3461
剥夺	-3462
印尼	-3463
地说	-3464
大众	-3465
巴尔	-3466
延续	-3467
慈善	-3468
挪威	-3469
敌人	-3470
残酷	-3471
沙尔	-3472
深化	-3473
阻挠	-3474
首要	-3475
400	-3476
▁要想	-3477
了美国	-3478
他们所	-3479
再平衡	-3480
几年中	-3481
威胁到	-3482
政策和	-3483
的担忧	-3484
的方案	-3485
的要求	-3486
让人们	-3487
财政部	-3488
2002	-3489
危机爆发	-3490
经常账户	-3491
迄今为止	-3492
这个国家	-3493
乃至	-3494
以南	-3495
利班	-3496
十九	-3497
单位	-3498
口号	-3499
后来	-3500
意外	-3501
战胜	-3502
截然	-3503
果断	-3504
案件	-3505
注定	-3506
秘书	-3507
绝望	-3508
罗姆	-3509
证实	-3510
达尔	-3511
进而	-3512
追随	-3513
遗产	-3514
▁在此	-3515
主要是	-3516
已经被	-3517
带一路	-3518
意义的	-3519
的收入	-3520
的责任	-3521
角度看	-3522
因为它们	-3523
孟加拉国	-3524
ra	-3525
▁平	-3526
▁总	-3527
不论	-3528
中美	-3529
动摇	-3530
四个	-3531
学者	-3532
将对	-3533
性地	-3534
按揭	-3535
收集	-3536
确认	-3537
认可	-3538
零售	-3539
霸权	-3540
高企	-3541
高昂	-3542
ard	-3543
ion	-3544
也不能	-3545
但他们	-3546
可能在	-3547
复杂的	-3548
尽可能	-3549
提高了	-3550
撒哈拉	-3551
无人机	-3552
更多地	-3553
最好的	-3554
的一半	-3555
的基本	-3556
的必要	-3557
碳排放	-3558
转移到	-3559
过去的	-3560
还可以	-3561
高收入	-3562
▁另一个	-3563
▁比方说	-3564
和西班牙	-3565
就业机会	-3566
金砖国家	-3567
结构性改革	-3568
4.	-3569
im	-3570
▁·	-3571
华尔	-3572
处在	-3573
大于	-3574
常态	-3575
度的	-3576
引人	-3577
战后	-3578
掩盖	-3579
效益	-3580
沮丧	-3581
物理	-3582
米尔	-3583
野心	-3584
80%	-3585
但它们	-3586
冲突的	-3587
华尔街	-3588
参议院	-3589
是什么	-3590
的价值	-3591
的巨大	-3592
的最后	-3593
组织的	-3594
计算机	-3595
软实力	-3596
都无法	-3597
阿尔及	-3598
一体化的	-3599
国家主席	-3600
的基础上	-3601
em	-3602
▁像	-3603
▁反	-3604
便是	-3605
做得	-3606
出版	-3607
太多	-3608
奥斯	-3609
容忍	-3610
居住	-3611
庞大	-3612
焦点	-3613
电网	-3614
颠覆	-3615
ert	-3616
伯克利	-3617
另一种	-3618
在今年	-3619
很大的	-3620
伊斯兰国	-3621
▁每	-3622
上海	-3623
不必	-3624
严肃	-3625
争端	-3626
今后	-3627
前进	-3628
将军	-3629
挽救	-3630
探讨	-3631
更强	-3632
民间	-3633
活跃	-3634
而已	-3635
1.5	-3636
加剧了	-3637
变成了	-3638
和公共	-3639
心而论	-3640
深层次	-3641
的资本	-3642
肯定会	-3643
行为的	-3644
可持续性	-3645
年金融危机	-3646
习惯	-3647
低迷	-3648
其对	-3649
制药	-3650
哪里	-3651
塞浦	-3652
始于	-3653
年初	-3654
电话	-3655
路斯	-3656
鼓舞	-3657
不存在	-3658
之一是	-3659
再加上	-3660
参议员	-3661
赢得了	-3662
塞浦路斯	-3663
▁在这样的	-3664
▁问题在于	-3665
中海	-3666
之春	-3667
他人	-3668
免疫	-3669
典型	-3670
刑事	-3671
恰当	-3672
手机	-3673
更少	-3674
检查	-3675
犹豫	-3676
狂热	-3677
现任	-3678
病人	-3679
的小	-3680
的总	-3681
记忆	-3682
路径	-3683
防务	-3684
难度	-3685
▁St	-3686
▁巴黎	-3687
了一场	-3688
其中的	-3689
其他人	-3690
养老金	-3691
削弱了	-3692
年代的	-3693
来自于	-3694
清楚地	-3695
的一切	-3696
第二次	-3697
非常规	-3698
2003	-3699
所有国家	-3700
生态系统	-3701
民粹主义者	-3702
6.	-3703
世贸	-3704
中小	-3705
借助	-3706
前任	-3707
剧烈	-3708
可谓	-3709
太大	-3710
实在	-3711
富人	-3712
展示	-3713
撤军	-3714
时机	-3715
有望	-3716
极权	-3717
这位	-3718
飓风	-3719
饥饿	-3720
不愿意	-3721
中获益	-3722
亚洲的	-3723
供应链	-3724
依赖于	-3725
办公室	-3726
塔利班	-3727
实施了	-3728
德国的	-3729
批评者	-3730
的代价	-3731
董事会	-3732
行业的	-3733
重大的	-3734
个百分点	-3735
社交媒体	-3736
克里姆林宫	-3737
会对	-3738
何时	-3739
免费	-3740
危害	-3741
周边	-3742
幸福	-3743
抱怨	-3744
收紧	-3745
无所	-3746
早就	-3747
智慧	-3748
最好	-3749
爆炸	-3750
父母	-3751
的年	-3752
股价	-3753
衰落	-3754
运营	-3755
ank	-3756
出来的	-3757
取得的	-3758
基本面	-3759
巴沙尔	-3760
的信号	-3761
绝不是	-3762
任何时候	-3763
取得成功	-3764
解决办法	-3765
转移支付	-3766
ge	-3767
万亿	-3768
不起	-3769
人才	-3770
作物	-3771
依据	-3772
切实	-3773
切尔	-3774
同一	-3775
提案	-3776
源自	-3777
隔离	-3778
频繁	-3779
飙升	-3780
ill	-3781
▁西方	-3782
安全的	-3783
引发的	-3784
我们在	-3785
收益率	-3786
的一次	-3787
纳税人	-3788
解释了	-3789
▁尤其是	-3790
了这一点	-3791
在这方面	-3792
结构改革	-3793
自由民主	-3794
▁"	-3795
举动	-3796
什叶	-3797
勃勃	-3798
后代	-3799
和对	-3800
多种	-3801
婴儿	-3802
履行	-3803
已有	-3804
房屋	-3805
沟通	-3806
环保	-3807
能让	-3808
远离	-3809
长达	-3810
90%	-3811
▁一旦	-3812
也包括	-3813
出现的	-3814
只有在	-3815
和印度	-3816
地中海	-3817
成为了	-3818
明显的	-3819
是通过	-3820
最贫困	-3821
犹太人	-3822
环境下	-3823
甚至是	-3824
的事情	-3825
繁荣的	-3826
自由的	-3827
转变为	-3828
亚洲国家	-3829
人道主义	-3830
就业岗位	-3831
并非如此	-3832
没有任何	-3833
这种情况	-3834
▁另一方面	-3835
he	-3836
一再	-3837
三大	-3838
依旧	-3839
借口	-3840
公路	-3841
动态	-3842
地的	-3843
均衡	-3844
审判	-3845
富有	-3846
年到	-3847
暗示	-3848
法规	-3849
种子	-3850
走上	-3851
连接	-3852
逊尼	-3853
间的	-3854
食物	-3855
▁任何	-3856
▁这就	-3857
保守派	-3858
分之二	-3859
和技术	-3860
国家和	-3861
政治的	-3862
索马里	-3863
1997	-3864
不太可能	-3865
俄罗斯的	-3866
成员资格	-3867
研究表明	-3868
空气污染	-3869
英国退出	-3870
▁经济学家	-3871
即将到来的	-3872
发展中国家的	-3873
CE	-3874
In	-3875
▁前	-3876
侵犯	-3877
侵略	-3878
倡议	-3879
偏好	-3880
决议	-3881
前提	-3882
案例	-3883
模糊	-3884
沃尔	-3885
焦虑	-3886
的无	-3887
站在	-3888
继承	-3889
而被	-3890
自愿	-3891
30%	-3892
ook	-3893
以上的	-3894
体系的	-3895
新技术	-3896
极大地	-3897
模式的	-3898
积极的	-3899
行动的	-3900
▁在这个	-3901
单一市场	-3902
欧盟国家	-3903
的影响力	-3904
穆巴拉克	-3905
经济复苏	-3906
欧洲领导人	-3907
生产率增长	-3908
阿尔及利亚	-3909
可持续发展目标	-3910
CA	-3911
▁那	-3912
之以	-3913
之比	-3914
入了	-3915
各大	-3916
将让	-3917
就要	-3918
换取	-3919
授予	-3920
支柱	-3921
数千	-3922
日的	-3923
流离	-3924
缩小	-3925
表面	-3926
裁决	-3927
迎来	-3928
里的	-3929
150	-3930
40%	-3931
▁于是	-3932
▁这场	-3933
也因此	-3934
危机中	-3935
对全球	-3936
接受的	-3937
标志着	-3938
独立的	-3939
的形式	-3940
观察家	-3941
这一切	-3942
该地区的	-3943
▁平心而论	-3944
▁我们需要	-3945
撒哈拉以南	-3946
阿拉伯之春	-3947
ep	-3948
中最	-3949
之际	-3950
也就	-3951
以为	-3952
吉亚	-3953
失所	-3954
威慑	-3955
寿命	-3956
拉斯	-3957
日子	-3958
毕业	-3959
漏洞	-3960
特里	-3961
盈利	-3962
等于	-3963
西欧	-3964
运输	-3965
60%	-3966
the	-3967
▁由此	-3968
东南亚	-3969
以及对	-3970
劳动者	-3971
即使是	-3972
反映出	-3973
布莱尔	-3974
更容易	-3975
来西亚	-3976
比以往	-3977
耐药性	-3978
能够在	-3979
成为一个	-3980
生活水平	-3981
▁两	-3982
仍是	-3983
会有	-3984
修复	-3985
力度	-3986
发出	-3987
周年	-3988
姆斯	-3989
局限	-3990
工会	-3991
干扰	-3992
很高	-3993
律师	-3994
所作	-3995
文件	-3996
斯基	-3997
独特	-3998
理应	-3999
看作	-4000
较低	-4001
高管	-4002
一世纪	-4003
不平衡	-4004
什叶派	-4005
价格的	-4006
克斯坦	-4007
创新的	-4008
可以从	-4009
基督教	-4010
改变了	-4011
灾难性	-4012
的机构	-4013
的谈判	-4014
破坏性	-4015
移民的	-4016
老龄化	-4017
领导力	-4018
▁以色列	-4019
▁意大利	-4020
三分之二	-4021
全民公决	-4022
合作伙伴	-4023
富裕国家	-4024
抵押贷款	-4025
早些时候	-4026
格鲁吉亚	-4027
毫不奇怪	-4028
糟糕的是	-4029
经济衰退	-4030
到目前为止	-4031
巴勒斯坦人	-4032
气候变化的	-4033
AR	-4034
专门	-4035
争夺	-4036
伯南	-4037
分离	-4038
创建	-4039
别无	-4040
同事	-4041
地下	-4042
地震	-4043
干旱	-4044
弥补	-4045
抵御	-4046
指引	-4047
棘手	-4048
海军	-4049
特点	-4050
股权	-4051
舞台	-4052
萨尔	-4053
虚假	-4054
认知	-4055
议定	-4056
身体	-4057
通讯	-4058
采购	-4059
50%	-4060
ate	-4061
▁或许	-4062
▁金融	-4063
伯南克	-4064
变化的	-4065
密集型	-4066
巴尔干	-4067
有机会	-4068
本世纪	-4069
死亡率	-4070
的一种	-4071
石油和	-4072
第二个	-4073
自动化	-4074
被称为	-4075
货币的	-4076
逊尼派	-4077
2018	-4078
世界大战	-4079
发展援助	-4080
尤其是在	-4081
流离失所	-4082
贸易赤字	-4083
▁2015	-4084
发达国家的	-4085
商品和服务	-4086
非政府组织	-4087
9%	-4088
PP	-4089
ow	-4090
st	-4091
▁都	-4092
一天	-4093
不容	-4094
交换	-4095
介入	-4096
会上	-4097
农场	-4098
势头	-4099
却在	-4100
好像	-4101
姿态	-4102
布雷	-4103
建造	-4104
气温	-4105
游说	-4106
穷国	-4107
著作	-4108
课程	-4109
财产	-4110
赢家	-4111
走出	-4112
这将	-4113
▁否则	-4114
▁这将	-4115
和国家	-4116
和教育	-4117
和欧盟	-4118
大量的	-4119
应该在	-4120
我们对	-4121
来解决	-4122
根本性	-4123
的商业	-4124
的总统	-4125
系统性	-4126
脆弱性	-4127
一些国家	-4128
公民社会	-4129
提供资金	-4130
的领导人	-4131
被认为是	-4132
这是一个	-4133
二十一世纪	-4134
▁J	-4135
▁正	-4136
之势	-4137
仇恨	-4138
仔细	-4139
代理	-4140
区分	-4141
压制	-4142
呈现	-4143
妨碍	-4144
定居	-4145
小平	-4146
巴布	-4147
年内	-4148
开启	-4149
急需	-4150
所赐	-4151
攀升	-4152
有害	-4153
白宫	-4154
缓和	-4155
让步	-4156
迈向	-4157
进化	-4158
con	-4159
▁的确	-4160
也许会	-4161
减少了	-4162
和德国	-4163
实施的	-4164
日本的	-4165
是如何	-4166
的好处	-4167
类似于	-4168
议定书	-4169
起作用	-4170
邓小平	-4171
领导者	-4172
tern	-4173
▁在这一	-4174
政府债券	-4175
欧洲经济	-4176
紧张局势	-4177
组成部分	-4178
▁无论如何	-4179
22	-4180
AI	-4181
CD	-4182
再度	-4183
南方	-4184
只占	-4185
同情	-4186
圣战	-4187
大胆	-4188
废除	-4189
态势	-4190
我在	-4191
的中	-4192
红利	-4193
缩减	-4194
黄金	-4195
ist	-4196
不知道	-4197
实现的	-4198
的国内	-4199
的时代	-4200
第一步	-4201
而这些	-4202
遭到了	-4203
项目的	-4204
▁但如今	-4205
一带一路	-4206
世贸组织	-4207
医疗保健	-4208
告诉我们	-4209
恐怖袭击	-4210
无法获得	-4211
的过程中	-4212
贸易伙伴	-4213
通胀目标	-4214
二氧化碳排放	-4215
▁被	-4216
▁阿	-4217
不及	-4218
事故	-4219
克斯	-4220
减弱	-4221
几周	-4222
北部	-4223
北非	-4224
千年	-4225
哪个	-4226
哪怕	-4227
地理	-4228
坚决	-4229
多个	-4230
将被	-4231
布里	-4232
所需	-4233
抵抗	-4234
日元	-4235
时任	-4236
眼下	-4237
自信	-4238
薪酬	-4239
适合	-4240
遵循	-4241
都被	-4242
▁必须	-4243
▁相比	-4244
使用的	-4245
国务卿	-4246
希拉里	-4247
技术和	-4248
斯科尼	-4249
时间的	-4250
是全球	-4251
有关的	-4252
服务的	-4253
的策略	-4254
高质量	-4255
四分之一	-4256
工作岗位	-4257
极有可能	-4258
经济表现	-4259
达成一致	-4260
下一	-4261
主题	-4262
以外	-4263
但也	-4264
分化	-4265
发言	-4266
商界	-4267
围绕	-4268
堪称	-4269
愿望	-4270
报纸	-4271
的海	-4272
知的	-4273
竭尽	-4274
纪录	-4275
老年	-4276
议题	-4277
软件	-4278
轻易	-4279
过多	-4280
逮捕	-4281
600	-4282
ern	-4283
▁具体	-4284
▁埃及	-4285
▁有人	-4286
下一个	-4287
人民的	-4288
他们对	-4289
前总统	-4290
在国内	-4291
在英国	-4292
就已经	-4293
控制的	-4294
收入和	-4295
的关注	-4296
的城市	-4297
的选举	-4298
破坏了	-4299
而言之	-4300
联盟的	-4301
aceb	-4302
▁但中国	-4303
令人震惊	-4304
其他地方	-4305
大规模的	-4306
艾滋病毒	-4307
欧元区国家	-4308
av	-4309
ou	-4310
传递	-4311
兰克	-4312
加利	-4313
勇气	-4314
叛乱	-4315
征税	-4316
很好	-4317
总量	-4318
慷慨	-4319
救助	-4320
更低	-4321
最有	-4322
民营	-4323
洪水	-4324
流程	-4325
游行	-4326
满意	-4327
疗法	-4328
真主	-4329
竞赛	-4330
设定	-4331
误导	-4332
这条	-4333
随时	-4334
预见	-4335
驱逐	-4336
-20	-4337
▁国家	-4338
▁直到	-4339
一方面	-4340
和商业	-4341
多年的	-4342
扩大的	-4343
根本上	-4344
独裁者	-4345
的一份	-4346
的条件	-4347
的比例	-4348
的立场	-4349
稳定和	-4350
罗伯特	-4351
英国人	-4352
该计划	-4353
世界贸易	-4354
公共部门	-4355
欧洲大陆	-4356
法国总统	-4357
竞争力的	-4358
绝大部分	-4359
非洲大陆	-4360
英格兰银行	-4361
acebook	-4362
不出	-4363
专利	-4364
之急	-4365
会被	-4366
信念	-4367
免受	-4368
受过	-4369
奥朗	-4370
带着	-4371
年将	-4372
德斯	-4373
打造	-4374
提款	-4375
旅游	-4376
无视	-4377
渐进	-4378
父亲	-4379
稳步	-4380
考察	-4381
计价	-4382
钢铁	-4383
铁路	-4384
麦肯	-4385
195	-4386
▁政治	-4387
下降了	-4388
务之急	-4389
奥朗德	-4390
就业和	-4391
年代末	-4392
有必要	-4393
的一大	-4394
的使用	-4395
的信心	-4396
的地位	-4397
真主党	-4398
统治者	-4399
需求的	-4400
▁为什么	-4401
所产生的	-4402
监管机构	-4403
跨大西洋	-4404
▁或	-4405
上台	-4406
人心	-4407
分布	-4408
务实	-4409
反复	-4410
吉尔	-4411
因而	-4412
它将	-4413
对立	-4414
将来	-4415
恶性	-4416
意志	-4417
毛泽	-4418
民调	-4419
沃斯	-4420
温度	-4421
激发	-4422
灾害	-4423
生涯	-4424
的名	-4425
细节	-4426
行列	-4427
诞生	-4428
赞成	-4429
趋同	-4430
足球	-4431
间接	-4432
限度	-4433
风能	-4434
Mar	-4435
ean	-4436
▁就连	-4437
▁至于	-4438
不管是	-4439
令人惊	-4440
印度的	-4441
即使在	-4442
年开始	-4443
总统的	-4444
有什么	-4445
毛泽东	-4446
活动的	-4447
的协议	-4448
简单的	-4449
起到了	-4450
银行业	-4451
非正式	-4452
▁the	-4453
一段时间	-4454
不断增加	-4455
我们应该	-4456
自由主义	-4457
银行系统	-4458
的货币政策	-4459
od	-4460
ry	-4461
亚太	-4462
亚投	-4463
信服	-4464
内的	-4465
内阁	-4466
判决	-4467
国企	-4468
女孩	-4469
威尔	-4470
尊严	-4471
强迫	-4472
归咎	-4473
忘记	-4474
抨击	-4475
拉夫	-4476
斯蒂	-4477
无数	-4478
有点	-4479
沉默	-4480
注重	-4481
监狱	-4482
盖茨	-4483
着陆	-4484
而对	-4485
航空	-4486
要在	-4487
远比	-4488
适当	-4489
逃离	-4490
长远	-4491
2.5	-4492
一些人	-4493
中国对	-4494
低成本	-4495
再一次	-4496
外国人	-4497
是可以	-4498
的道路	-4499
相结合	-4500
自由和	-4501
至少在	-4502
全球贸易	-4503
公共卫生	-4504
增长模式	-4505
欧元区的	-4506
竞争对手	-4507
其他国家的	-4508
三倍	-4509
之道	-4510
偏见	-4511
充斥	-4512
加深	-4513
动用	-4514
北方	-4515
半岛	-4516
卢旺	-4517
古老	-4518
大有	-4519
性恋	-4520
支配	-4521
波斯	-4522
福祉	-4523
种植	-4524
继任	-4525
能量	-4526
致死	-4527
诸如	-4528
贝卢	-4529
预言	-4530
193	-4531
不久前	-4532
主要的	-4533
伟大的	-4534
力量的	-4535
卢旺达	-4536
多样化	-4537
安全和	-4538
巴布韦	-4539
库尔德	-4540
我们所	-4541
显然是	-4542
来实现	-4543
每一个	-4544
民众的	-4545
水资源	-4546
演变为	-4547
莫斯科	-4548
该国的	-4549
达沃斯	-4550
都应该	-4551
麦肯锡	-4552
产能过剩	-4553
令人担忧	-4554
实体经济	-4555
当务之急	-4556
津巴布韦	-4557
特别提款	-4558
的一系列	-4559
金融部门	-4560
不可避免的	-4561
29	-4562
NA	-4563
ap	-4564
ub	-4565
不变	-4566
份子	-4567
做了	-4568
关联	-4569
写道	-4570
创立	-4571
圣地	-4572
培养	-4573
失灵	-4574
希特	-4575
日常	-4576
权衡	-4577
来到	-4578
死于	-4579
母亲	-4580
源于	-4581
穆尔	-4582
网站	-4583
罪行	-4584
聪明	-4585
能为	-4586
西斯	-4587
设置	-4588
超出	-4589
转换	-4590
辞职	-4591
过了	-4592
aul	-4593
▁伊朗	-4594
▁但它	-4595
▁北京	-4596
▁对此	-4597
▁希腊	-4598
不那么	-4599
与欧盟	-4600
似乎是	-4601
健康的	-4602
去杠杆	-4603
在世界	-4604
在没有	-4605
就不会	-4606
归咎于	-4607
教育的	-4608
的建议	-4609
的标准	-4610
确定性	-4611
结果是	-4612
这些人	-4613
都不会	-4614
▁但他们	-4615
▁土耳其	-4616
▁在中国	-4617
市场经济	-4618
快速增长	-4619
贝卢斯科尼	-4620
ah	-4621
丝绸	-4622
先例	-4623
前往	-4624
升息	-4625
反思	-4626
尼古	-4627
强力	-4628
强国	-4629
意图	-4630
涵盖	-4631
留下	-4632
筛查	-4633
芬兰	-4634
辛格	-4635
遥远	-4636
里根	-4637
雇主	-4638
首都	-4639
高出	-4640
omm	-4641
▁几乎	-4642
▁各国	-4643
不扩散	-4644
个世纪	-4645
传统的	-4646
但如果	-4647
但我们	-4648
借款人	-4649
受欢迎	-4650
变得更	-4651
和企业	-4652
和能源	-4653
和英国	-4654
在欧盟	-4655
布里奇	-4656
很好的	-4657
政府对	-4658
民主和	-4659
活力的	-4660
短期内	-4661
全球化的	-4662
发展目标	-4663
平均水平	-4664
解决问题	-4665
ov	-4666
qu	-4667
▁.	-4668
一边	-4669
东京	-4670
也被	-4671
仍将	-4672
件事	-4673
便宜	-4674
修订	-4675
出人	-4676
加密	-4677
北美	-4678
压迫	-4679
双重	-4680
可见	-4681
名为	-4682
地将	-4683
多大	-4684
大使	-4685
它在	-4686
左派	-4687
征收	-4688
拉动	-4689
提到	-4690
教师	-4691
既然	-4692
有益	-4693
此类	-4694
测量	-4695
看看	-4696
着眼	-4697
破裂	-4698
缺失	-4699
详细	-4700
谋杀	-4701
辩护	-4702
适用	-4703
长久	-4704
阵线	-4705
und	-4706
▁关于	-4707
▁应该	-4708
▁接着	-4709
▁这项	-4710
了一份	-4711
了中国	-4712
充满了	-4713
公平的	-4714
其实是	-4715
反对者	-4716
可靠的	-4717
和文化	-4718
大银行	-4719
就无法	-4720
没有人	-4721
现在的	-4722
生活的	-4723
的报告	-4724
的监管	-4725
的趋势	-4726
秘书长	-4727
程度的	-4728
著名的	-4729
规则的	-4730
让它们	-4731
资本流	-4732
近年来	-4733
▁习近平	-4734
为基础的	-4735
公共债务	-4736
和俄罗斯	-4737
好消息是	-4738
影响力的	-4739
很可能会	-4740
采取措施	-4741
马来西亚	-4742
伊拉克战争	-4743
变得越来越	-4744
自由贸易协定	-4745
ak	-4746
▁V	-4747
不前	-4748
不惜	-4749
不止	-4750
中亚	-4751
兴起	-4752
劳工	-4753
厌恶	-4754
城镇	-4755
大力	-4756
大气	-4757
将从	-4758
尼克	-4759
已是	-4760
待遇	-4761
扩展	-4762
拖延	-4763
指望	-4764
掌权	-4765
接收	-4766
效的	-4767
最多	-4768
核电	-4769
涌入	-4770
率的	-4771
维奇	-4772
谈论	-4773
预料	-4774
风暴	-4775
鲜明	-4776
194	-4777
70%	-4778
SDG	-4779
▁当前	-4780
了全球	-4781
会带来	-4782
办法是	-4783
和政策	-4784
在某些	-4785
增加到	-4786
家庭的	-4787
核计划	-4788
的和平	-4789
稳定性	-4790
▁全世界	-4791
▁我们的	-4792
丝绸之路	-4793
了一系列	-4794
别无选择	-4795
竭尽全力	-4796
这些措施	-4797
长期利率	-4798
问题上的	-4799
经济增长的	-4800
阿拉伯世界	-4801
联合国安理会	-4802
国家主席习近平	-4803
撒哈拉以南非洲	-4804
26	-4805
EC	-4806
ot	-4807
▁d	-4808
不堪	-4809
乌干	-4810
体验	-4811
作家	-4812
刚果	-4813
勒庞	-4814
卡特	-4815
尔斯	-4816
弗里	-4817
得出	-4818
报复	-4819
效仿	-4820
救援	-4821
无限	-4822
有力	-4823
浮动	-4824
虐待	-4825
设法	-4826
诉讼	-4827
飞机	-4828
万美元	-4829
不仅是	-4830
乌干达	-4831
什么样	-4832
共同体	-4833
单方面	-4834
印度和	-4835
只需要	-4836
和发展	-4837
实力的	-4838
对欧盟	-4839
接受了	-4840
最高的	-4841
的崛起	-4842
的非洲	-4843
罗斯福	-4844
美国对	-4845
采取的	-4846
▁在欧洲	-4847
▁大多数	-4848
▁阿根廷	-4849
作为一个	-4850
医疗服务	-4851
坎布里奇	-4852
之间的关系	-4853
低收入国家	-4854
奥巴马政府	-4855
美国和欧洲	-4856
国内生产总值	-4857
1/	-4858
2,	-4859
5.	-4860
SA	-4861
ia	-4862
▁年	-4863
亦然	-4864
促成	-4865
凝聚	-4866
含义	-4867
基准	-4868
学会	-4869
定期	-4870
家宝	-4871
展现	-4872
引用	-4873
或缺	-4874
探索	-4875
推高	-4876
收购	-4877
模仿	-4878
生的	-4879
盟国	-4880
目睹	-4881
稀缺	-4882
纯粹	-4883
自主	-4884
论文	-4885
连任	-4886
重振	-4887
魅力	-4888
▁确实	-4889
其经济	-4890
出口国	-4891
在这一	-4892
失败的	-4893
希特勒	-4894
意义上	-4895
是否能	-4896
的传统	-4897
的资产	-4898
中央政府	-4899
基地组织	-4900
强有力的	-4901
灾难性的	-4902
直接投资	-4903
货币贬值	-4904
▁2010	-4905
▁可以肯定	-4906
▁到目前为止	-4907
▁更糟糕的是	-4908
下台	-4909
两党	-4910
两岸	-4911
仅有	-4912
会晤	-4913
否定	-4914
和不	-4915
好事	-4916
捐助	-4917
提名	-4918
收支	-4919
易事	-4920
更广	-4921
激增	-4922
疫情	-4923
等等	-4924
管辖	-4925
米亚	-4926
精力	-4927
维尔	-4928
置于	-4929
蛋白	-4930
这笔	-4931
选战	-4932
700	-4933
▁从而	-4934
可以为	-4935
可以让	-4936
国际法	-4937
对这些	-4938
就应该	-4939
就没有	-4940
峰会上	-4941
工作者	-4942
普林斯	-4943
更广泛	-4944
极右翼	-4945
理论上	-4946
的因素	-4947
的新兴	-4948
的概念	-4949
的资源	-4950
证明了	-4951
资本外	-4952
1998	-4953
▁伯克利	-4954
不是一个	-4955
各成员国	-4956
知识产权	-4957
社会保障	-4958
经济危机	-4959
财政刺激	-4960
这一观点	-4961
▁我们必须	-4962
Facebook	-4963
加泰	-4964
埔寨	-4965
平面	-4966
扼杀	-4967
推出	-4968
数百	-4969
有权	-4970
树立	-4971
熟悉	-4972
特区	-4973
特币	-4974
白人	-4975
莫迪	-4976
行事	-4977
裁军	-4978
警惕	-4979
身为	-4980
这里	-4981
金钱	-4982
黑暗	-4983
est	-4984
上升到	-4985
下一次	-4986
不相同	-4987
内部的	-4988
加泰罗	-4989
包容性	-4990
可以用	-4991
挑战的	-4992
政治和	-4993
柬埔寨	-4994
欧元的	-4995
温家宝	-4996
第二大	-4997
警告说	-4998
需要在	-4999
不可或缺	-5000
共和党人	-5001
其他地区	-5002
十九世纪	-5003
年增长率	-5004
普林斯顿	-5005
最严重的	-5006
言论自由	-5007
▁2014	-5008
中国和印度	-5009
加泰罗尼亚	-5010
总统奥巴马	-5011
年全球金融危机	-5012
ie	-5013
tu	-5014
主持	-5015
全体	-5016
匹配	-5017
半年	-5018
卡扎	-5019
地带	-5020
大概	-5021
太过	-5022
容克	-5023
对比	-5024
将使	-5025
平价	-5026
必将	-5027
所为	-5028
排斥	-5029
放任	-5030
数学	-5031
明证	-5032
本来	-5033
此后	-5034
秘鲁	-5035
自杀	-5036
街头	-5037
转而	-5038
通往	-5039
重复	-5040
ati	-5041
ell	-5042
▁on	-5043
▁另外	-5044
▁民主	-5045
上个月	-5046
也存在	-5047
充斥着	-5048
共同的	-5049
加利福	-5050
地位的	-5051
很重要	-5052
成本的	-5053
欧洲和	-5054
的领域	-5055
穆尔西	-5056
莫过于	-5057
被用于	-5058
西方的	-5059
选择了	-5060
里斯本	-5061
1989	-5062
世界各国	-5063
乌克兰的	-5064
令人信服	-5065
出人意料	-5066
提高利率	-5067
新兴国家	-5068
更有可能	-5069
这一比例	-5070
▁2012	-5071
▁坎布里奇	-5072
加利福尼亚	-5073
▁第	-5074
▁说	-5075
京都	-5076
代人	-5077
你的	-5078
侵蚀	-5079
充当	-5080
出色	-5081
到达	-5082
剩余	-5083
协会	-5084
卡塔	-5085
反恐	-5086
士兵	-5087
子女	-5088
它是	-5089
市长	-5090
影子	-5091
挣扎	-5092
既得	-5093
是以	-5094
流失	-5095
浪潮	-5096
纪律	-5097
组建	-5098
经理	-5099
耗尽	-5100
这两	-5101
邀请	-5102
雇用	-5103
ohn	-5104
▁Ch	-5105
▁布什	-5106
他们将	-5107
助长了	-5108
危机前	-5109
合作的	-5110
同性恋	-5111
城市的	-5112
已经有	-5113
性疾病	-5114
想象的	-5115
排除在	-5116
本质上	-5117
机构和	-5118
每个人	-5119
等国家	-5120
让中国	-5121
购买力	-5122
还应该	-5123
进入了	-5124
页岩气	-5125
马克思	-5126
▁但尽管	-5127
一个新的	-5128
很快就会	-5129
总体而言	-5130
是正确的	-5131
这一趋势	-5132
的解决方案	-5133
金融市场的	-5134
75	-5135
一道	-5136
东部	-5137
以使	-5138
住宅	-5139
前沿	-5140
卡尔	-5141
叙事	-5142
对策	-5143
差别	-5144
已久	-5145
形容	-5146
摩洛	-5147
敌对	-5148
旅行	-5149
最快	-5150
未必	-5151
杂志	-5152
根深	-5153
特权	-5154
看待	-5155
萎缩	-5156
萨达	-5157
葛兰	-5158
触发	-5159
误解	-5160
赶超	-5161
起着	-5162
转折	-5163
过早	-5164
重申	-5165
附近	-5166
▁正在	-5167
▁银行	-5168
▁香港	-5169
之外的	-5170
二十年	-5171
些什么	-5172
令人瞩	-5173
储蓄率	-5174
创新和	-5175
占全球	-5176
困难的	-5177
城市化	-5178
年代初	-5179
并最终	-5180
提高到	-5181
摩洛哥	-5182
普京的	-5183
最新的	-5184
根本不	-5185
环境中	-5186
现有的	-5187
的状况	-5188
的讨论	-5189
随之而	-5190
▁在这种	-5191
不可能的	-5192
俄罗斯和	-5193
借贷成本	-5194
恰恰相反	-5195
是错误的	-5196
欧洲银行	-5197
清洁能源	-5198
▁相比之下	-5199
石油和天然气	-5200
An	-5201
aw	-5202
ne	-5203
会谈	-5204
作者	-5205
列为	-5206
区块	-5207
同等	-5208
吸取	-5209
吸烟	-5210
和非	-5211
大家	-5212
年里	-5213
异常	-5214
折磨	-5215
描绘	-5216
数以	-5217
数的	-5218
期的	-5219
正好	-5220
汲取	-5221
电厂	-5222
算法	-5223
管道	-5224
西部	-5225
要让	-5226
邪恶	-5227
面向	-5228
高涨	-5229
▁按照	-5230
▁未来	-5231
不可少	-5232
中国将	-5233
了这些	-5234
会产生	-5235
却没有	-5236
周期性	-5237
和就业	-5238
国集团	-5239
实验室	-5240
已开始	-5241
引人注	-5242
总量的	-5243
所得税	-5244
结束了	-5245
还包括	-5246
Paul	-5247
▁从这个	-5248
中等收入	-5249
克里米亚	-5250
如果没有	-5251
必不可少	-5252
替代方案	-5253
有所下降	-5254
社会主义	-5255
税收收入	-5256
美国国会	-5257
难民危机	-5258
▁Part	-5259
特别提款权	-5260
贸易和投资	-5261
DR	-5262
▁本	-5263
主动	-5264
主教	-5265
也要	-5266
人所	-5267
以致	-5268
军方	-5269
准则	-5270
及时	-5271
塑料	-5272
子孙	-5273
学科	-5274
宣扬	-5275
小心	-5276
巴斯	-5277
并为	-5278
开采	-5279
戈尔	-5280
日内	-5281
果真	-5282
检测	-5283
混合	-5284
漫长	-5285
用水	-5286
筹集	-5287
蒂固	-5288
衍生	-5289
追溯	-5290
重启	-5291
错了	-5292
lob	-5293
中获得	-5294
亚投行	-5295
依然是	-5296
全球性	-5297
公司和	-5298
区块链	-5299
卡扎菲	-5300
危机后	-5301
史以来	-5302
和法国	-5303
和资本	-5304
在去年	-5305
对经济	-5306
年前的	-5307
或其他	-5308
林斯潘	-5309
比特币	-5310
深刻的	-5311
生产商	-5312
生育率	-5313
的人类	-5314
的依赖	-5315
的信任	-5316
的教育	-5317
的数字	-5318
的第一	-5319
的进步	-5320
的错误	-5321
而中国	-5322
观察者	-5323
角度讲	-5324
调整的	-5325
贸易战	-5326
这也是	-5327
▁不管是	-5328
世界上最	-5329
和平进程	-5330
极端主义	-5331
根深蒂固	-5332
格林斯潘	-5333
的支持者	-5334
lobal	-5335
▁2013	-5336
阿拉伯国家	-5337
▁更重要的是	-5338
QE	-5339
ik	-5340
ru	-5341
不知	-5342
乐部	-5343
企图	-5344
优秀	-5345
但对	-5346
公债	-5347
其反	-5348
准入	-5349
创始	-5350
友好	-5351
和高	-5352
哈尼	-5353
在了	-5354
声誉	-5355
奥运	-5356
宝贵	-5357
审视	-5358
富国	-5359
愚蠢	-5360
成年	-5361
指向	-5362
指挥	-5363
捷克	-5364
排名	-5365
朝着	-5366
每一	-5367
直面	-5368
祖国	-5369
累积	-5370
而又	-5371
自治	-5372
解除	-5373
输出	-5374
ber	-5375
ens	-5376
▁有时	-5377
▁某些	-5378
二战后	-5379
俱乐部	-5380
和监管	-5381
大幅度	-5382
存在于	-5383
它们在	-5384
有理由	-5385
此之外	-5386
的任何	-5387
的决策	-5388
的实际	-5389
的暴力	-5390
的真正	-5391
的程度	-5392
的预测	-5393
而不能	-5394
远低于	-5395
cial	-5396
▁The	-5397
人均收入	-5398
国际贸易	-5399
性别平等	-5400
的问题上	-5401
财政紧缩	-5402
总理默克尔	-5403
特朗普政府	-5404
生物多样性	-5405
穆斯林兄弟	-5406
7.	-5407
Al	-5408
io	-5409
▁中	-5410
临床	-5411
伴随	-5412
其所	-5413
同盟	-5414
听到	-5415
宪章	-5416
广场	-5417
接种	-5418
推特	-5419
推移	-5420
提前	-5421
揭露	-5422
曾在	-5423
河流	-5424
沿海	-5425
海湾	-5426
目光	-5427
美中	-5428
舆论	-5429
苹果	-5430
范畴	-5431
认同	-5432
遗传	-5433
顽固	-5434
高层	-5435
ess	-5436
▁新的	-5437
▁是的	-5438
中心的	-5439
也开始	-5440
了欧洲	-5441
体现在	-5442
公共和	-5443
决不能	-5444
制定了	-5445
可怕的	-5446
在许多	-5447
增长了	-5448
工人的	-5449
得多的	-5450
德拉吉	-5451
来应对	-5452
来源于	-5453
正常化	-5454
法西斯	-5455
的教训	-5456
的比重	-5457
的英国	-5458
给我们	-5459
资源的	-5460
都不是	-5461
都知道	-5462
阻碍了	-5463
预计将	-5464
鲁哈尼	-5465
1991	-5466
▁而不是	-5467
债务重组	-5468
在政治上	-5469
巴黎气候	-5470
现在已经	-5471
的人来说	-5472
罗马尼亚	-5473
金融系统	-5474
conom	-5475
▁布鲁塞尔	-5476
不可持续的	-5477
和其他国家	-5478
政治领导人	-5479
▁最重要的是	-5480
ct	-5481
ff	-5482
▁向	-5483
▁斯	-5484
为时	-5485
也更	-5486
会计	-5487
偏离	-5488
出席	-5489
制衡	-5490
奠定	-5491
尤为	-5492
幻想	-5493
当作	-5494
心脏	-5495
忍受	-5496
打开	-5497
是将	-5498
架构	-5499
注册	-5500
猜测	-5501
短短	-5502
约为	-5503
缓冲	-5504
美军	-5505
轻松	-5506
迁徙	-5507
ine	-5508
ran	-5509
▁人类	-5510
▁历史	-5511
▁当今	-5512
▁自从	-5513
与欧洲	-5514
也已经	-5515
刺激了	-5516
政权的	-5517
新一轮	-5518
最大化	-5519
海平面	-5520
现实的	-5521
的严重	-5522
的创新	-5523
的前提	-5524
的合作	-5525
的胜利	-5526
的过程	-5527
看到了	-5528
而美国	-5529
自由派	-5530
1970	-5531
▁但这种	-5532
人力资本	-5533
委员会的	-5534
子孙后代	-5535
所提出的	-5536
民主制度	-5537
民族国家	-5538
经济政策	-5539
能够获得	-5540
自由市场	-5541
资本账户	-5542
▁不仅如此	-5543
▁好消息是	-5544
欧盟领导人	-5545
的经济学家	-5546
经济和社会	-5547
中国人民银行	-5548
经常项目赤字	-5549
▁Econom	-5550
ternational	-5551
ES	-5552
hi	-5553
▁U	-5554
▁多	-5555
一倍	-5556
不住	-5557
不对	-5558
临近	-5559
修建	-5560
倒退	-5561
反腐	-5562
大批	-5563
奇迹	-5564
很低	-5565
恶劣	-5566
意的	-5567
掌控	-5568
揭示	-5569
教科	-5570
新型	-5571
星期	-5572
显现	-5573
本土	-5574
本应	-5575
来为	-5576
极度	-5577
检察	-5578
此举	-5579
燃烧	-5580
着手	-5581
苦难	-5582
边际	-5583
遇到	-5584
附加	-5585
顺差	-5586
▁事实	-5587
▁社会	-5588
▁第四	-5589
▁通常	-5590
▁需要	-5591
外交官	-5592
完全是	-5593
很简单	-5594
我们将	-5595
控制权	-5596
数十年	-5597
的产品	-5598
的制度	-5599
的危机	-5600
谈判的	-5601
价格上涨	-5602
停滞不前	-5603
军事行动	-5604
成为世界	-5605
既得利益	-5606
的美国人	-5607
西方国家	-5608
这一事实	-5609
▁2011	-5610
不可避免地	-5611
京都议定书	-5612
奥巴马总统	-5613
提供了一个	-5614
政策制定者	-5615
美联储主席	-5616
oc	-5617
ud	-5618
一小	-5619
上加	-5620
不复	-5621
不多	-5622
不想	-5623
业的	-5624
为首	-5625
事物	-5626
交给	-5627
从中	-5628
他对	-5629
估值	-5630
出手	-5631
前者	-5632
千万	-5633
呼声	-5634
外债	-5635
对象	-5636
将为	-5637
就连	-5638
强的	-5639
得益	-5640
悬崖	-5641
打算	-5642
执法	-5643
撤出	-5644
撤销	-5645
改造	-5646
新增	-5647
有过	-5648
正统	-5649
比赛	-5650
港口	-5651
瘫痪	-5652
的水	-5653
科研	-5654
耗费	-5655
蒙受	-5656
评价	-5657
调节	-5658
追踪	-5659
里亚	-5660
CEO	-5661
▁一种	-5662
▁可能	-5663
▁然后	-5664
三十年	-5665
不信任	-5666
严格的	-5667
会发生	-5668
公众对	-5669
其自身	-5670
和货币	-5671
局限于	-5672
已不再	-5673
并因此	-5674
影响了	-5675
很好地	-5676
所有权	-5677
支出的	-5678
日内瓦	-5679
更低的	-5680
的一致	-5681
的不同	-5682
的个人	-5683
的人均	-5684
管理者	-5685
结束后	-5686
高风险	-5687
▁乌克兰	-5688
债券市场	-5689
做好准备	-5690
关键作用	-5691
其中包括	-5692
根本没有	-5693
永远不会	-5694
私营部门	-5695
1,000	-5696
俄罗斯总统	-5697
指出的那样	-5698
政治和经济	-5699
的全球经济	-5700
▁无	-5701
一词	-5702
不振	-5703
之地	-5704
事关	-5705
低了	-5706
元素	-5707
前途	-5708
区的	-5709
咨询	-5710
因于	-5711
小说	-5712
就有	-5713
居高	-5714
成千	-5715
房产	-5716
揽子	-5717
最小	-5718
期限	-5719
概率	-5720
炸弹	-5721
禁令	-5722
细菌	-5723
置疑	-5724
而后	-5725
职务	-5726
西岸	-5727
较为	-5728
降至	-5729
音乐	-5730
颇为	-5731
颇具	-5732
Rob	-5733
sti	-5734
▁主要	-5735
▁但对	-5736
▁实现	-5737
▁还是	-5738
与伊朗	-5739
之后的	-5740
付出的	-5741
创造出	-5742
对那些	-5743
就开始	-5744
建立起	-5745
归因于	-5746
忽略了	-5747
所造成	-5748
明智的	-5749
暴力的	-5750
的儿童	-5751
的生产	-5752
的规则	-5753
行动方	-5754
退休金	-5755
预见的	-5756
▁197	-5757
▁但随着	-5758
▁让我们	-5759
令人不安	-5760
令人失望	-5761
大幅下降	-5762
最高法院	-5763
的方式来	-5764
联邦政府	-5765
自由流动	-5766
行动起来	-5767
雄心勃勃	-5768
的不确定性	-5769
65	-5770
上市	-5771
买入	-5772
作品	-5773
倡导	-5774
储量	-5775
克鲁	-5776
免于	-5777
其余	-5778
减缓	-5779
切地	-5780
力和	-5781
周围	-5782
和水	-5783
国界	-5784
失误	-5785
对付	-5786
将于	-5787
开端	-5788
归根	-5789
慢性	-5790
成绩	-5791
曝光	-5792
杀戮	-5793
灭绝	-5794
用途	-5795
的那	-5796
科尔	-5797
等同	-5798
紧要	-5799
维也	-5800
耐心	-5801
花了	-5802
论者	-5803
诚实	-5804
还不	-5805
那时	-5806
雇佣	-5807
顶层	-5808
Eur	-5809
iss	-5810
▁关键	-5811
▁解决	-5812
不在于	-5813
世界最	-5814
人死亡	-5815
关注的	-5816
准备好	-5817
又一次	-5818
和债务	-5819
在这里	-5820
定义为	-5821
尼克松	-5822
巴塞尔	-5823
急需的	-5824
持有的	-5825
是对的	-5826
是欧洲	-5827
潜在的	-5828
理性的	-5829
的原则	-5830
的德国	-5831
的损失	-5832
的时期	-5833
的证据	-5834
着眼于	-5835
能带来	-5836
追随者	-5837
1000	-5838
ence	-5839
evel	-5840
▁Pro	-5841
▁但美国	-5842
▁即使在	-5843
世界秩序	-5844
也有可能	-5845
债务危机	-5846
充分利用	-5847
加入欧盟	-5848
只不过是	-5849
唯一一个	-5850
所作所为	-5851
极端贫困	-5852
核不扩散	-5853
根本无法	-5854
经济活动	-5855
资本流入	-5856
▁中国领导人	-5857
穆斯林兄弟会	-5858
3,	-5859
Ch	-5860
▁再	-5861
东道	-5862
举办	-5863
之内	-5864
也为	-5865
也让	-5866
互换	-5867
五个	-5868
会让	-5869
体育	-5870
分担	-5871
医保	-5872
单独	-5873
合约	-5874
奥尔	-5875
携带	-5876
政界	-5877
时报	-5878
是其	-5879
此外	-5880
的低	-5881
签证	-5882
纽黑	-5883
结底	-5884
给出	-5885
肥胖	-5886
节目	-5887
诽谤	-5888
豁免	-5889
起义	-5890
跨越	-5891
身处	-5892
轨迹	-5893
通信	-5894
重来	-5895
隐藏	-5896
高估	-5897
25%	-5898
250	-5899
son	-5900
▁第一	-5901
副总统	-5902
去年的	-5903
发展和	-5904
因素是	-5905
在亚洲	-5906
地认为	-5907
坏消息	-5908
恢复力	-5909
惊人的	-5910
感受到	-5911
成千上	-5912
执行官	-5913
最近在	-5914
的信贷	-5915
的出口	-5916
的新闻	-5917
的激励	-5918
的税收	-5919
的规模	-5920
的选民	-5921
的需要	-5922
的项目	-5923
纽黑文	-5924
继任者	-5925
维也纳	-5926
这就是	-5927
阻止了	-5928
面临的	-5929
高科技	-5930
▁即使是	-5931
中小企业	-5932
以色列的	-5933
几乎所有	-5934
发挥作用	-5935
商品价格	-5936
增长放缓	-5937
将在未来	-5938
就有可能	-5939
工业革命	-5940
归根结底	-5941
我们已经	-5942
石油公司	-5943
财富基金	-5944
近几年来	-5945
▁世界银行	-5946
全球经济的	-5947
很大一部分	-5948
ex	-5949
▁若	-5950
不像	-5951
不大	-5952
也对	-5953
也门	-5954
他所	-5955
击败	-5956
切断	-5957
博弈	-5958
卷土	-5959
反抗	-5960
四年	-5961
复制	-5962
大坝	-5963
奖励	-5964
它所	-5965
已被	-5966
并对	-5967
建国	-5968
强加	-5969
彼得	-5970
德曼	-5971
推向	-5972
收回	-5973
放大	-5974
政体	-5975
有意	-5976
海上	-5977
现行	-5978
生效	-5979
疯狂	-5980
突出	-5981
等国	-5982
级别	-5983
羞辱	-5984
英雄	-5985
范式	-5986
许可	-5987
赞助	-5988
轨道	-5989
远见	-5990
迫害	-5991
逃避	-5992
阴影	-5993
霍乱	-5994
iti	-5995
▁Co	-5996
▁我的	-5997
▁面对	-5998
▁韩国	-5999
代表着	-6000
以及在	-6001
信息和	-6002
再分配	-6003
反对党	-6004
可以将	-6005
吸引了	-6006
大屠杀	-6007
将带来	-6008
工程师	-6009
忽视了	-6010
持续的	-6011
接近于	-6012
是不是	-6013
有一天	-6014
比其他	-6015
独立性	-6016
的利率	-6017
的土地	-6018
的家庭	-6019
的数量	-6020
的科学	-6021
私有化	-6022
萨达姆	-6023
衍生品	-6024
贷款人	-6025
起来的	-6026
还不到	-6027
这么做	-6028
▁这样做	-6029
▁马德里	-6030
刺激计划	-6031
劳动力的	-6032
卫生组织	-6033
可能成为	-6034
和叙利亚	-6035
如果我们	-6036
就是一个	-6037
投资者的	-6038
石油价格	-6039
重要作用	-6040
stitu	-6041
▁如果中国	-6042
欧洲一体化	-6043
Robert	-6044
大宗商品价格	-6045
▁举	-6046
与之	-6047
主体	-6048
优惠	-6049
公私	-6050
关押	-6051
军备	-6052
凭借	-6053
加纳	-6054
原子	-6055
各州	-6056
名单	-6057
告终	-6058
哈萨	-6059
埃尔	-6060
基石	-6061
增速	-6062
大臣	-6063
宇宙	-6064
宽容	-6065
就职	-6066
尽快	-6067
展望	-6068
底层	-6069
想想	-6070
战术	-6071
所做	-6072
捕捞	-6073
机关	-6074
极限	-6075
海啸	-6076
的事	-6077
的可	-6078
神话	-6079
荒谬	-6080
萨科	-6081
蓬勃	-6082
论证	-6083
适得	-6084
面的	-6085
韦斯	-6086
预示	-6087
默德	-6088
▁原因	-6089
▁基于	-6090
▁答案	-6091
下来的	-6092
不利于	-6093
保持在	-6094
副作用	-6095
双方都	-6096
和平的	-6097
国务院	-6098
在我们	-6099
在最近	-6100
应该被	-6101
很快就	-6102
必然会	-6103
感兴趣	-6104
政府将	-6105
数字化	-6106
有一些	-6107
比美国	-6108
没什么	-6109
注意到	-6110
灵活性	-6111
的冲突	-6112
的有效	-6113
的相关	-6114
研究者	-6115
路线图	-6116
都已经	-6117
1999	-6118
John	-6119
inan	-6120
▁上个月	-6121
▁在这些	-6122
▁新德里	-6123
▁第二个	-6124
▁结果是	-6125
中东地区	-6126
中国已经	-6127
主导地位	-6128
前所未有	-6129
半个世纪	-6130
双边关系	-6131
国内政治	-6132
国内消费	-6133
外交部长	-6134
央行行长	-6135
年代以来	-6136
日益增加	-6137
这方面的	-6138
适得其反	-6139
▁2009	-6140
外交政策的	-6141
联系在一起	-6142
美国总统奥巴马	-6143
CT	-6144
og	-6145
一段	-6146
三年	-6147
两极	-6148
伯格	-6149
但仍	-6150
借此	-6151
兑换	-6152
内贾	-6153
勇敢	-6154
升温	-6155
协作	-6156
和谐	-6157
回顾	-6158
国王	-6159
塑造	-6160
增值	-6161
学派	-6162
实用	-6163
封闭	-6164
布拉	-6165
当代	-6166
当年	-6167
托斯	-6168
报导	-6169
挂钩	-6170
晋三	-6171
有用	-6172
比尔	-6173
理事	-6174
病例	-6175
的非	-6176
编辑	-6177
节约	-6178
视角	-6179
论调	-6180
谎言	-6181
近乎	-6182
避难	-6183
阿里	-6184
800	-6185
▁欧元	-6186
▁认为	-6187
事件的	-6188
从而让	-6189
他们会	-6190
但这些	-6191
全新的	-6192
内贾德	-6193
加入了	-6194
历史的	-6195
和支持	-6196
和贸易	-6197
和韩国	-6198
在非洲	-6199
复杂性	-6200
安全网	-6201
完成了	-6202
并且在	-6203
成立了	-6204
执政的	-6205
推动了	-6206
是非常	-6207
查韦斯	-6208
疾病的	-6209
的一步	-6210
的主权	-6211
的看法	-6212
的难民	-6213
第三个	-6214
糟糕的	-6215
罕默德	-6216
能源和	-6217
表面上	-6218
詹姆斯	-6219
1979	-6220
▁如果你	-6221
与俄罗斯	-6222
几十年中	-6223
如何应对	-6224
对中国的	-6225
总统大选	-6226
政府必须	-6227
紧缩政策	-6228
自身利益	-6229
跨太平洋	-6230
这场危机	-6231
金融服务	-6232
哈萨克斯坦	-6233
进一步恶化	-6234
首席执行官	-6235
▁p	-6236
▁几	-6237
▁很	-6238
一无	-6239
不错	-6240
不顾	-6241
为期	-6242
众所	-6243
克劳	-6244
兰卡	-6245
内在	-6246
内政	-6247
加哥	-6248
匮乏	-6249
后续	-6250
在与	-6251
够的	-6252
峰值	-6253
州和	-6254
席卷	-6255
平稳	-6256
庆祝	-6257
微妙	-6258
意思	-6259
成百	-6260
成的	-6261
截止	-6262
手术	-6263
政坛	-6264
新鲜	-6265
方便	-6266
更新	-6267
牛津	-6268
特色	-6269
电池	-6270
直觉	-6271
眼中	-6272
破灭	-6273
经受	-6274
老牌	-6275
腺癌	-6276
这让	-6277
道而	-6278
防卫	-6279
隐私	-6280
雇员	-6281
ind	-6282
▁传统	-6283
▁大约	-6284
▁已经	-6285
▁柏林	-6286
▁这次	-6287
代表了	-6288
体现了	-6289
修正案	-6290
充分的	-6291
卡塔尔	-6292
回报率	-6293
因为在	-6294
就可能	-6295
措施的	-6296
政府间	-6297
最重要	-6298
痛苦的	-6299
的不满	-6300
的组织	-6301
的部分	-6302
的预期	-6303
相同的	-6304
能获得	-6305
芝加哥	-6306
违反了	-6307
长期的	-6308
▁但现在	-6309
不幸的是	-6310
单一货币	-6311
安倍晋三	-6312
寻求庇护	-6313
所有人的	-6314
政府官员	-6315
是不够的	-6316
民意调查	-6317
生活方式	-6318
试图通过	-6319
诺贝尔奖	-6320
2,000	-6321
opean	-6322
凯恩斯主义	-6323
的经济发展	-6324
evelop	-6325
9.	-6326
DA	-6327
不清	-6328
中欧	-6329
中止	-6330
享有	-6331
但他	-6332
借钱	-6333
单边	-6334
受损	-6335
受访	-6336
境况	-6337
境地	-6338
增进	-6339
头上	-6340
始终	-6341
将给	-6342
小国	-6343
年时	-6344
挤兑	-6345
接管	-6346
杀死	-6347
症状	-6348
短暂	-6349
精确	-6350
英语	-6351
行使	-6352
补助	-6353
解读	-6354
警方	-6355
诉求	-6356
迈进	-6357
遗憾	-6358
随机	-6359
难免	-6360
SDR	-6361
ton	-6362
▁但当	-6363
▁普京	-6364
▁来自	-6365
世界中	-6366
了大量	-6367
了许多	-6368
人民党	-6369
众所周	-6370
决定了	-6371
分析师	-6372
可以被	-6373
可以说	-6374
同时又	-6375
和世界	-6376
哲学家	-6377
基础上	-6378
多年前	-6379
对这一	-6380
将这些	-6381
往往会	-6382
新常态	-6383
无法在	-6384
是一场	-6385
是不可	-6386
有限的	-6387
生产的	-6388
的下降	-6389
的想法	-6390
的最高	-6391
的目的	-6392
签署了	-6393
管理的	-6394
统一的	-6395
美国家	-6396
脆弱的	-6397
2025	-6398
▁今天的	-6399
▁西班牙	-6400
价格稳定	-6401
伊拉克的	-6402
债务负担	-6403
公共服务	-6404
军事力量	-6405
和土耳其	-6406
就是明证	-6407
投资银行	-6408
是否能够	-6409
波斯尼亚	-6410
的俄罗斯	-6411
的另一个	-6412
的必要性	-6413
绝非易事	-6414
英国政府	-6415
贸易协定	-6416
越来越大	-6417
远远不够	-6418
金融中心	-6419
OM	-6420
up	-6421
▁谁	-6422
三国	-6423
上任	-6424
不去	-6425
交道	-6426
代替	-6427
光是	-6428
关塔	-6429
兴奋	-6430
利时	-6431
十亿	-6432
号召	-6433
向前	-6434
回避	-6435
在他	-6436
场合	-6437
场所	-6438
坚挺	-6439
多德	-6440
多重	-6441
大体	-6442
大致	-6443
天的	-6444
安置	-6445
定位	-6446
对冲	-6447
小型	-6448
岁的	-6449
应付	-6450
很小	-6451
无从	-6452
无需	-6453
束缚	-6454
极少	-6455
根除	-6456
正规	-6457
演化	-6458
燃煤	-6459
疑虑	-6460
眼前	-6461
稳健	-6462
稳固	-6463
职责	-6464
胜出	-6465
若干	-6466
要为	-6467
让他	-6468
话题	-6469
资料	-6470
采纳	-6471
阴谋	-6472
▁Re	-6473
▁也是	-6474
▁在我	-6475
▁央行	-6476
▁针对	-6477
一致的	-6478
不能再	-6479
会出现	-6480
及其他	-6481
和地区	-6482
和长期	-6483
奥运会	-6484
如果不	-6485
定居点	-6486
已经从	-6487
市场上	-6488
成百上	-6489
文化的	-6490
无论是	-6491
时间内	-6492
是一位	-6493
是一项	-6494
是无法	-6495
显示出	-6496
最严重	-6497
正确地	-6498
法国人	-6499
环境的	-6500
的争论	-6501
较低的	-6502
邻国的	-6503
里兰卡	-6504
零利率	-6505
▁Sch	-6506
任何一个	-6507
加密货币	-6508
卷土重来	-6509
商业银行	-6510
总统选举	-6511
极端分子	-6512
这一数字	-6513
需要一个	-6514
领导人的	-6515
2008—	-6516
时间的推移	-6517
比以往任何时候	-6518
▁国际货币基金组织	-6519
az	-6520
ut	-6521
上演	-6522
不当	-6523
不难	-6524
与会	-6525
产物	-6526
会使	-6527
低下	-6528
占比	-6529
各类	-6530
在眉	-6531
在近	-6532
士顿	-6533
外来	-6534
奉行	-6535
寡头	-6536
寻常	-6537
将把	-6538
小学	-6539
尖锐	-6540
平息	-6541
年在	-6542
得更	-6543
房子	-6544
抵达	-6545
提及	-6546
施压	-6547
星球	-6548
暂停	-6549
机械	-6550
杀害	-6551
步伐	-6552
玻利	-6553
略有	-6554
的更	-6555
确立	-6556
篮子	-6557
经典	-6558
维和	-6559
营造	-6560
萨斯	-6561
萨默	-6562
贪婪	-6563
软弱	-6564
钓鱼	-6565
预警	-6566
高等	-6567
TPP	-6568
不公平	-6569
丘吉尔	-6570
中国海	-6571
为代价	-6572
凸显出	-6573
北朝鲜	-6574
占据了	-6575
召开的	-6576
向美国	-6577
回到了	-6578
在整个	-6579
在眉睫	-6580
在这些	-6581
将如何	-6582
引起的	-6583
强化了	-6584
德国人	-6585
性武器	-6586
打交道	-6587
是时候	-6588
替代品	-6589
有利的	-6590
条件下	-6591
波士顿	-6592
的一年	-6593
的信用	-6594
的局面	-6595
的手段	-6596
的理论	-6597
的道德	-6598
美国将	-6599
被广泛	-6600
解放军	-6601
谈判中	-6602
边缘化	-6603
1992	-6604
▁198	-6605
▁IMF	-6606
▁在一个	-6607
▁在英国	-6608
发生变化	-6609
和葡萄牙	-6610
对美国的	-6611
并不一定	-6612
应对措施	-6613
政府应该	-6614
政府支出	-6615
政治制度	-6616
数字技术	-6617
更进一步	-6618
有史以来	-6619
根本性的	-6620
消费者的	-6621
的增长率	-6622
穆罕默德	-6623
能源效率	-6624
这些政策	-6625
迫在眉睫	-6626
领导作用	-6627
▁毫不奇怪	-6628
做到这一点	-6629
在某种程度上	-6630
evelopment	-6631
36	-6632
8.	-6633
BR	-6634
▁仅	-6635
▁所	-6636
▁把	-6637
一片	-6638
东海	-6639
事态	-6640
依存	-6641
停火	-6642
儿子	-6643
光明	-6644
半数	-6645
哲学	-6646
商人	-6647
固然	-6648
增税	-6649
大肆	-6650
夺走	-6651
奏效	-6652
巨量	-6653
布尔	-6654
并无	-6655
延伸	-6656
建制	-6657
弹性	-6658
情感	-6659
惊人	-6660
护理	-6661
指定	-6662
放眼	-6663
故意	-6664
数额	-6665
新生	-6666
无比	-6667
无辜	-6668
核能	-6669
牵涉	-6670
生计	-6671
界定	-6672
看着	-6673
硅谷	-6674
美好	-6675
股本	-6676
胜任	-6677
草案	-6678
让我	-6679
贿赂	-6680
赞同	-6681
过时	-6682
进攻	-6683
配额	-6684
金正	-6685
阅读	-6686
阻力	-6687
雷曼	-6688
饮食	-6689
马尔	-6690
驾驶	-6691
骚乱	-6692
,20	-6693
ang	-6694
ker	-6695
▁一位	-6696
▁不论	-6697
中东和	-6698
中扮演	-6699
主导的	-6700
了一些	-6701
低估了	-6702
供应商	-6703
保持着	-6704
创新性	-6705
势力的	-6706
四分之	-6707
国内的	-6708
在印度	-6709
外围国	-6710
媒体的	-6711
对伊朗	-6712
对未来	-6713
就业率	-6714
扩大了	-6715
排放量	-6716
接下来	-6717
是我们	-6718
权利的	-6719
桑德斯	-6720
流行的	-6721
的大幅	-6722
的最低	-6723
的潜在	-6724
视而不	-6725
运动的	-6726
还不如	-6727
避免的	-6728
长期看	-6729
▁在未来	-6730
个成员国	-6731
从根本上	-6732
全世界的	-6733
公共财政	-6734
北爱尔兰	-6735
医疗保险	-6736
南中国海	-6737
和以色列	-6738
国家利益	-6739
将有助于	-6740
少数民族	-6741
应该成为	-6742
恶性循环	-6743
成为现实	-6744
所取得的	-6745
技术进步	-6746
数百万人	-6747
无关紧要	-6748
无法解决	-6749
果真如此	-6750
研究人员	-6751
私人投资	-6752
营养不良	-6753
超级大国	-6754
这一结果	-6755
选举结果	-6756
都是如此	-6757
▁国际社会	-6758
万亿美元的	-6759
传染性疾病	-6760
欧洲理事会	-6761
货币政策的	-6762
世界经济论坛	-6763
ey	-6764
中介	-6765
之争	-6766
他将	-6767
价还	-6768
但我	-6769
制止	-6770
功于	-6771
十八	-6772
协商	-6773
召集	-6774
命令	-6775
土壤	-6776
地在	-6777
地点	-6778
坐视	-6779
多次	-6780
失控	-6781
家园	-6782
尼黑	-6783
局的	-6784
巴巴	-6785
当下	-6786
情愿	-6787
提交	-6788
撰写	-6789
整整	-6790
斯达	-6791
无意	-6792
无能	-6793
有其	-6794
机场	-6795
欺诈	-6796
欺骗	-6797
民选	-6798
界限	-6799
的分	-6800
的女	-6801
空中	-6802
纳米	-6803
肿瘤	-6804
血液	-6805
起点	-6806
迎接	-6807
野蛮	-6808
雅典	-6809
风格	-6810
▁智利	-6811
▁此后	-6812
▁财政	-6813
从现在	-6814
从而使	-6815
价还价	-6816
全面的	-6817
前苏联	-6818
压力的	-6819
反应堆	-6820
发挥了	-6821
受益者	-6822
听起来	-6823
和伊朗	-6824
和消费	-6825
多元化	-6826
天主教	-6827
居高不	-6828
归功于	-6829
得益于	-6830
慕尼黑	-6831
所必须	-6832
承诺的	-6833
有很多	-6834
正处于	-6835
的人权	-6836
的其他	-6837
的前景	-6838
的外交	-6839
的故事	-6840
的民众	-6841
获得者	-6842
规模的	-6843
该公司	-6844
贸易和	-6845
过去了	-6846
金融业	-6847
限制在	-6848
▁多年来	-6849
与美国的	-6850
中国正在	-6851
充分就业	-6852
历史学家	-6853
取得进展	-6854
和美国的	-6855
哈佛大学	-6856
国家层面	-6857
国防部长	-6858
就意味着	-6859
很少有人	-6860
所提供的	-6861
持续下去	-6862
普遍认为	-6863
有足够的	-6864
英国首相	-6865
讨价还价	-6866
跨国公司	-6867
这一过程	-6868
迹象表明	-6869
非常重要	-6870
▁2001	-6871
▁中国政府	-6872
▁在经历了	-6873
▁我们应该	-6874
更重要的是	-6875
资本主义的	-6876
这些国家的	-6877
主权财富基金	-6878
千年发展目标	-6879
合作伙伴关系	-6880
巴黎气候协定	-6881
欧元区成员国	-6882
stitute	-6883
iv	-6884
▁巴	-6885
一方	-6886
亚努	-6887
们的	-6888
会给	-6889
偿债	-6890
决裂	-6891
卷入	-6892
原教	-6893
司机	-6894
奢侈	-6895
妻子	-6896
安抚	-6897
实证	-6898
屈服	-6899
开创	-6900
必需	-6901
总结	-6902
总裁	-6903
指令	-6904
援引	-6905
文学	-6906
是让	-6907
格曼	-6908
植物	-6909
次级	-6910
歇尔	-6911
水和	-6912
治愈	-6913
流血	-6914
海地	-6915
深深	-6916
清除	-6917
渗透	-6918
热衷	-6919
甲烷	-6920
的重	-6921
礼物	-6922
累计	-6923
罪名	-6924
罪犯	-6925
罪魁	-6926
节奏	-6927
血腥	-6928
说过	-6929
越大	-6930
轰炸	-6931
远未	-6932
阐述	-6933
颁布	-6934
鲁莽	-6935
ani	-6936
ort	-6937
▁与此	-6938
▁企业	-6939
▁其实	-6940
▁这也	-6941
▁长期	-6942
▁随后	-6943
世纪初	-6944
之前的	-6945
付出了	-6946
以来的	-6947
会成为	-6948
例子中	-6949
冲突和	-6950
加起来	-6951
原教旨	-6952
发布的	-6953
合适的	-6954
国家都	-6955
尔多瓦	-6956
尼西亚	-6957
年全球	-6958
并不会	-6959
恶化的	-6960
摆脱了	-6961
文化和	-6962
新一代	-6963
时期的	-6964
是世界	-6965
有意义	-6966
的印度	-6967
的存在	-6968
的批评	-6969
碳定价	-6970
社会和	-6971
科维奇	-6972
竞争性	-6973
达成了	-6974
追溯到	-6975
通过了	-6976
随后的	-6977
马拉雅	-6978
1945	-6979
▁Con	-6980
▁第一个	-6981
从一开始	-6982
似乎已经	-6983
债务水平	-6984
其中一个	-6985
同时也是	-6986
实际利率	-6987
得到解决	-6988
成千上万	-6989
更重要的	-6990
没有一个	-6991
生物燃料	-6992
的经济学	-6993
股票市场	-6994
货币操纵	-6995
迫切需要	-6996
银行联盟	-6997
▁2007	-6998
▁2017	-6999
▁Comm	-7000
▁但这样的	-7001
▁简而言之	-7002
之间的联系	-7003
提高生产率	-7004
联合国大会	-7005
领导人必须	-7006
▁发展中国家	-7007
发展中经济体	-7008
外国直接投资	-7009
European	-7010
32	-7011
ew	-7012
▁9	-7013
▁受	-7014
与此	-7015
两项	-7016
主管	-7017
亚哥	-7018
亚马	-7019
他信	-7020
低效	-7021
倒台	-7022
储存	-7023
克制	-7024
公务	-7025
内需	-7026
冻结	-7027
减免	-7028
初级	-7029
加尔	-7030
加工	-7031
变迁	-7032
各样	-7033
吞并	-7034
哪种	-7035
处的	-7036
外资	-7037
大林	-7038
头条	-7039
女童	-7040
定在	-7041
已然	-7042
年和	-7043
引领	-7044
德尔	-7045
忠诚	-7046
抗击	-7047
拙劣	-7048
掉了	-7049
无情	-7050
更能	-7051
有序	-7052
有毒	-7053
有趣	-7054
本币	-7055
杀伤	-7056
权益	-7057
枯竭	-7058
次于	-7059
版本	-7060
理工	-7061
的自	-7062
相近	-7063
眼光	-7064
神经	-7065
称的	-7066
简直	-7067
绑架	-7068
结算	-7069
维克	-7070
罕见	-7071
群岛	-7072
股份	-7073
赌注	-7074
较高	-7075
输家	-7076
这也	-7077
门槛	-7078
间谍	-7079
限额	-7080
难道	-7081
鲜有	-7082
麻痹	-7083
TIP	-7084
all	-7085
▁他说	-7086
世纪的	-7087
东道国	-7088
个人的	-7089
了经济	-7090
以外的	-7091
会议的	-7092
但美国	-7093
做什么	-7094
利用其	-7095
制造商	-7096
受访者	-7097
和管理	-7098
在他们	-7099
大衰退	-7100
大选中	-7101
建筑业	-7102
拒绝了	-7103
撒切尔	-7104
数据的	-7105
是完全	-7106
暴力和	-7107
有两个	-7108
来说是	-7109
来进行	-7110
由美国	-7111
的健康	-7112
的结论	-7113
硬着陆	-7114
移民和	-7115
等同于	-7116
经通胀	-7117
腐败的	-7118
这表明	-7119
限制了	-7120
预示着	-7121
▁这对于	-7122
个国家的	-7123
人的生命	-7124
仍然存在	-7125
克鲁格曼	-7126
喜马拉雅	-7127
圣地亚哥	-7128
尤其如此	-7129
工作时间	-7130
摩尔多瓦	-7131
教育程度	-7132
的大部分	-7133
的政治家	-7134
的领导下	-7135
视而不见	-7136
造成严重	-7137
▁普林斯顿	-7138
▁这并不是	-7139
带来巨大的	-7140
收入不平等	-7141
民粹主义的	-7142
的基础设施	-7143
经常项目盈余	-7144
co	-7145
上下	-7146
优质	-7147
使之	-7148
储户	-7149
利于	-7150
单纯	-7151
各项	-7152
在新	-7153
大相	-7154
如同	-7155
将近	-7156
就被	-7157
市值	-7158
并以	-7159
径庭	-7160
得上	-7161
心态	-7162
悖论	-7163
想起	-7164
戏剧	-7165
拨款	-7166
挫折	-7167
掠夺	-7168
搜索	-7169
撤离	-7170
早在	-7171
核武	-7172
正当	-7173
氛围	-7174
派遣	-7175
潮流	-7176
热带	-7177
瓦解	-7178
短视	-7179
种种	-7180
等到	-7181
类的	-7182
系数	-7183
终极	-7184
经费	-7185
肯尼	-7186
良机	-7187
艰苦	-7188
花在	-7189
英里	-7190
药方	-7191
莱斯	-7192
要好	-7193
进来	-7194
迪拜	-7195
隐含	-7196
黎加	-7197
0.5	-7198
arl	-7199
▁但我	-7200
▁市场	-7201
▁投资	-7202
▁改革	-7203
▁这对	-7204
也正在	-7205
亚马逊	-7206
仍然在	-7207
价值链	-7208
任总统	-7209
催生了	-7210
决定性	-7211
可能对	-7212
同一个	-7213
和创新	-7214
哥斯达	-7215
基因组	-7216
基础的	-7217
将这一	-7218
布雷顿	-7219
强调了	-7220
扩大到	-7221
找到了	-7222
方法是	-7223
更愿意	-7224
最终将	-7225
检察官	-7226
活动家	-7227
演讲中	-7228
理解的	-7229
生产者	-7230
的文化	-7231
的气候	-7232
的解释	-7233
监管和	-7234
立法者	-7235
约翰逊	-7236
经济中	-7237
维持在	-7238
而在于	-7239
范围的	-7240
该组织	-7241
资产的	-7242
远高于	-7243
集中于	-7244
额外的	-7245
马克里	-7246
1950	-7247
▁一方面	-7248
▁许多人	-7249
与以色列	-7250
五分之一	-7251
保险公司	-7252
全世界最	-7253
全球气候	-7254
出口导向	-7255
吸引力的	-7256
在阿富汗	-7257
奥巴马的	-7258
将进一步	-7259
年代中期	-7260
弗里德曼	-7261
才能实现	-7262
提醒我们	-7263
政府债务	-7264
政策利率	-7265
留在欧盟	-7266
的支持率	-7267
联系起来	-7268
英国经济	-7269
认为自己	-7270
讽刺的是	-7271
雷曼兄弟	-7272
▁气候变化	-7273
▁近几年来	-7274
哥斯达黎加	-7275
数十亿美元	-7276
最重要的是	-7277
的增长模式	-7278
经济和政治	-7279
麦肯锡全球	-7280
世界其他国家	-7281
▁在这种情况下	-7282
▁Development	-7283
37	-7284
▁1	-7285
▁人	-7286
下行	-7287
不动	-7288
中学	-7289
伐克	-7290
伤亡	-7291
住了	-7292
倾销	-7293
假定	-7294
偏向	-7295
先锋	-7296
内塔	-7297
出发	-7298
分钟	-7299
包装	-7300
可疑	-7301
名昭	-7302
启发	-7303
噩梦	-7304
回事	-7305
回合	-7306
回忆	-7307
塔赫	-7308
多尔	-7309
奋斗	-7310
就此	-7311
州的	-7312
急于	-7313
总部	-7314
恐怕	-7315
愈演	-7316
愈烈	-7317
成分	-7318
战场	-7319
批判	-7320
携手	-7321
收到	-7322
收获	-7323
族裔	-7324
日趋	-7325
明星	-7326
是要	-7327
欧美	-7328
正面	-7329
清洗	-7330
清理	-7331
爱因	-7332
猛烈	-7333
猩猩	-7334
生意	-7335
直升	-7336
看出	-7337
约有	-7338
缴纳	-7339
花钱	-7340
裨益	-7341
过分	-7342
迈出	-7343
逆差	-7344
顶尖	-7345
顺利	-7346
高乐	-7347
齐聚	-7348
ain	-7349
end	-7350
enn	-7351
▁Ag	-7352
▁Al	-7353
▁很多	-7354
丰富的	-7355
他们也	-7356
使他们	-7357
俄国的	-7358
儿麻痹	-7359
受益于	-7360
可能被	-7361
和保护	-7362
在哪里	-7363
大国的	-7364
官员们	-7365
弗兰克	-7366
所做的	-7367
所有者	-7368
找不到	-7369
承诺要	-7370
把自己	-7371
推动力	-7372
放弃了	-7373
有任何	-7374
来支持	-7375
欧洲在	-7376
比利时	-7377
法塔赫	-7378
洛伐克	-7379
消费的	-7380
漫长的	-7381
爆发的	-7382
的女性	-7383
的妇女	-7384
的意愿	-7385
的感觉	-7386
第一大	-7387
表现得	-7388
贸易的	-7389
转折点	-7390
还要多	-7391
那以后	-7392
钓鱼岛	-7393
1994	-7394
▁但即便	-7395
▁决策者	-7396
▁叙利亚	-7397
▁在许多	-7398
▁欧盟的	-7399
▁而这一	-7400
▁该计划	-7401
不受欢迎	-7402
不良贷款	-7403
也是一个	-7404
令人沮丧	-7405
儿麻痹症	-7406
全球性的	-7407
公共投资	-7408
压力测试	-7409
去杠杆化	-7410
可以获得	-7411
国际合作	-7412
大幅增加	-7413
大相径庭	-7414
工作人员	-7415
愈演愈烈	-7416
所引发的	-7417
斯里兰卡	-7418
更深层次	-7419
有所不同	-7420
欧盟预算	-7421
死亡人数	-7422
爱因斯坦	-7423
玻利维亚	-7424
经济学的	-7425
财政联盟	-7426
资本流动	-7427
还有其他	-7428
▁具体而言	-7429
▁我们可以	-7430
亚努科维奇	-7431
和基础设施	-7432
大西洋两岸	-7433
布雷顿森林	-7434
恐怖主义的	-7435
欧洲央行的	-7436
民族主义者	-7437
ission	-7438
▁欧盟委员会	-7439
DI	-7440
ht	-7441
一件	-7442
世卫	-7443
东北	-7444
之久	-7445
乌托	-7446
买单	-7447
于此	-7448
仅为	-7449
他是	-7450
何处	-7451
傲慢	-7452
则在	-7453
别人	-7454
到期	-7455
十二	-7456
去了	-7457
可用	-7458
可观	-7459
听证	-7460
四大	-7461
多久	-7462
太少	-7463
夸大	-7464
学的	-7465
安德	-7466
尊敬	-7467
彰显	-7468
微弱	-7469
想到	-7470
感谢	-7471
摩擦	-7472
撒冷	-7473
杰夫	-7474
标题	-7475
治国	-7476
洞见	-7477
海峡	-7478
游击	-7479
百姓	-7480
监禁	-7481
竭力	-7482
纺织	-7483
结局	-7484
罚款	-7485
耶路	-7486
聚焦	-7487
花旗	-7488
让它	-7489
记住	-7490
设想	-7491
过高	-7492
违背	-7493
邮件	-7494
霍尔	-7495
顶峰	-7496
额度	-7497
饥荒	-7498
首位	-7499
驱使	-7500
鸦片	-7501
15%	-7502
▁Le	-7503
▁为何	-7504
▁就在	-7505
▁能源	-7506
一定会	-7507
上加霜	-7508
下跌了	-7509
不具备	-7510
不清楚	-7511
与西方	-7512
乌托邦	-7513
发生过	-7514
和增长	-7515
和实施	-7516
和平与	-7517
和荷兰	-7518
在一定	-7519
在政治	-7520
在那里	-7521
威胁要	-7522
宏大的	-7523
对我们	-7524
小布什	-7525
居住在	-7526
年美国	-7527
往往是	-7528
得到的	-7529
戴高乐	-7530
所带来	-7531
改革和	-7532
最后的	-7533
有多少	-7534
服务于	-7535
标准的	-7536
温和的	-7537
的保护	-7538
的公民	-7539
的失败	-7540
的恐惧	-7541
的持续	-7542
的状态	-7543
的现象	-7544
的生命	-7545
的贷款	-7546
的预算	-7547
监管的	-7548
等问题	-7549
组织和	-7550
臭名昭	-7551
致命的	-7552
英国将	-7553
落后于	-7554
规则和	-7555
货币和	-7556
这使得	-7557
▁Res	-7558
▁但欧洲	-7559
▁如果不	-7560
▁它们的	-7561
▁最近的	-7562
▁这两个	-7563
专业人士	-7564
也不可能	-7565
债权人的	-7566
共同利益	-7567
军事干预	-7568
农村地区	-7569
原因在于	-7570
国民阵线	-7571
国际金融	-7572
增长最快	-7573
安全问题	-7574
家庭收入	-7575
少数群体	-7576
当选总统	-7577
成为全球	-7578
截然不同	-7579
日本银行	-7580
没有理由	-7581
甚至可以	-7582
耶路撒冷	-7583
讽刺意味	-7584
过度负债	-7585
还有一个	-7586
雪上加霜	-7587
,2015	-7588
▁如果没有	-7589
▁更不用说	-7590
发展中世界	-7591
方面取得了	-7592
部分是因为	-7593
随之而来的	-7594
高收入国家	-7595
基础设施建设	-7596
▁Economic	-7597
cy	-7598
▁t	-7599
一大	-7600
不合	-7601
不善	-7602
不已	-7603
事项	-7604
亚于	-7605
今日	-7606
会面	-7607
催化	-7608
冒着	-7609
初衷	-7610
动乱	-7611
原理	-7612
反犹	-7613
受困	-7614
名字	-7615
商务	-7616
囚犯	-7617
圣诞	-7618
在对	-7619
垃圾	-7620
夸张	-7621
娱乐	-7622
尔尼	-7623
崩离	-7624
布朗	-7625
年长	-7626
广播	-7627
徒劳	-7628
徘徊	-7629
微观	-7630
意在	-7631
截至	-7632
托克	-7633
招募	-7634
挑衅	-7635
据说	-7636
接纳	-7637
更像	-7638
梅德	-7639
检验	-7640
比索	-7641
波罗	-7642
派的	-7643
浓缩	-7644
海域	-7645
涌现	-7646
深陷	-7647
灌溉	-7648
理所	-7649
电动	-7650
留给	-7651
真理	-7652
知名	-7653
矿产	-7654
空白	-7655
策划	-7656
简化	-7657
耶伦	-7658
肆虐	-7659
自豪	-7660
规避	-7661
论点	-7662
货物	-7663
较少	-7664
邻居	-7665
部落	-7666
重回	-7667
重蹈	-7668
麻省	-7669
黑客	-7670
ord	-7671
ric	-7672
ure	-7673
▁Un	-7674
▁in	-7675
▁俄国	-7676
▁教育	-7677
▁既然	-7678
▁这类	-7679
上一次	-7680
上世纪	-7681
不足为	-7682
两国的	-7683
任何人	-7684
会造成	-7685
债券的	-7686
充足的	-7687
准备金	-7688
可以以	-7689
和他的	-7690
和民主	-7691
太多的	-7692
女性的	-7693
将决定	-7694
将面临	-7695
崩离析	-7696
很少有	-7697
性问题	-7698
战争中	-7699
改善了	-7700
斯大林	-7701
显著的	-7702
条约的	-7703
比方说	-7704
毕业生	-7705
永久性	-7706
留下的	-7707
的人群	-7708
的学生	-7709
的思想	-7710
的斗争	-7711
的系统	-7712
的结构	-7713
的联盟	-7714
等其他	-7715
美尼亚	-7716
萨科齐	-7717
萨默斯	-7718
要求的	-7719
评论家	-7720
辅之以	-7721
这不是	-7722
这可能	-7723
选举的	-7724
通常是	-7725
都不能	-7726
阿尔巴	-7727
令人惊讶	-7728
做些什么	-7729
做出反应	-7730
另外一个	-7731
只有一个	-7732
可能需要	-7733
国家政府	-7734
帝国主义	-7735
我们正在	-7736
摆脱贫困	-7737
政治联盟	-7738
有意义的	-7739
环境保护	-7740
的年轻人	-7741
相当大的	-7742
研究中心	-7743
经济学奖	-7744
联合国的	-7745
臭名昭著	-7746
财政状况	-7747
资本外逃	-7748
达成协议	-7749
3,000	-7750
ility	-7751
▁2016	-7752
▁也就是说	-7753
▁发自伦敦	-7754
▁我们希望	-7755
企业家精神	-7756
外国投资者	-7757
小儿麻痹症	-7758
意味着什么	-7759
房地产泡沫	-7760
▁Party	-7761
世界其他地区	-7762
欧盟成员资格	-7763
德国总理默克尔	-7764
33	-7765
BM	-7766
EA	-7767
PI	-7768
Th	-7769
一支	-7770
一百	-7771
丧生	-7772
买卖	-7773
五大	-7774
仅占	-7775
借鉴	-7776
克森	-7777
分割	-7778
协力	-7779
发射	-7780
受伤	-7781
可供	-7782
史上	-7783
合物	-7784
和大	-7785
大部	-7786
客观	-7787
常任	-7788
广义	-7789
得起	-7790
挑起	-7791
教徒	-7792
旁观	-7793
时所	-7794
未知	-7795
未经	-7796
格尔	-7797
民党	-7798
法的	-7799
溢出	-7800
演说	-7801
爱的	-7802
米兰	-7803
结婚	-7804
而出	-7805
聚集	-7806
背叛	-7807
董事	-7808
薄弱	-7809
被人	-7810
覆辙	-7811
赤裸	-7812
迁移	-7813
这座	-7814
远景	-7815
迟早	-7816
配合	-7817
120	-7818
ron	-7819
ust	-7820
▁不久	-7821
▁他在	-7822
▁公司	-7823
一无二	-7824
一样的	-7825
不住脚	-7826
世界杯	-7827
为自己	-7828
主要由	-7829
具体的	-7830
几乎是	-7831
几年的	-7832
创纪录	-7833
包括了	-7834
原材料	-7835
和希腊	-7836
因为其	-7837
国家在	-7838
将增加	-7839
尼系数	-7840
局限性	-7841
希望的	-7842
帮助下	-7843
年期间	-7844
并通过	-7845
性力量	-7846
恰恰是	-7847
控制着	-7848
支持率	-7849
新政府	-7850
有一种	-7851
核试验	-7852
流行病	-7853
潜力的	-7854
的人道	-7855
的出现	-7856
的反对	-7857
的工具	-7858
的话说	-7859
的障碍	-7860
知识和	-7861
背道而	-7862
菲尔德	-7863
贫困和	-7864
选择的	-7865
那里的	-7866
都表明	-7867
▁而中国	-7868
▁而尽管	-7869
▁这一点	-7870
不复存在	-7871
之间存在	-7872
亚太地区	-7873
亚美尼亚	-7874
从而导致	-7875
受到威胁	-7876
只是一个	-7877
可以帮助	-7878
国民收入	-7879
比较优势	-7880
独一无二	-7881
生产率的	-7882
白俄罗斯	-7883
继续下去	-7884
美元贬值	-7885
背道而驰	-7886
▁2005	-7887
▁除此之外	-7888
实现这一点	-7889
截然不同的	-7890
清楚地表明	-7891
社会和经济	-7892
解决的问题	-7893
解决问题的	-7894
阿尔巴尼亚	-7895
本月早些时候	-7896
联合国气候变化	-7897
亚洲基础设施投资	-7898
7,	-7899
AA	-7900
MR	-7901
▁4	-7902
▁Y	-7903
▁三	-7904
▁高	-7905
一日	-7906
一来	-7907
上周	-7908
之多	-7909
也比	-7910
们在	-7911
会将	-7912
体面	-7913
作战	-7914
侵入	-7915
偏远	-7916
几十	-7917
出一	-7918
利昂	-7919
剥削	-7920
加勒	-7921
南美	-7922
卜杜	-7923
只在	-7924
吸毒	-7925
哈里	-7926
坚守	-7927
增量	-7928
大军	-7929
头寸	-7930
存活	-7931
家人	-7932
密尔	-7933
富豪	-7934
对方	-7935
岛屿	-7936
得主	-7937
必定	-7938
成效	-7939
抗药	-7940
搜集	-7941
攻势	-7942
斯诺	-7943
新政	-7944
春天	-7945
是无	-7946
更深	-7947
月底	-7948
格局	-7949
每次	-7950
汽油	-7951
法德	-7952
流通	-7953
海岸	-7954
源泉	-7955
溢价	-7956
照顾	-7957
生机	-7958
留欧	-7959
神圣	-7960
精心	-7961
结盟	-7962
脱盟	-7963
自贸	-7964
蒙特	-7965
蓝图	-7966
虚拟	-7967
见证	-7968
记得	-7969
贩毒	-7970
赞扬	-7971
赫尔	-7972
重心	-7973
随处	-7974
靠拢	-7975
1.4	-7976
MDG	-7977
ach	-7978
age	-7979
▁中东	-7980
▁但他	-7981
▁如何	-7982
▁支持	-7983
▁每年	-7984
▁现实	-7985
下一代	-7986
不作为	-7987
不断地	-7988
中受益	-7989
为美国	-7990
五年中	-7991
仅限于	-7992
会议员	-7993
军事实	-7994
决定的	-7995
凝聚力	-7996
前总理	-7997
化合物	-7998
参与了	-7999
和公司	-8000
在德国	-8001
增值税	-8002
大得多	-8003
实现其	-8004
对英国	-8005
就在于	-8006
并以此	-8007
应该将	-8008
当时的	-8009
影响着	-8010
急切地	-8011
成立的	-8012
或许会	-8013
政客们	-8014
昂贵的	-8015
是他们	-8016
最终会	-8017
梅德韦	-8018
生产性	-8019
的交易	-8020
的信念	-8021
的信誉	-8022
的办法	-8023
的腐败	-8024
的贡献	-8025
的限制	-8026
示威者	-8027
税收和	-8028
站出来	-8029
等领域	-8030
算不上	-8031
经历过	-8032
统治的	-8033
而没有	-8034
说明了	-8035
财富的	-8036
财政和	-8037
避免了	-8038
难民营	-8039
革命的	-8040
▁000	-8041
▁墨西哥	-8042
▁新加坡	-8043
▁有些人	-8044
▁纽黑文	-8045
▁美国在	-8046
一直以来	-8047
他们必须	-8048
付出代价	-8049
全球市场	-8050
公共支出	-8051
其自身的	-8052
分崩离析	-8053
可以成为	-8054
可能造成	-8055
和爱尔兰	-8056
基金利率	-8057
就不可能	-8058
当今世界	-8059
形成一个	-8060
所导致的	-8061
明确表示	-8062
普通民众	-8063
最有可能	-8064
武装力量	-8065
目前正在	-8066
知识分子	-8067
站不住脚	-8068
美元计价	-8069
联合起来	-8070
贸易顺差	-8071
这样一种	-8072
麻省理工	-8073
5,000	-8074
▁归根结底	-8075
▁美国剑桥	-8076
中国共产党	-8077
华盛顿共识	-8078
寻求庇护者	-8079
经济增长率	-8080
通货膨胀率	-8081
经常账户赤字	-8082
诺贝尔经济学奖	-8083
2°	-8084
FS	-8085
Ge	-8086
▁拉	-8087
▁来	-8088
一部	-8089
不乏	-8090
业绩	-8091
之举	-8092
买家	-8093
亲密	-8094
付诸	-8095
传达	-8096
保加	-8097
信奉	-8098
凯蒂	-8099
出路	-8100
制作	-8101
助推	-8102
南极	-8103
占了	-8104
卫星	-8105
压低	-8106
参考	-8107
反驳	-8108
古典	-8109
可怜	-8110
和人	-8111
地图	-8112
基文	-8113
塞拉	-8114
备受	-8115
多极	-8116
对华	-8117
将比	-8118
尽量	-8119
州长	-8120
巧妙	-8121
庄稼	-8122
开战	-8123
当成	-8124
所欲	-8125
把它	-8126
抱有	-8127
捕获	-8128
放宽	-8129
敌意	-8130
教条	-8131
最不	-8132
最具	-8133
最坏	-8134
月初	-8135
格里	-8136
沃伦	-8137
法特	-8138
清醒	-8139
爱国	-8140
现今	-8141
的近	-8142
省份	-8143
真空	-8144
缩水	-8145
缩短	-8146
职能	-8147
背负	-8148
节省	-8149
薄熙	-8150
表态	-8151
西兰	-8152
让其	-8153
象棋	-8154
起草	-8155
越多	-8156
轴心	-8157
较小	-8158
迎合	-8159
这与	-8160
都市	-8161
队伍	-8162
阻挡	-8163
降临	-8164
lim	-8165
mer	-8166
ner	-8167
ood	-8168
▁为此	-8169
▁但从	-8170
▁但要	-8171
▁气候	-8172
▁这里	-8173
一揽子	-8174
一百万	-8175
不安全	-8176
中东的	-8177
为他们	-8178
为欧洲	-8179
举行了	-8180
了一次	-8181
产品的	-8182
人类的	-8183
他们是	-8184
代表的	-8185
但这一	-8186
制造了	-8187
包含了	-8188
印度洋	-8189
发行的	-8190
受影响	-8191
和资源	-8192
困扰着	-8193
宣布了	-8194
将无法	-8195
尼亚胡	-8196
常常被	-8197
并不像	-8198
庸置疑	-8199
建设性	-8200
引入了	-8201
报告中	-8202
教训是	-8203
殖民地	-8204
温和派	-8205
潘基文	-8206
特定的	-8207
独立党	-8208
甚至在	-8209
的独立	-8210
的重点	-8211
直升机	-8212
科尔宾	-8213
结束的	-8214
而受到	-8215
能够让	-8216
较高的	-8217
达尔富	-8218
选民们	-8219
通胀的	-8220
道导弹	-8221
那样的	-8222
都认为	-8223
锋相对	-8224
1960	-8225
1973	-8226
2019	-8227
TTIP	-8228
▁但它们	-8229
▁但对于	-8230
▁如果说	-8231
▁比如说	-8232
▁美国人	-8233
▁而如果	-8234
▁首先是	-8235
不足为奇	-8236
保加利亚	-8237
其中一些	-8238
化学武器	-8239
医疗体系	-8240
可以提供	-8241
可能出现	-8242
哪个国家	-8243
国内经济	-8244
国际货币	-8245
在此期间	-8246
在经历了	-8247
坚持认为	-8248
是否应该	-8249
更广泛的	-8250
极端天气	-8251
的原因是	-8252
的目标是	-8253
经济问题	-8254
认真对待	-8255
这些因素	-8256
进一步的	-8257
重大影响	-8258
阿拉法特	-8259
需要时间	-8260
▁2003	-8261
▁发自剑桥	-8262
▁这些国家	-8263
中国的经济	-8264
中国经济的	-8265
内塔尼亚胡	-8266
新兴市场的	-8267
杀伤性武器	-8268
的主要原因	-8269
所面临的挑战	-8270
果真如此的话	-8271
联合国秘书长	-8272
联邦基金利率	-8273
首相安倍晋三	-8274
中国国家主席习近平	-8275
International	-8276
34	-8277
38	-8278
NP	-8279
▁各	-8280
一番	-8281
不相	-8282
东扩	-8283
东方	-8284
丰厚	-8285
之重	-8286
乐于	-8287
了吗	-8288
事先	-8289
人选	-8290
代孕	-8291
光靠	-8292
共担	-8293
冲动	-8294
几天	-8295
分为	-8296
分类	-8297
利斯	-8298
到处	-8299
区区	-8300
占到	-8301
危及	-8302
原油	-8303
反馈	-8304
可比	-8305
可言	-8306
吃惊	-8307
同行	-8308
塞夫	-8309
境内	-8310
委托	-8311
宽带	-8312
对峙	-8313
局部	-8314
崇拜	-8315
巴以	-8316
带有	-8317
幻觉	-8318
弥合	-8319
恐吓	-8320
手里	-8321
技巧	-8322
振奋	-8323
攫取	-8324
教堂	-8325
教皇	-8326
既有	-8327
普罗	-8328
服用	-8329
本位	-8330
本次	-8331
极低	-8332
校园	-8333
水电	-8334
法则	-8335
淘汰	-8336
渔业	-8337
游客	-8338
的三	-8339
的主	-8340
确切	-8341
社团	-8342
考量	-8343
而其	-8344
肉类	-8345
致使	-8346
范例	-8347
营销	-8348
该党	-8349
说辞	-8350
走势	-8351
越发	-8352
迷你	-8353
逃脱	-8354
避税	-8355
重演	-8356
闻名	-8357
骄傲	-8358
Ben	-8359
ian	-8360
▁Sh	-8361
▁Tr	-8362
▁举例	-8363
▁预计	-8364
为目标	-8365
仅次于	-8366
他们就	-8367
以避免	-8368
伊朗核	-8369
但没有	-8370
促成了	-8371
创造性	-8372
发现了	-8373
另一场	-8374
可不是	-8375
和医疗	-8376
和市场	-8377
因如此	-8378
在其他	-8379
对他们	-8380
将会是	-8381
应有的	-8382
必须以	-8383
成员的	-8384
执政党	-8385
数量的	-8386
日本人	-8387
有超过	-8388
比例的	-8389
涉及到	-8390
清算所	-8391
环境和	-8392
的人数	-8393
的工人	-8394
的控制	-8395
的方向	-8396
的理念	-8397
的竞争	-8398
的认识	-8399
的财富	-8400
皮凯蒂	-8401
看到的	-8402
穷人的	-8403
肯尼迪	-8404
让欧洲	-8405
贫困线	-8406
资源和	-8407
迈克尔	-8408
那么它	-8409
▁-2.	-8410
▁但由于	-8411
▁相当于	-8412
九十年代	-8413
也不应该	-8414
也有助于	-8415
以色列和	-8416
发展趋势	-8417
发现自己	-8418
可持续的	-8419
可能带来	-8420
各不相同	-8421
四分之三	-8422
固定汇率	-8423
基尼系数	-8424
塞拉利昂	-8425
布什总统	-8426
常任理事	-8427
拉美国家	-8428
收入水平	-8429
整个欧洲	-8430
更多的人	-8431
甚至可能	-8432
的成员国	-8433
经济转型	-8434
而不能倒	-8435
负面影响	-8436
财政整合	-8437
资产泡沫	-8438
资本管制	-8439
退出欧盟	-8440
重要性的	-8441
问题在于	-8442
降低利率	-8443
需要的是	-8444
高级官员	-8445
▁2000	-8446
▁巴基斯坦	-8447
▁而事实上	-8448
▁这是因为	-8449
中央银行的	-8450
人民币汇率	-8451
总统候选人	-8452
Global	-8453
世界贸易组织	-8454
应对气候变化	-8455
遏制气候变化	-8456
欧盟委员会主席	-8457
美国总统特朗普	-8458
比以往任何时候都	-8459
44	-8460
gr	-8461
la	-8462
sh	-8463
▁美	-8464
一届	-8465
一战	-8466
上而	-8467
世行	-8468
为人	-8469
为数	-8470
书中	-8471
亨利	-8472
健全	-8473
入学	-8474
冷静	-8475
划定	-8476
加索	-8477
动议	-8478
十字	-8479
卢拉	-8480
可图	-8481
后面	-8482
和更	-8483
品牌	-8484
培育	-8485
奴隶	-8486
存量	-8487
宏大	-8488
已故	-8489
幽灵	-8490
开明	-8491
弊端	-8492
强人	-8493
征服	-8494
微小	-8495
悲惨	-8496
惊讶	-8497
惠及	-8498
我所	-8499
打消	-8500
托尼	-8501
报酬	-8502
抬头	-8503
接入	-8504
收拾	-8505
旧的	-8506
普尔	-8507
智库	-8508
服装	-8509
本能	-8510
李克	-8511
汇款	-8512
沙漠	-8513
派系	-8514
清单	-8515
物流	-8516
甚远	-8517
申根	-8518
的好	-8519
科奇	-8520
穿越	-8521
缔造	-8522
耗资	-8523
营商	-8524
被捕	-8525
规律	-8526
触及	-8527
赋权	-8528
赌博	-8529
赚取	-8530
过热	-8531
这对	-8532
选出	-8533
通用	-8534
那次	-8535
采访	-8536
铭记	-8537
靠近	-8538
飞行	-8539
350	-8540
ODA	-8541
erv	-8542
▁18	-8543
▁危机	-8544
▁现代	-8545
▁而是	-8546
▁自由	-8547
不一样	-8548
不允许	-8549
不过是	-8550
专家们	-8551
为我们	-8552
主权的	-8553
争议的	-8554
以失败	-8555
会继续	-8556
似乎在	-8557
债务人	-8558
债务和	-8559
债权国	-8560
公众的	-8561
制定的	-8562
可信度	-8563
启动了	-8564
因为他	-8565
在所有	-8566
埃克森	-8567
大数据	-8568
如何在	-8569
实在在	-8570
对国家	-8571
将产生	-8572
将受到	-8573
工作和	-8574
市场和	-8575
帝国的	-8576
建立的	-8577
强硬派	-8578
必须与	-8579
或许是	-8580
战略的	-8581
托马斯	-8582
持有人	-8583
旅游业	-8584
有许多	-8585
本国的	-8586
机会的	-8587
桑托斯	-8588
欧盟在	-8589
的发生	-8590
的根源	-8591
的统治	-8592
的西方	-8593
的角度	-8594
的重大	-8595
给美国	-8596
罗姆尼	-8597
能产生	-8598
表明了	-8599
讲话中	-8600
贡献了	-8601
金正恩	-8602
非洲人	-8603
1995	-8604
ance	-8605
arry	-8606
▁中国在	-8607
▁人民币	-8608
▁但事实	-8609
▁全球化	-8610
▁在这里	-8611
▁我认为	-8612
▁阿富汗	-8613
一切代价	-8614
不同的是	-8615
不负责任	-8616
与欧盟的	-8617
他们认为	-8618
值得注意	-8619
全球金融	-8620
公共政策	-8621
和阿富汗	-8622
因为这些	-8623
国际秩序	-8624
实实在在	-8625
少数族裔	-8626
年轻人的	-8627
弹道导弹	-8628
很难想象	-8629
政治动荡	-8630
晚些时候	-8631
朝鲜半岛	-8632
正在经历	-8633
正好相反	-8634
毫无意义	-8635
理所当然	-8636
的世界中	-8637
的大多数	-8638
的欧元区	-8639
竞选活动	-8640
自然灾害	-8641
苏联解体	-8642
达尔富尔	-8643
这个数字	-8644
这些挑战	-8645
重新思考	-8646
领土主张	-8647
ative	-8648
▁其他国家	-8649
▁发自纽约	-8650
▁特别是在	-8651
▁这些问题	-8652
不断扩大的	-8653
房地产市场	-8654
民族主义的	-8655
越来越大的	-8656
主权债务危机	-8657
国民生产总值	-8658
在一定程度上	-8659
基础设施项目	-8660
意大利和西班牙	-8661
2008—2009	-8662
95	-8663
FT	-8664
ib	-8665
uc	-8666
yn	-8667
▁?	-8668
▁b	-8669
一座	-8670
不力	-8671
不定	-8672
个别	-8673
之计	-8674
也很	-8675
仍未	-8676
从前	-8677
会说	-8678
余地	-8679
克的	-8680
再到	-8681
利比	-8682
包围	-8683
匿名	-8684
参选	-8685
又会	-8686
又是	-8687
名叫	-8688
哈特	-8689
哈迈	-8690
回来	-8691
坚信	-8692
多人	-8693
多项	-8694
孕育	-8695
它与	-8696
定向	-8697
审计	-8698
将以	-8699
已在	-8700
市政	-8701
带领	-8702
开罗	-8703
感受	-8704
拓展	-8705
摇摆	-8706
暴行	-8707
权势	-8708
某一	-8709
标签	-8710
泛美	-8711
浮现	-8712
深思	-8713
混淆	-8714
瑟夫	-8715
着重	-8716
碎片	-8717
神社	-8718
离岸	-8719
级的	-8720
罗德	-8721
者是	-8722
能使	-8723
脸书	-8724
蔑视	-8725
视频	-8726
说的	-8727
购物	-8728
过往	-8729
进了	-8730
逃税	-8731
都对	-8732
重创	-8733
金属	-8734
错的	-8735
闹剧	-8736
阿布	-8737
降到	-8738
顾虑	-8739
0.3	-8740
▁出于	-8741
▁该国	-8742
▁这在	-8743
不会在	-8744
不同于	-8745
为中国	-8746
交易所	-8747
代理人	-8748
会认为	-8749
传统上	-8750
公共品	-8751
公正的	-8752
关键性	-8753
加勒比	-8754
努力的	-8755
卡特尔	-8756
发布了	-8757
可支配	-8758
可能将	-8759
合法化	-8760
和自由	-8761
国家中	-8762
大公司	-8763
妇女和	-8764
它们所	-8765
对这个	-8766
对这种	-8767
小部分	-8768
崩溃的	-8769
差不多	-8770
并确保	-8771
开放的	-8772
强制性	-8773
强烈的	-8774
形成的	-8775
德国和	-8776
心协力	-8777
必须是	-8778
成年人	-8779
我认为	-8780
所说的	-8781
手中的	-8782
技术上	-8783
效率的	-8784
斯坦福	-8785
最基本	-8786
月以来	-8787
来帮助	-8788
极少数	-8789
核裁军	-8790
热衷于	-8791
理由是	-8792
的份额	-8793
的优势	-8794
的合理	-8795
的转型	-8796
的还有	-8797
的选票	-8798
积极地	-8799
结束时	-8800
罗塞夫	-8801
能够为	-8802
能够以	-8803
艾哈迈	-8804
被允许	-8805
赤裸裸	-8806
达成的	-8807
还不够	-8808
还是在	-8809
金本位	-8810
阿巴斯	-8811
预防性	-8812
马德里	-8813
▁但即使	-8814
▁投资者	-8815
▁看起来	-8816
▁近年来	-8817
▁这不是	-8818
▁阿拉伯	-8819
不断上升	-8820
中国必须	-8821
从来没有	-8822
众所周知	-8823
似乎正在	-8824
利比里亚	-8825
发生改变	-8826
可预见的	-8827
在经济上	-8828
实现经济	-8829
家庭消费	-8830
就业创造	-8831
就是如此	-8832
建设性的	-8833
才有可能	-8834
执政联盟	-8835
拒绝接受	-8836
收入分配	-8837
是否真的	-8838
民主刚果	-8839
民营企业	-8840
生活质量	-8841
的劳动力	-8842
的投资者	-8843
相关利益	-8844
研究发现	-8845
社会福利	-8846
种族隔离	-8847
经济体的	-8848
美联储的	-8849
能够实现	-8850
能源价格	-8851
能源需求	-8852
脱离欧盟	-8853
调查显示	-8854
还有很多	-8855
远远超过	-8856
退休基金	-8857
领导人在	-8858
,2008	-8859
,2014	-8860
不平等状况	-8861
劳动生产率	-8862
和世界银行	-8863
国际社会的	-8864
已经取得了	-8865
社会和政治	-8866
讽刺意味的是	-8867
越来越多的人	-8868
大规模杀伤性武器	-8869
4,	-8870
48	-8871
IS	-8872
ss	-8873
▁5	-8874
一批	-8875
一群	-8876
中位	-8877
中立	-8878
为零	-8879
之又	-8880
之旅	-8881
了近	-8882
人人	-8883
以内	-8884
便已	-8885
党内	-8886
公里	-8887
内伊	-8888
军官	-8889
刑讯	-8890
利差	-8891
剔除	-8892
剩下	-8893
劣势	-8894
卡因	-8895
厄瓜	-8896
又在	-8897
反常	-8898
右派	-8899
名列	-8900
向来	-8901
听众	-8902
和反	-8903
品质	-8904
哈梅	-8905
因果	-8906
外包	-8907
多名	-8908
大卫	-8909
大笔	-8910
宁愿	-8911
它对	-8912
宗派	-8913
宣告	-8914
将由	-8915
尽力	-8916
并论	-8917
应急	-8918
异见	-8919
很久	-8920
很长	-8921
心的	-8922
志愿	-8923
忙于	-8924
想的	-8925
戴维	-8926
承包	-8927
投向	-8928
教学	-8929
无不	-8930
村庄	-8931
根于	-8932
桥梁	-8933
残暴	-8934
没了	-8935
流出	-8936
测算	-8937
源头	-8938
滑向	-8939
演变	-8940
澄清	-8941
特拉	-8942
王朝	-8943
的老	-8944
盯住	-8945
相提	-8946
相符	-8947
笔者	-8948
肮脏	-8949
胡锦	-8950
节能	-8951
营利	-8952
要走	-8953
解雇	-8954
询问	-8955
贝利	-8956
超导	-8957
跟踪	-8958
这份	-8959
违法	-8960
酝酿	-8961
铺平	-8962
隐瞒	-8963
频率	-8964
首尔	-8965
验证	-8966
麦克	-8967
1.3	-8968
1.7	-8969
Jos	-8970
eal	-8971
▁尤其	-8972
▁成功	-8973
▁此次	-8974
▁没人	-8975
▁眼下	-8976
一代人	-8977
与发展	-8978
之上的	-8979
乳腺癌	-8980
以及与	-8981
低通胀	-8982
体制的	-8983
体系中	-8984
假新闻	-8985
做出的	-8986
先进的	-8987
公务员	-8988
六个月	-8989
兰克林	-8990
兰克福	-8991
农业和	-8992
创造力	-8993
削减了	-8994
发展出	-8995
变革的	-8996
和地方	-8997
地方的	-8998
处不在	-8999
实质性	-9000
密尔顿	-9001
富有的	-9002
将中国	-9003
将达到	-9004
崛起的	-9005
扩张性	-9006
投票权	-9007
挑战是	-9008
方面都	-9009
有些人	-9010
朝鲜的	-9011
机制的	-9012
来维持	-9013
源自于	-9014
激进的	-9015
甚至连	-9016
的时刻	-9017
的理解	-9018
的结束	-9019
的联系	-9020
研究的	-9021
竞争的	-9022
给出了	-9023
而且还	-9024
而后者	-9025
肺结核	-9026
胡锦涛	-9027
蛋白质	-9028
预测的	-9029
预算的	-9030
驱动的	-9031
1993	-9032
5000	-9033
Mich	-9034
orge	-9035
▁Pol	-9036
▁共和党	-9037
▁无论是	-9038
▁这不仅	-9039
一个世纪	-9040
中国需要	-9041
主要来自	-9042
产业政策	-9043
储备货币	-9044
全球增长	-9045
军备竞赛	-9046
创造一个	-9047
创造就业	-9048
包括美国	-9049
反恐战争	-9050
发展战略	-9051
变得日益	-9052
可能已经	-9053
名义利率	-9054
周年纪念	-9055
哈梅内伊	-9056
固定资产	-9057
多个国家	-9058
存款保险	-9059
完全没有	-9060
已经证明	-9061
政府已经	-9062
更有效地	-9063
武装冲突	-9064
每个国家	-9065
没有得到	-9066
法兰克福	-9067
消费支出	-9068
物价指数	-9069
物价稳定	-9070
现代化的	-9071
的支持下	-9072
相提并论	-9073
移民问题	-9074
约束力的	-9075
经济改革	-9076
绿色能源	-9077
美国家庭	-9078
联合政府	-9079
联邦储备	-9080
萨尔科奇	-9081
蓬勃发展	-9082
行动计划	-9083
贫困人口	-9084
达成共识	-9085
重点放在	-9086
银行贷款	-9087
长期增长	-9088
集体行动	-9089
,2013	-9090
ction	-9091
▁中国经济	-9092
▁即便如此	-9093
▁圣地亚哥	-9094
▁美国总统	-9095
▁长期以来	-9096
的研究表明	-9097
的经济衰退	-9098
不惜一切代价	-9099
世界卫生组织	-9100
是显而易见的	-9101
西班牙和意大利	-9102
inancial	-9103
▁在这样的背景下	-9104
▁Institute	-9105
亚洲基础设施投资银行	-9106
ip	-9107
▁7	-9108
▁Z	-9109
▁西	-9110
▁非	-9111
一块	-9112
一度	-9113
三角	-9114
上学	-9115
下令	-9116
与他	-9117
与否	-9118
两名	-9119
两家	-9120
中印	-9121
为之	-9122
之门	-9123
也从	-9124
也正	-9125
书籍	-9126
亏损	-9127
五倍	-9128
亚历	-9129
仇外	-9130
任由	-9131
偶尔	-9132
入狱	-9133
典范	-9134
减小	-9135
减支	-9136
几次	-9137
几百	-9138
分支	-9139
制品	-9140
前例	-9141
勉强	-9142
却不	-9143
双轨	-9144
同步	-9145
和我	-9146
四倍	-9147
困惑	-9148
坚实	-9149
夫人	-9150
婚姻	-9151
富翁	-9152
尴尬	-9153
并被	-9154
强度	-9155
微软	-9156
总共	-9157
把持	-9158
把握	-9159
抗菌	-9160
掣肘	-9161
无知	-9162
明天	-9163
是被	-9164
普世	-9165
月在	-9166
木材	-9167
朴槿	-9168
权重	-9169
束手	-9170
极具	-9171
枪支	-9172
查德	-9173
森堡	-9174
欧亚	-9175
沉迷	-9176
沿着	-9177
添加	-9178
甚于	-9179
界线	-9180
监测	-9181
相去	-9182
福音	-9183
离婚	-9184
绝不	-9185
罪恶	-9186
耻辱	-9187
自行	-9188
般的	-9189
行之	-9190
装备	-9191
讲述	-9192
贫富	-9193
车臣	-9194
输送	-9195
近来	-9196
造就	-9197
遍布	-9198
阈值	-9199
陷于	-9200
集权	-9201
霸主	-9202
顶级	-9203
预先	-9204
额的	-9205
高峰	-9206
黯淡	-9207
0.1	-9208
Jam	-9209
▁冷战	-9210
▁另一	-9211
▁报告	-9212
▁拥有	-9213
▁最新	-9214
▁正是	-9215
▁此前	-9216
▁确保	-9217
不相信	-9218
两年前	-9219
中间派	-9220
为世界	-9221
为核心	-9222
也非常	-9223
五年前	-9224
交易的	-9225
人权和	-9226
以实现	-9227
供给侧	-9228
债务国	-9229
健康和	-9230
公民的	-9231
关键的	-9232
军政府	-9233
农产品	-9234
却依然	-9235
却无法	-9236
原则上	-9237
又一个	-9238
发表了	-9239
和宗教	-9240
和收入	-9241
和治疗	-9242
在中东	-9243
在危机	-9244
它必须	-9245
并将其	-9246
并要求	-9247
很长的	-9248
心脏病	-9249
情形中	-9250
慢性病	-9251
成本和	-9252
执行的	-9253
持久的	-9254
支持了	-9255
无前例	-9256
更有效	-9257
更重要	-9258
最小化	-9259
最贫穷	-9260
朴槿惠	-9261
李克强	-9262
来推动	-9263
的一位	-9264
的人的	-9265
的可能	-9266
的法国	-9267
的灾难	-9268
的美元	-9269
的言论	-9270
的过度	-9271
的迹象	-9272
看不到	-9273
研究院	-9274
第三大	-9275
第三方	-9276
等方面	-9277
简单地	-9278
给他们	-9279
罗姆人	-9280
老年人	-9281
而欧洲	-9282
英国在	-9283
观点的	-9284
达尔文	-9285
这方面	-9286
进程的	-9287
金融和	-9288
集团的	-9289
非洲和	-9290
高技能	-9291
▁Cor	-9292
▁一开始	-9293
▁伊拉克	-9294
▁对中国	-9295
▁所谓的	-9296
▁说到底	-9297
▁这需要	-9298
世卫组织	-9299
也就是说	-9300
叙利亚和	-9301
合法性的	-9302
国际能源	-9303
在伊拉克	-9304
基本收入	-9305
多样化的	-9306
多边主义	-9307
大幅提高	-9308
完全可以	-9309
将在今年	-9310
市场准入	-9311
引人注目	-9312
必须得到	-9313
必须通过	-9314
我们能够	-9315
政治家们	-9316
是世界上	-9317
更加严重	-9318
更有效的	-9319
未来几年	-9320
极权主义	-9321
汉密尔顿	-9322
的经济和	-9323
种族主义	-9324
美国人的	-9325
货币市场	-9326
贸易壁垒	-9327
这一方针	-9328
这些目标	-9329
都有可能	-9330
金融改革	-9331
阿富汗和	-9332
陷入困境	-9333
▁2004	-9334
▁Bank	-9335
▁如果欧洲	-9336
▁恰恰相反	-9337
▁这些政策	-9338
习近平主席	-9339
亿美元用于	-9340
叙利亚难民	-9341
基础设施和	-9342
已经达到了	-9343
的经济政策	-9344
的问题在于	-9345
而不仅仅是	-9346
规模最大的	-9347
金融危机的	-9348
创造就业机会	-9349
▁果真如此的话	-9350
39	-9351
58	-9352
HI	-9353
if	-9354
ld	-9355
▁6	-9356
▁m	-9357
一只	-9358
一如	-9359
一心	-9360
一笔	-9361
万个	-9362
万名	-9363
为由	-9364
乌斯	-9365
亿万	-9366
倒塌	-9367
先决	-9368
克莱	-9369
入盟	-9370
内亚	-9371
军力	-9372
几位	-9373
出去	-9374
刻意	-9375
前瞻	-9376
化了	-9377
化解	-9378
南北	-9379
占总	-9380
卫队	-9381
原始	-9382
叛军	-9383
同胞	-9384
名誉	-9385
多于	-9386
大脑	-9387
天安	-9388
它也	-9389
安南	-9390
室内	-9391
封锁	-9392
市民	-9393
常见	-9394
平静	-9395
年会	-9396
年均	-9397
年所	-9398
弗拉	-9399
归结	-9400
得不	-9401
惨重	-9402
抵挡	-9403
抽象	-9404
捐赠	-9405
掩饰	-9406
昂山	-9407
本周	-9408
杀人	-9409
权宜	-9410
格雷	-9411
残忍	-9412
残疾	-9413
比喻	-9414
火箭	-9415
现存	-9416
电信	-9417
男子	-9418
略微	-9419
的纳	-9420
的马	-9421
管齐	-9422
糖尿	-9423
终身	-9424
维系	-9425
网上	-9426
翻番	-9427
而有	-9428
而生	-9429
职场	-9430
自从	-9431
色彩	-9432
落入	-9433
言辞	-9434
警示	-9435
论据	-9436
调和	-9437
费舍	-9438
还未	-9439
这部	-9440
连锁	-9441
里程	-9442
重获	-9443
野生	-9444
钻石	-9445
防范	-9446
零和	-9447
黑人	-9448
3.5	-9449
are	-9450
row	-9451
▁仅仅	-9452
▁令人	-9453
▁导致	-9454
▁建立	-9455
▁我在	-9456
▁放眼	-9457
▁无法	-9458
▁而当	-9459
一个人	-9460
不一定	-9461
不喜欢	-9462
不符合	-9463
不足的	-9464
不足道	-9465
为导向	-9466
了一半	-9467
了我们	-9468
众多的	-9469
低下的	-9470
其国内	-9471
出口商	-9472
切尔诺	-9473
创始人	-9474
利率的	-9475
十年期	-9476
即便是	-9477
可能比	-9478
呈现出	-9479
和国内	-9480
和疟疾	-9481
国神社	-9482
在法国	-9483
地使用	-9484
如果你	-9485
实践中	-9486
将美国	-9487
尼古丁	-9488
常见的	-9489
平等的	-9490
年之前	-9491
开始了	-9492
开始时	-9493
我们也	-9494
所产生	-9495
持不同	-9496
曾经是	-9497
最多的	-9498
有大量	-9499
有时候	-9500
核设施	-9501
生产和	-9502
生产国	-9503
电视台	-9504
的医疗	-9505
的商品	-9506
的大型	-9507
的希望	-9508
的平均	-9509
的援助	-9510
的机制	-9511
的真实	-9512
的精英	-9513
社会党	-9514
管理和	-9515
管理层	-9516
约瑟夫	-9517
而这一	-9518
自上而	-9519
舞台上	-9520
被证明	-9521
观察到	-9522
转向了	-9523
这个词	-9524
通常会	-9525
那些在	-9526
阿卜杜	-9527
1996	-9528
avid	-9529
▁-3.	-9530
▁其中的	-9531
▁在最近	-9532
▁没有人	-9533
▁爱尔兰	-9534
▁这表明	-9535
与中国的	-9536
保守主义	-9537
先决条件	-9538
全球基金	-9539
公共资金	-9540
军事实力	-9541
决定性的	-9542
决策者的	-9543
厄瓜多尔	-9544
双边贸易	-9545
可以作为	-9546
可能会在	-9547
史无前例	-9548
和平协议	-9549
国际刑事	-9550
外部需求	-9551
如果不是	-9552
实现这一	-9553
富兰克林	-9554
将取决于	-9555
居高不下	-9556
并不总是	-9557
强烈反对	-9558
微不足道	-9559
想象一下	-9560
成立一个	-9561
我们现在	-9562
承担责任	-9563
无法实现	-9564
欧盟机构	-9565
正在发生	-9566
独裁政权	-9567
职业生涯	-9568
认为美国	-9569
议会选举	-9570
资本要求	-9571
这一挑战	-9572
这个世界	-9573
通货紧缩	-9574
金融动荡	-9575
针锋相对	-9576
陷入停滞	-9577
领导人们	-9578
高等教育	-9579
高速公路	-9580
—2008	-9581
▁全球经济	-9582
之间的冲突	-9583
切尔诺贝利	-9584
印度尼西亚	-9585
可以追溯到	-9586
委员会主席	-9587
梅德韦杰夫	-9588
的经济复苏	-9589
美国和英国	-9590
George	-9591
limate	-9592
新兴市场国家	-9593
的经济和政治	-9594
解决这一问题	-9595
俄罗斯总统普京	-9596
政府间气候变化	-9597
第二次世界大战	-9598
47	-9599
Tw	-9600
iz	-9601
▁2	-9602
▁卡	-9603
▁四	-9604
▁拜	-9605
三十	-9606
上帝	-9607
下属	-9608
不时	-9609
不禁	-9610
临界	-9611
主办	-9612
也已	-9613
于衷	-9614
他说	-9615
任职	-9616
伴侣	-9617
僵尸	-9618
克罗	-9619
冷漠	-9620
减贫	-9621
分水	-9622
初期	-9623
制的	-9624
加息	-9625
医药	-9626
反击	-9627
同僚	-9628
同比	-9629
名言	-9630
听取	-9631
哥拉	-9632
唯有	-9633
善意	-9634
图书	-9635
基点	-9636
处境	-9637
处方	-9638
外长	-9639
学位	-9640
宏伟	-9641
尼尔	-9642
年末	-9643
年被	-9644
并使	-9645
建成	-9646
异于	-9647
归属	-9648
忧心	-9649
悠久	-9650
愉快	-9651
战线	-9652
扣除	-9653
找出	-9654
拖入	-9655
挑选	-9656
挖掘	-9657
挥霍	-9658
据此	-9659
擅长	-9660
斯塔	-9661
无动	-9662
无穷	-9663
明了	-9664
是他	-9665
景象	-9666
暗中	-9667
有待	-9668
末日	-9669
本书	-9670
极高	-9671
根基	-9672
步入	-9673
治下	-9674
沿岸	-9675
潜艇	-9676
特的	-9677
犯下	-9678
用了	-9679
空袭	-9680
第五	-9681
纲领	-9682
而来	-9683
脱钩	-9684
螺旋	-9685
被动	-9686
观看	-9687
解散	-9688
诊所	-9689
说话	-9690
读者	-9691
跻身	-9692
转让	-9693
遗留	-9694
鸿沟	-9695
1.8	-9696
FDI	-9697
OMC	-9698
ald	-9699
eth	-9700
ina	-9701
uel	-9702
▁唯一	-9703
▁当局	-9704
▁真正	-9705
▁贸易	-9706
▁风险	-9707
一半的	-9708
下一步	-9709
下半年	-9710
两位数	-9711
严厉的	-9712
中左翼	-9713
亚洲和	-9714
人来说	-9715
会不会	-9716
会增加	-9717
信息的	-9718
信用卡	-9719
关系到	-9720
凸显了	-9721
卢森堡	-9722
发电厂	-9723
古老的	-9724
可行性	-9725
各自为	-9726
同时还	-9727
和南非	-9728
和机构	-9729
大革命	-9730
失去的	-9731
如此之	-9732
安哥拉	-9733
寄希望	-9734
将需要	-9735
就像是	-9736
就是在	-9737
巴西的	-9738
年中国	-9739
应该为	-9740
德意志	-9741
必要性	-9742
怎么做	-9743
我们有	-9744
战略性	-9745
把他们	-9746
抵押品	-9747
拥有了	-9748
损害了	-9749
描述为	-9750
政党的	-9751
教科书	-9752
昂山素	-9753
是多么	-9754
核国家	-9755
核电站	-9756
欧盟和	-9757
正在向	-9758
正面临	-9759
每一次	-9760
民主化	-9761
激起了	-9762
现实中	-9763
生活中	-9764
的一篇	-9765
的公众	-9766
的分析	-9767
的声音	-9768
的某些	-9769
的表现	-9770
的调查	-9771
相关性	-9772
竞争者	-9773
答案是	-9774
类型的	-9775
缅甸的	-9776
而应该	-9777
肯定的	-9778
至少是	-9779
认为的	-9780
该协议	-9781
这是个	-9782
银行在	-9783
饮用水	-9784
1930	-9785
▁GDP	-9786
▁但正如	-9787
▁我们在	-9788
▁欧洲人	-9789
▁问题是	-9790
与土耳其	-9791
严重依赖	-9792
中国官员	-9793
中国股市	-9794
之处在于	-9795
也越来越	-9796
他们可以	-9797
任何国家	-9798
做出贡献	-9799
几乎肯定	-9800
几十年的	-9801
只有通过	-9802
商界领袖	-9803
因为我们	-9804
国际组织	-9805
在中国的	-9806
在全世界	-9807
外围国家	-9808
实际上是	-9809
对以色列	-9810
市场力量	-9811
平均而言	-9812
应该采取	-9813
技术创新	-9814
技术官僚	-9815
提供融资	-9816
支付系统	-9817
收入差距	-9818
政府可以	-9819
政治上的	-9820
数据表明	-9821
无动于衷	-9822
更加难以	-9823
最低工资	-9824
欧洲各国	-9825
欧盟必须	-9826
正在进行	-9827
民主党人	-9828
特朗普在	-9829
的全球化	-9830
的最重要	-9831
的背景下	-9832
购买计划	-9833
还有可能	-9834
长期停滞	-9835
▁他们认为	-9836
▁总而言之	-9837
▁讽刺的是	-9838
▁这一方针	-9839
世界领导人	-9840
劳动力成本	-9841
埃博拉病毒	-9842
工业化国家	-9843
已经超过了	-9844
常任理事国	-9845
所说的那样	-9846
法国和德国	-9847
美国和中国	-9848
劳动力市场的	-9849
经通胀调整的	-9850
国内生产总值的	-9851
▁美国总统奥巴马	-9852
31	-9853
49	-9854
HP	-9855
KP	-9856
PR	-9857
pe	-9858
uk	-9859
▁c	-9860
▁v	-9861
▁按	-9862
▁能	-9863
不佳	-9864
不公	-9865
两难	-9866
主意	-9867
之不	-9868
之年	-9869
仍能	-9870
他还	-9871
仪式	-9872
位列	-9873
位居	-9874
余额	-9875
借入	-9876
倾斜	-9877
偶然	-9878
其后	-9879
初始	-9880
原先	-9881
告知	-9882
和在	-9883
外币	-9884
多万	-9885
多黎	-9886
大为	-9887
大门	-9888
天堂	-9889
头脑	-9890
契合	-9891
奥塞	-9892
威廉	-9893
宝座	-9894
家长	-9895
小于	-9896
尔摩	-9897
巨型	-9898
布斯	-9899
平常	-9900
年份	-9901
年就	-9902
并让	-9903
广受	-9904
广大	-9905
弗朗	-9906
德克	-9907
戈登	-9908
或少	-9909
扎克	-9910
打败	-9911
拥抱	-9912
指南	-9913
振兴	-9914
摇摇	-9915
方济	-9916
无序	-9917
既是	-9918
普斯	-9919
月中	-9920
杀手	-9921
来临	-9922
枢纽	-9923
格达	-9924
欲坠	-9925
殆尽	-9926
消化	-9927
深受	-9928
激活	-9929
的后	-9930
的国	-9931
看成	-9932
砍伐	-9933
磋商	-9934
稀土	-9935
老板	-9936
而未	-9937
苦苦	-9938
莱坞	-9939
萨拉	-9940
裁定	-9941
要高	-9942
观众	-9943
视作	-9944
视野	-9945
词汇	-9946
诺斯	-9947
谈话	-9948
赫特	-9949
足迹	-9950
轻微	-9951
辅助	-9952
输入	-9953
远程	-9954
追加	-9955
避开	-9956
重的	-9957
降雨	-9958
0.2	-9959
900	-9960
AMR	-9961
ann	-9962
ant	-9963
ath	-9964
ect	-9965
ins	-9966
ism	-9967
unc	-9968
▁剑桥	-9969
▁多数	-9970
▁美元	-9971
▁超过	-9972
▁近期	-9973
一小撮	-9974
不亚于	-9975
中之重	-9976
中国与	-9977
中指出	-9978
为一个	-9979
为全球	-9980
也不太	-9981
也十分	-9982
也因为	-9983
了一切	-9984
从中国	-9985
他人的	-9986
以一种	-9987
以换取	-9988
以防止	-9989
做好了	-9990
停留在	-9991
公司将	-9992
出口的	-9993
分水岭	-9994
加强了	-9995
告诉我	-9996
和东欧	-9997
和其它	-9998
和腐败	-9999
国内外	-10000
在应对	-10001
天安门	-10002
威胁的	-10003
孩子的	-10004
它可以	-10005
它已经	-10006
对其他	-10007
将军们	-10008
将最终	-10009
小企业	-10010
层面上	-10011
平衡的	-10012
战争和	-10013
批准了	-10014
承担了	-10015
拥有的	-10016
控制了	-10017
措施来	-10018
方济各	-10019
施罗德	-10020
无限期	-10021
暴露出	-10022
有责任	-10023
来衡量	-10024
柏林墙	-10025
每年的	-10026
波多黎	-10027
生物学	-10028
的人才	-10029
的假设	-10030
的内容	-10031
的总体	-10032
的石油	-10033
相似的	-10034
硬实力	-10035
第一位	-10036
签署的	-10037
糖尿病	-10038
绝不会	-10039
而那些	-10040
至少有	-10041
计划和	-10042
让自己	-10043
说服力	-10044
资本和	-10045
资金的	-10046
路要走	-10047
过程的	-10048
还有待	-10049
这两种	-10050
进行过	-10051
都存在	-10052
里程碑	-10053
错误地	-10054
问题时	-10055
韩国的	-10056
预见到	-10057
berg	-10058
ency	-10059
▁但是在	-10060
▁在某些	-10061
▁而随着	-10062
不仅限于	-10063
中国企业	-10064
也面临着	-10065
代表大会	-10066
令人鼓舞	-10067
依然存在	-10068
做出选择	-10069
全球气温	-10070
决定因素	-10071
出口增长	-10072
刺激经济	-10073
包括中国	-10074
变得更为	-10075
实质性的	-10076
寄希望于	-10077
将注意力	-10078
影子银行	-10079
所发生的	-10080
所采取的	-10081
投资基金	-10082
拥有一个	-10083
摇摇欲坠	-10084
政治领袖	-10085
数据显示	-10086
无处不在	-10087
无所作为	-10088
更加复杂	-10089
更多的钱	-10090
有利可图	-10091
有所增加	-10092
构建一个	-10093
核心利益	-10094
欧盟内部	-10095
毋庸置疑	-10096
治理结构	-10097
破坏性的	-10098
私人消费	-10099
经济利益	-10100
英国选民	-10101
评级机构	-10102
货币宽松	-10103
贸易协议	-10104
资本重组	-10105
边境调节	-10106
这场战争	-10107
采取任何	-10108
阿里巴巴	-10109
随处可见	-10110
高速增长	-10111
itter	-10112
▁2006	-10113
▁布什政府	-10114
不断增长的	-10115
主要经济体	-10116
付出的代价	-10117
以失败告终	-10118
几乎不可能	-10119
劳动密集型	-10120
华盛顿特区	-10121
大部分地区	-10122
太阳能电池	-10123
富裕国家的	-10124
社会安全网	-10125
这样的国家	-10126
哥伦比亚革命	-10127
宏观经济政策	-10128
所指出的那样	-10129
欧洲央行行长	-10130
欧洲货币联盟	-10131
泛美开发银行	-10132
▁这就是为什么	-10133
新兴市场经济体	-10134
▁Commission	-10135
,6	-10136
OP	-10137
lo	-10138
▁同	-10139
一是	-10140
三种	-10141
不啻	-10142
不敢	-10143
个性	-10144
中断	-10145
中日	-10146
举债	-10147
也曾	-10148
仅靠	-10149
付款	-10150
优化	-10151
会是	-10152
侯赛	-10153
侵害	-10154
修补	-10155
入主	-10156
入境	-10157
公立	-10158
六年	-10159
关乎	-10160
关门	-10161
农地	-10162
创设	-10163
别处	-10164
压抑	-10165
取缔	-10166
受制	-10167
变动	-10168
合并	-10169
君主	-10170
听闻	-10171
图景	-10172
在该	-10173
多哈	-10174
够了	-10175
天才	-10176
奖金	-10177
好转	-10178
审议	-10179
将要	-10180
尖端	-10181
就算	-10182
局长	-10183
巨资	-10184
常识	-10185
并把	-10186
延迟	-10187
开来	-10188
弗雷	-10189
弹劾	-10190
或多	-10191
战士	-10192
拉低	-10193
拿马	-10194
掀起	-10195
提炼	-10196
提起	-10197
摩根	-10198
救济	-10199
是很	-10200
更迭	-10201
替罪	-10202
本已	-10203
格拉	-10204
欠缺	-10205
次贷	-10206
每月	-10207
气氛	-10208
沙龙	-10209
法外	-10210
波及	-10211
波特	-10212
派别	-10213
渺茫	-10214
激动	-10215
灵丹	-10216
点燃	-10217
特性	-10218
环节	-10219
申科	-10220
男人	-10221
的斯	-10222
益处	-10223
真是	-10224
确信	-10225
祖先	-10226
秋天	-10227
纸币	-10228
绕过	-10229
脱贫	-10230
莫拉	-10231
菲永	-10232
被判	-10233
裁量	-10234
警报	-10235
赔偿	-10236
赚钱	-10237
走了	-10238
转化	-10239
运气	-10240
近邻	-10241
这套	-10242
远超	-10243
防空	-10244
除外	-10245
隐性	-10246
饭店	-10247
骚扰	-10248
1.6	-10249
1.9	-10250
180	-10251
75%	-10252
CDS	-10253
Con	-10254
DNA	-10255
Jer	-10256
ary	-10257
ass	-10258
one	-10259
tic	-10260
▁一项	-10261
▁两国	-10262
▁仍然	-10263
▁他还	-10264
▁具有	-10265
▁到了	-10266
▁外国	-10267
▁这与	-10268
一个新	-10269
下降至	-10270
不会有	-10271
不要说	-10272
丧失了	-10273
中东欧	-10274
主席国	-10275
了超过	-10276
享受到	-10277
亿人口	-10278
从美国	-10279
依然在	-10280
公司税	-10281
决策的	-10282
几内亚	-10283
出生的	-10284
加强对	-10285
占世界	-10286
发生后	-10287
另一项	-10288
合作和	-10289
和台湾	-10290
和平奖	-10291
和未来	-10292
和移民	-10293
和繁荣	-10294
图书馆	-10295
在当前	-10296
地球上	-10297
基辛格	-10298
多大的	-10299
将大大	-10300
将自己	-10301
将超过	-10302
层面的	-10303
届政府	-10304
工人和	-10305
已久的	-10306
已经是	-10307
希拉克	-10308
应用于	-10309
应该由	-10310
情报局	-10311
所需要	-10312
才开始	-10313
扮演着	-10314
技能和	-10315
拉动型	-10316
指出的	-10317
掩盖了	-10318
描述的	-10319
提供者	-10320
政客和	-10321
斯拉夫	-10322
斯诺登	-10323
无助于	-10324
时间和	-10325
最需要	-10326
有组织	-10327
有足够	-10328
服务和	-10329
深远的	-10330
的一体	-10331
的中心	-10332
的大选	-10333
的改变	-10334
的方针	-10335
的日本	-10336
的模式	-10337
的潜力	-10338
的空间	-10339
的转变	-10340
的革命	-10341
看作是	-10342
社会中	-10343
紧迫性	-10344
绝不能	-10345
而他们	-10346
而感到	-10347
能得到	-10348
融资的	-10349
表达了	-10350
被忽视	-10351
西方人	-10352
规定的	-10353
计划中	-10354
让世界	-10355
让经济	-10356
设计的	-10357
负利率	-10358
超出了	-10359
超国家	-10360
过渡期	-10361
还存在	-10362
遇到了	-10363
道理的	-10364
都是在	-10365
采用了	-10366
降低到	-10367
风险和	-10368
1982	-10369
orld	-10370
▁另一种	-10371
▁慕尼黑	-10372
▁换言之	-10373
▁而如今	-10374
不断扩大	-10375
人们认为	-10376
他们应该	-10377
令人印象	-10378
信息技术	-10379
八十年代	-10380
关税联盟	-10381
利益相关	-10382
制造业和	-10383
各种各样	-10384
和他们的	-10385
因为美国	-10386
在短期内	-10387
增长速度	-10388
外国投资	-10389
容易受到	-10390
对俄罗斯	-10391
导弹防御	-10392
应该得到	-10393
我们不能	-10394
我们无法	-10395
抗议活动	-10396
拒绝承认	-10397
无论如何	-10398
欧元危机	-10399
永远无法	-10400
波多黎各	-10401
波罗的海	-10402
浮动汇率	-10403
激励机制	-10404
的受害者	-10405
的环境中	-10406
经济繁荣	-10407
联邦调查	-10408
萎靡不振	-10409
认识到了	-10410
资本外流	-10411
这一点上	-10412
这些风险	-10413
这种说法	-10414
都面临着	-10415
靖国神社	-10416
齐心协力	-10417
David	-10418
▁Fund	-10419
▁埃尔多安	-10420
▁如果美国	-10421
▁巴勒斯坦	-10422
▁总体而言	-10423
▁这一观点	-10424
▁这一过程	-10425
不确定性的	-10426
令人瞩目的	-10427
发生了什么	-10428
基础设施的	-10429
完成的任务	-10430
扮演的角色	-10431
的新兴市场	-10432
许多国家的	-10433
10,000	-10434
▁所有这些都	-10435
太大而不能倒	-10436
政策制定者们	-10437
解释了为什么	-10438
诺贝尔和平奖	-10439
随着时间的推移	-10440
非常规货币政策	-10441
跨太平洋合作伙伴关系	-10442
2/	-10443
AC	-10444
ET	-10445
ID	-10446
Sh	-10447
ph	-10448
一贯	-10449
万事	-10450
下调	-10451
下限	-10452
不休	-10453
与日	-10454
中叶	-10455
为主	-10456
乌里	-10457
于事	-10458
亲眼	-10459
仍旧	-10460
代际	-10461
仿佛	-10462
优点	-10463
伪善	-10464
但从	-10465
佛罗	-10466
保住	-10467
充其	-10468
先发	-10469
光诚	-10470
免税	-10471
免遭	-10472
公然	-10473
共存	-10474
写照	-10475
军费	-10476
冠军	-10477
凌驾	-10478
几千	-10479
分五	-10480
分销	-10481
则会	-10482
卓越	-10483
卖出	-10484
又能	-10485
双相	-10486
叫做	-10487
合格	-10488
名词	-10489
周的	-10490
呼吸	-10491
商店	-10492
壮大	-10493
处置	-10494
女儿	-10495
子里	-10496
对该	-10497
尔特	-10498
巴罗	-10499
开设	-10500
引向	-10501
得太	-10502
扎伊	-10503
拉特	-10504
收取	-10505
放射	-10506
放心	-10507
政见	-10508
无一	-10509
无效	-10510
旱灾	-10511
时就	-10512
旷日	-10513
显露	-10514
暴政	-10515
暴涨	-10516
更小	-10517
更难	-10518
死去	-10519
民兵	-10520
法定	-10521
涅拉	-10522
独自	-10523
甘地	-10524
甚微	-10525
直至	-10526
眼里	-10527
祸首	-10528
穆沙	-10529
算盘	-10530
结成	-10531
老化	-10532
自利	-10533
节节	-10534
菲尔	-10535
装置	-10536
西非	-10537
要做	-10538
要对	-10539
计的	-10540
许诺	-10541
财阀	-10542
贩卖	-10543
起初	-10544
超额	-10545
跌幅	-10546
身边	-10547
辐射	-10548
迅猛	-10549
返回	-10550
这就	-10551
迷失	-10552
选区	-10553
里约	-10554
金斯	-10555
面目	-10556
革新	-10557
领衔	-10558
风力	-10559
鼓动	-10560
0.8	-10561
1.2	-10562
1/3	-10563
ack	-10564
ash	-10565
com	-10566
eph	-10567
ris	-10568
unt	-10569
▁12	-10570
▁不断	-10571
▁似乎	-10572
▁保护	-10573
▁利用	-10574
▁家庭	-10575
▁有了	-10576
▁有关	-10577
▁瑞典	-10578
▁移民	-10579
▁网络	-10580
不关心	-10581
不同意	-10582
不属于	-10583
与合作	-10584
为那些	-10585
乌里韦	-10586
也只是	-10587
也随之	-10588
人们所	-10589
仍有待	-10590
以来最	-10591
以每年	-10592
伊朗和	-10593
会如何	-10594
但现在	-10595
低增长	-10596
信任的	-10597
催化剂	-10598
儿童的	-10599
充其量	-10600
公司在	-10601
准确地	-10602
几年前	-10603
分析家	-10604
压倒性	-10605
去监管	-10606
可以使	-10607
向中国	-10608
和城市	-10609
和工作	-10610
因此而	-10611
因素的	-10612
国外的	-10613
国政府	-10614
国际化	-10615
基米尔	-10616
大城市	-10617
大面积	-10618
央行的	-10619
媒体和	-10620
对银行	-10621
将它们	-10622
将通过	-10623
巩固了	-10624
已经将	-10625
希腊的	-10626
并导致	-10627
开启了	-10628
总体上	-10629
我们就	-10630
或者是	-10631
或者说	-10632
才能够	-10633
把这一	-10634
抑制了	-10635
排放的	-10636
推出了	-10637
援助的	-10638
斯特恩	-10639
是一次	-10640
是不会	-10641
最初的	-10642
有一点	-10643
有价值	-10644
有多大	-10645
有没有	-10646
束手无	-10647
案例中	-10648
植根于	-10649
比现在	-10650
沉重的	-10651
没有在	-10652
治下的	-10653
演变成	-10654
然而然	-10655
牵涉到	-10656
的事件	-10657
的口号	-10658
的多数	-10659
的大学	-10660
的情绪	-10661
的最好	-10662
的活动	-10663
的通胀	-10664
皮涅拉	-10665
眼中的	-10666
稳定与	-10667
经济上	-10668
经济区	-10669
经验的	-10670
能力和	-10671
蔓延到	-10672
讨论的	-10673
让所有	-10674
让英国	-10675
贫困的	-10676
费舍尔	-10677
资本的	-10678
轻易地	-10679
迅速地	-10680
过时的	-10681
这导致	-10682
陈光诚	-10683
高加索	-10684
BRCA	-10685
FOMC	-10686
eter	-10687
▁再加上	-10688
▁据估计	-10689
▁有鉴于	-10690
▁而美国	-10691
▁肯尼亚	-10692
两极分化	-10693
中的作用	-10694
他们自己	-10695
令人瞩目	-10696
令人难以	-10697
低碳能源	-10698
债务上限	-10699
健康状况	-10700
全民医疗	-10701
公开市场	-10702
减少贫困	-10703
刺激增长	-10704
劳动收入	-10705
十分困难	-10706
只有不到	-10707
可以用来	-10708
可以自由	-10709
可能不会	-10710
和其他人	-10711
商业周期	-10712
商业模式	-10713
国际关系	-10714
在最近的	-10715
大幅降低	-10716
如果他们	-10717
它们可以	-10718
对他们的	-10719
将是一个	-10720
应该通过	-10721
弱势群体	-10722
强劲增长	-10723
很长时间	-10724
或多或少	-10725
投资者和	-10726
按揭贷款	-10727
提供帮助	-10728
政治意愿	-10729
智能手机	-10730
最大限度	-10731
正面临着	-10732
泡沫破裂	-10733
消极影响	-10734
溢出效应	-10735
特朗普和	-10736
环境问题	-10737
现实主义	-10738
的第二个	-10739
相去甚远	-10740
科学家们	-10741
税收制度	-10742
穆沙拉夫	-10743
经济制裁	-10744
美元汇率	-10745
美国政治	-10746
能够通过	-10747
自然而然	-10748
资源配置	-10749
过剩产能	-10750
过程中的	-10751
这是因为	-10752
迷你电网	-10753
重新谈判	-10754
野生动物	-10755
阿富汗的	-10756
阿拉伯人	-10757
需要进行	-10758
▁其结果是	-10759
▁我们已经	-10760
▁正因如此	-10761
▁迄今为止	-10762
从一开始就	-10763
充满活力的	-10764
出口导向型	-10765
印度和中国	-10766
发生了变化	-10767
巴基斯坦的	-10768
弗拉基米尔	-10769
必须认识到	-10770
欧洲和美国	-10771
欧洲经济区	-10772
特朗普总统	-10773
的一个关键	-10774
的一个重要	-10775
的政策制定	-10776
的经济危机	-10777
的财政政策	-10778
经济和金融	-10779
自由贸易区	-10780
越来越多地	-10781
边境调节税	-10782
这一问题的	-10783
这个问题的	-10784
进一步加剧	-10785
退出欧元区	-10786
里斯本条约	-10787
面临的挑战	-10788
Joseph	-10789
世界其他地方	-10790
固定资产投资	-10791
在发展中国家	-10792
所面临的问题	-10793
经合组织国家	-10794
阿拉伯世界的	-10795
非传染性疾病	-10796
100,000	-10797
ability	-10798
▁从某种程度上	-10799
National	-10800
跨大西洋贸易和投资	-10801
42	-10802
68	-10803
UN	-10804
af	-10805
▁先	-10806
▁则	-10807
▁博	-10808
▁小	-10809
▁给	-10810
一同	-10811
一张	-10812
一波	-10813
上来	-10814
不一	-10815
不快	-10816
不计	-10817
不通	-10818
中全	-10819
中华	-10820
之手	-10821
也与	-10822
也最	-10823
互惠	-10824
亿吨	-10825
仲裁	-10826
伊始	-10827
低廉	-10828
保卫	-10829
养活	-10830
写入	-10831
到位	-10832
加德	-10833
勘探	-10834
北极	-10835
十个	-10836
十倍	-10837
半叶	-10838
协同	-10839
发病	-10840
发酵	-10841
变量	-10842
只需	-10843
可归	-10844
向下	-10845
和前	-10846
和最	-10847
四国	-10848
国大	-10849
塞内	-10850
增大	-10851
处决	-10852
备忘	-10853
多米	-10854
多达	-10855
天赋	-10856
天鹅	-10857
她在	-10858
好了	-10859
如是	-10860
定罪	-10861
将与	-10862
巧合	-10863
希尔	-10864
幕后	-10865
幸存	-10866
引力	-10867
引渡	-10868
强奸	-10869
德哥	-10870
总数	-10871
恶意	-10872
悲哀	-10873
憧憬	-10874
所言	-10875
推测	-10876
推荐	-10877
撤退	-10878
改良	-10879
救命	-10880
整顿	-10881
斯拉	-10882
是与	-10883
曲线	-10884
更糟	-10885
曾说	-10886
最优	-10887
有损	-10888
每周	-10889
没错	-10890
注资	-10891
潜能	-10892
激怒	-10893
激起	-10894
熟虑	-10895
瓦纳	-10896
用作	-10897
监视	-10898
神秘	-10899
突发	-10900
竟然	-10901
符号	-10902
纯属	-10903
美德	-10904
能给	-10905
脱节	-10906
自满	-10907
良多	-10908
良性	-10909
行径	-10910
认清	-10911
设在	-10912
诗人	-10913
赖以	-10914
赞美	-10915
走私	-10916
赶上	-10917
路上	-10918
蹂躏	-10919
辉煌	-10920
达赖	-10921
过的	-10922
这三	-10923
连贯	-10924
逍遥	-10925
通道	-10926
道歉	-10927
那摩	-10928
重现	-10929
金额	-10930
错配	-10931
颇有	-10932
高盛	-10933
ear	-10934
ett	-10935
lan	-10936
ork	-10937
ren	-10938
▁An	-10939
▁al	-10940
▁不难	-10941
▁东京	-10942
▁也有	-10943
▁假设	-10944
▁国会	-10945
▁增加	-10946
▁增长	-10947
▁大量	-10948
▁安倍	-10949
▁总统	-10950
▁改变	-10951
▁数字	-10952
▁更加	-10953
▁能够	-10954
一个由	-10955
一致性	-10956
不仅要	-10957
不动产	-10958
不可及	-10959
不完全	-10960
不断的	-10961
与政府	-10962
东北亚	-10963
中右翼	-10964
为中心	-10965
为首的	-10966
也能够	-10967
了一倍	-10968
了一套	-10969
五规划	-10970
产出的	-10971
仍处于	-10972
但中国	-10973
低工资	-10974
使用了	-10975
侯赛因	-10976
俄关系	-10977
凌驾于	-10978
分五裂	-10979
剥夺了	-10980
十年后	-10981
友好的	-10982
反周期	-10983
反移民	-10984
取消了	-10985
受制于	-10986
只关注	-10987
只能在	-10988
可信的	-10989
可预测	-10990
各自的	-10991
后者的	-10992
向世界	-10993
和组织	-10994
国有化	-10995
备忘录	-10996
夜之间	-10997
奥斯本	-10998
孩子们	-10999
它们对	-11000
对政府	-11001
将不会	-11002
将会在	-11003
将欧洲	-11004
少数派	-11005
岁以下	-11006
应该对	-11007
建制派	-11008
强化的	-11009
必须将	-11010
必须由	-11011
怀疑派	-11012
怎样的	-11013
思想的	-11014
愤怒的	-11015
所创造	-11016
所采取	-11017
持续了	-11018
提供商	-11019
教科文	-11020
数十万	-11021
数据库	-11022
新经济	-11023
方面也	-11024
是确保	-11025
更强的	-11026
替罪羊	-11027
有用的	-11028
来确保	-11029
标志性	-11030
核扩散	-11031
此前的	-11032
法律的	-11033
游击队	-11034
爆发了	-11035
理查德	-11036
癌细胞	-11037
的亚洲	-11038
的人士	-11039
的人都	-11040
的大量	-11041
的群体	-11042
的领袖	-11043
的高度	-11044
目标和	-11045
秩序的	-11046
而不会	-11047
而欧盟	-11048
自己在	-11049
规模和	-11050
误导性	-11051
这件事	-11052
透明的	-11053
通过的	-11054
非国家	-11055
面对的	-11056
3000	-11057
ital	-11058
ners	-11059
▁在全球	-11060
▁类似的	-11061
▁而这些	-11062
▁而这种	-11063
▁这使得	-11064
▁这正是	-11065
严重问题	-11066
事实证明	-11067
共同努力	-11068
关于如何	-11069
关塔那摩	-11070
几个国家	-11071
出口市场	-11072
前工业化	-11073
危机期间	-11074
双相障碍	-11075
反腐运动	-11076
各自为政	-11077
四分五裂	-11078
国会议员	-11079
国民债务	-11080
在叙利亚	-11081
大多数人	-11082
大部分人	-11083
宏观审慎	-11084
宪法条约	-11085
尤其重要	-11086
巴黎协定	-11087
市场份额	-11088
并不十分	-11089
并不容易	-11090
并不足以	-11091
德哥尔摩	-11092
成百上千	-11093
我们这个	-11094
执政期间	-11095
投资组合	-11096
报告显示	-11097
排除在外	-11098
改革计划	-11099
政府机构	-11100
政治精英	-11101
整个地区	-11102
是全世界	-11103
更加糟糕	-11104
束手无策	-11105
某些国家	-11106
某种形式	-11107
核武器的	-11108
欧元债券	-11109
正在改变	-11110
民主体制	-11111
气候政策	-11112
法治精神	-11113
深思熟虑	-11114
物理学家	-11115
特里赫特	-11116
的候选人	-11117
短期利率	-11118
种族灭绝	-11119
积极影响	-11120
粮食安全	-11121
结构调整	-11122
结构转型	-11123
统计数字	-11124
统计数据	-11125
罪魁祸首	-11126
美元升值	-11127
莫拉莱斯	-11128
蒙受损失	-11129
认为这是	-11130
贫困国家	-11131
这一决定	-11132
这一局面	-11133
这一情况	-11134
这种状况	-11135
进行合作	-11136
进行谈判	-11137
通胀压力	-11138
遗憾的是	-11139
重新分配	-11140
重新考虑	-11141
金融企业	-11142
银行监管	-11143
长久以来	-11144
领导地位	-11145
鲜明对比	-11146
,2016	-11147
meric	-11148
▁人工智能	-11149
▁几十年来	-11150
▁哥伦比亚	-11151
▁如果他们	-11152
▁我们知道	-11153
不可或缺的	-11154
产品和服务	-11155
发达国家和	-11156
和安全政策	-11157
建立了一个	-11158
必不可少的	-11159
提出了一个	-11160
民主国家的	-11161
法西斯主义	-11162
的经济表现	-11163
中低收入国家	-11164
加利福尼亚州	-11165
核不扩散条约	-11166
的政治和经济	-11167
马斯特里赫特	-11168
麻省理工学院	-11169
▁但这并不意味着	-11170
55	-11171
GI	-11172
II	-11173
ef	-11174
▁3	-11175
▁’	-11176
▁时	-11177
▁梅	-11178
一面	-11179
丈夫	-11180
不无	-11181
不被	-11182
不见	-11183
不该	-11184
中被	-11185
付费	-11186
代之	-11187
代议	-11188
任的	-11189
会把	-11190
但又	-11191
作俑	-11192
俱增	-11193
借债	-11194
偏执	-11195
光荣	-11196
兴旺	-11197
冒犯	-11198
冰岛	-11199
冰川	-11200
出任	-11201
出租	-11202
切特	-11203
划分	-11204
列宁	-11205
则被	-11206
初步	-11207
剧变	-11208
化肥	-11209
区间	-11210
半球	-11211
卢卡	-11212
压缩	-11213
原料	-11214
反美	-11215
取而	-11216
同期	-11217
含糊	-11218
含量	-11219
吸纳	-11220
和他	-11221
回国	-11222
在为	-11223
地面	-11224
多家	-11225
大错	-11226
天真	-11227
夭折	-11228
失效	-11229
女权	-11230
好比	-11231
孱弱	-11232
定律	-11233
审核	-11234
宣战	-11235
家里	-11236
尔邦	-11237
布勒	-11238
年才	-11239
废止	-11240
废水	-11241
当权	-11242
往常	-11243
快于	-11244
思路	-11245
总和	-11246
恰好	-11247
手笔	-11248
护士	-11249
捐款	-11250
推理	-11251
教会	-11252
敢于	-11253
斯堪	-11254
斯库	-11255
斯托	-11256
明日	-11257
期刊	-11258
杀虫	-11259
权限	-11260
来了	-11261
欢呼	-11262
正逢	-11263
比作	-11264
没完	-11265
海默	-11266
深感	-11267
炮制	-11268
热烈	-11269
热病	-11270
照片	-11271
牢固	-11272
理智	-11273
瓶颈	-11274
看护	-11275
种类	-11276
突变	-11277
筹资	-11278
简称	-11279
紧随	-11280
累累	-11281
累进	-11282
考试	-11283
能对	-11284
自给	-11285
获利	-11286
蔬菜	-11287
裂痕	-11288
订立	-11289
讨厌	-11290
赞赏	-11291
越是	-11292
趋向	-11293
跟上	-11294
躲避	-11295
轮值	-11296
量子	-11297
长足	-11298
防治	-11299
须知	-11300
骗局	-11301
0.0	-11302
11%	-11303
12%	-11304
2.8	-11305
4.5	-11306
AKP	-11307
ARC	-11308
ael	-11309
ail	-11310
ice	-11311
umm	-11312
▁10	-11313
▁不但	-11314
▁东盟	-11315
▁公众	-11316
▁公共	-11317
▁北约	-11318
▁发展	-11319
▁可是	-11320
▁地球	-11321
▁据说	-11322
▁是否	-11323
▁曾经	-11324
▁科学	-11325
一定的	-11326
不具有	-11327
与世界	-11328
与其说	-11329
与英国	-11330
与过去	-11331
之又少	-11332
也不愿	-11333
也应当	-11334
事务上	-11335
人听闻	-11336
什么是	-11337
以保护	-11338
以应对	-11339
伊斯坦	-11340
伙伴国	-11341
但只有	-11342
但对于	-11343
作用的	-11344
全欧洲	-11345
全要素	-11346
再融资	-11347
减少对	-11348
出现过	-11349
利益和	-11350
危机和	-11351
原子能	-11352
参与到	-11353
发生时	-11354
发言权	-11355
后不久	-11356
和人权	-11357
和开发	-11358
和瑞典	-11359
和银行	-11360
在任何	-11361
在伊朗	-11362
在短期	-11363
失败了	-11364
奠定了	-11365
始作俑	-11366
威尔逊	-11367
婴儿潮	-11368
学术界	-11369
已经对	-11370
年时间	-11371
年轻的	-11372
很难说	-11373
总额的	-11374
患者的	-11375
想起了	-11376
我们会	-11377
所表明	-11378
投票率	-11379
抗菌素	-11380
抛弃了	-11381
控制和	-11382
推动的	-11383
描述了	-11384
政府都	-11385
新总统	-11386
方案的	-11387
无条件	-11388
是人类	-11389
是政治	-11390
暴露了	-11391
有多么	-11392
本身的	-11393
来决定	-11394
正在为	-11395
治疗的	-11396
波动性	-11397
消费量	-11398
爆发后	-11399
理想的	-11400
留下了	-11401
的一场	-11402
的农业	-11403
的政客	-11404
的服务	-11405
的相对	-11406
的话题	-11407
的运动	-11408
相应的	-11409
约旦河	-11410
结构的	-11411
给自己	-11412
维持了	-11413
而易举	-11414
能实现	-11415
腐败和	-11416
茨瓦纳	-11417
薄熙来	-11418
被用来	-11419
被要求	-11420
要实现	-11421
解决的	-11422
试图将	-11423
该条约	-11424
迈出了	-11425
这两大	-11426
这只是	-11427
黄热病	-11428
1962	-11429
1967	-11430
ound	-11431
rans	-11432
▁今年的	-11433
▁但许多	-11434
▁但这个	-11435
▁同样地	-11436
▁对美国	-11437
▁很多人	-11438
▁最新的	-11439
不可逆转	-11440
与其说是	-11441
也意味着	-11442
也适用于	-11443
亿万富翁	-11444
仍然没有	-11445
仍然需要	-11446
公平竞争	-11447
共同货币	-11448
关键问题	-11449
利益集团	-11450
南斯拉夫	-11451
取而代之	-11452
可以实现	-11453
和投资者	-11454
和联合国	-11455
商业领袖	-11456
困难重重	-11457
在这样的	-11458
太阳能和	-11459
孤立主义	-11460
将不得不	-11461
将人民币	-11462
少之又少	-11463
已经不再	-11464
并不令人	-11465
形成一致	-11466
总统任期	-11467
恐怖组织	-11468
意义上的	-11469
成为可能	-11470
投资项目	-11471
接下来的	-11472
提供支持	-11473
提供更多	-11474
数以百万	-11475
整个世界	-11476
方向发展	-11477
无法通过	-11478
是巨大的	-11479
暴力冲突	-11480
来自中国	-11481
的世界里	-11482
的纳维亚	-11483
直到最近	-11484
社会民主	-11485
纳米技术	-11486
解决这些	-11487
财政调整	-11488
轻而易举	-11489
这些公司	-11490
这种方式	-11491
这种方法	-11492
远远没有	-11493
采取更加	-11494
重新定义	-11495
重新评估	-11496
金融监管	-11497
领导下的	-11498
,2010	-11499
ealth	-11500
▁但是如果	-11501
▁显而易见	-11502
▁有鉴于此	-11503
世界各国的	-11504
中央银行家	-11505
叙利亚内战	-11506
和地方政府	-11507
所做的那样	-11508
收入和财富	-11509
教科文组织	-11510
某种形式的	-11511
某种意义上	-11512
根本不可能	-11513
欧盟和美国	-11514
穆斯林世界	-11515
联邦调查局	-11516
▁这并不是说	-11517
可预见的未来	-11518
官方发展援助	-11519
很长的路要走	-11520
Twitter	-11521
▁Global	-11522
▁从这个角度讲	-11523
▁在这样的情况下	-11524
-7	-11525
62	-11526
BI	-11527
EM	-11528
gl	-11529
ug	-11530
▁亲	-11531
▁十	-11532
一党	-11533
一句	-11534
一看	-11535
上面	-11536
不均	-11537
不幸	-11538
不成	-11539
严酷	-11540
个中	-11541
中去	-11542
之力	-11543
乎其	-11544
也都	-11545
二次	-11546
仿效	-11547
但不	-11548
低位	-11549
信托	-11550
倒是	-11551
公认	-11552
关切	-11553
兼并	-11554
出不	-11555
列入	-11556
前列	-11557
前夕	-11558
力求	-11559
加倍	-11560
加斯	-11561
加紧	-11562
卓著	-11563
单个	-11564
原有	-11565
又有	-11566
反射	-11567
取向	-11568
另有	-11569
叫停	-11570
场景	-11571
坏事	-11572
复仇	-11573
外流	-11574
大获	-11575
套利	-11576
子的	-11577
安慰	-11578
对应	-11579
对我	-11580
将此	-11581
小农	-11582
小额	-11583
并向	-11584
强权	-11585
想让	-11586
战火	-11587
才华	-11588
抑或	-11589
拥护	-11590
挽回	-11591
推断	-11592
摄氏	-11593
无遗	-11594
日报	-11595
景气	-11596
更别	-11597
更长	-11598
栖息	-11599
格利	-11600
殴打	-11601
民用	-11602
水坝	-11603
泄漏	-11604
法拉	-11605
流亡	-11606
演员	-11607
火车	-11608
热门	-11609
牢记	-11610
特雷	-11611
男女	-11612
疏远	-11613
登记	-11614
的要	-11615
皇家	-11616
真心	-11617
碳氢	-11618
私下	-11619
科夫	-11620
科斯	-11621
税基	-11622
立足	-11623
纳维	-11624
细分	-11625
终止	-11626
罗毕	-11627
美孚	-11628
肥料	-11629
自相	-11630
荣誉	-11631
菲利	-11632
薪水	-11633
虚弱	-11634
街道	-11635
见解	-11636
论断	-11637
评判	-11638
试点	-11639
起源	-11640
运河	-11641
迟迟	-11642
通知	-11643
那场	-11644
那就	-11645
采伐	-11646
马丁	-11647
高官	-11648
160	-11649
35%	-11650
ECB	-11651
avi	-11652
hip	-11653
olf	-11654
our	-11655
ven	-11656
▁上周	-11657
▁在其	-11658
▁女性	-11659
▁她们	-11660
▁就算	-11661
▁旨在	-11662
▁波兰	-11663
▁这份	-11664
▁部分	-11665
一个更	-11666
一次性	-11667
上升的	-11668
上半年	-11669
不可靠	-11670
不对称	-11671
与会者	-11672
为实现	-11673
也不再	-11674
产量的	-11675
代人的	-11676
以支持	-11677
但如今	-11678
但是在	-11679
作为其	-11680
促进了	-11681
保持了	-11682
储蓄者	-11683
制度和	-11684
加入到	-11685
十年内	-11686
占中国	-11687
卡尔德	-11688
历史性	-11689
只是在	-11690
可以是	-11691
可卡因	-11692
合法的	-11693
和埃及	-11694
和福利	-11695
和非洲	-11696
国家间	-11697
国防部	-11698
在一些	-11699
在今天	-11700
增长到	-11701
实行的	-11702
实际的	-11703
家可归	-11704
就是要	-11705
巴拿马	-11706
巴格达	-11707
年之后	-11708
年以后	-11709
年危机	-11710
并开始	-11711
并试图	-11712
怎么办	-11713
恢复了	-11714
悬而未	-11715
想要的	-11716
手段来	-11717
承担起	-11718
投入到	-11719
持有者	-11720
支持下	-11721
无异于	-11722
无法再	-11723
明智地	-11724
是基于	-11725
有更多	-11726
杀虫剂	-11727
杠杆率	-11728
来管理	-11729
框架下	-11730
沉迷于	-11731
法律和	-11732
激烈的	-11733
独特的	-11734
的上升	-11735
的农民	-11736
的命运	-11737
的复苏	-11738
的大国	-11739
的就业	-11740
的意见	-11741
的排放	-11742
的攻击	-11743
的日子	-11744
的治疗	-11745
的爆发	-11746
的网络	-11747
的身份	-11748
研究中	-11749
破坏力	-11750
竞选中	-11751
结论是	-11752
美国与	-11753
美好的	-11754
而不必	-11755
而是在	-11756
聚焦于	-11757
至今日	-11758
茨海默	-11759
该如何	-11760
贷款的	-11761
运行的	-11762
都同意	-11763
都拥有	-11764
释放出	-11765
附加值	-11766
需要对	-11767
驱动力	-11768
100%	-11769
Mart	-11770
▁一些人	-11771
▁也许是	-11772
▁凯恩斯	-11773
▁唐纳德	-11774
▁埃博拉	-11775
▁失业率	-11776
▁第三个	-11777
一个重要	-11778
一个问题	-11779
一种新的	-11780
万亿欧元	-11781
万美元的	-11782
不稳定的	-11783
不难理解	-11784
与日俱增	-11785
专业知识	-11786
中国可以	-11787
也出现了	-11788
人类活动	-11789
债务融资	-11790
公司治理	-11791
其中之一	-11792
几个世纪	-11793
几乎完全	-11794
刚刚开始	-11795
制度改革	-11796
制药公司	-11797
医疗卫生	-11798
十分重要	-11799
即将到来	-11800
及其盟友	-11801
在欧元区	-11802
增长战略	-11803
增长潜力	-11804
外交手段	-11805
多元化的	-11806
大不相同	-11807
工资增长	-11808
已不再是	-11809
必须成为	-11810
悬而未决	-11811
意大利的	-11812
接近于零	-11813
支持这一	-11814
数字货币	-11815
斯洛伐克	-11816
方面发挥	-11817
最佳实践	-11818
权宜之计	-11819
欧洲需要	-11820
正在迅速	-11821
民间团体	-11822
没完没了	-11823
游戏规则	-11824
生机勃勃	-11825
的前提下	-11826
社会动荡	-11827
福利国家	-11828
科学家和	-11829
移动电话	-11830
空气质量	-11831
精英阶层	-11832
紧张关系	-11833
经济体系	-11834
经验表明	-11835
财政规则	-11836
贸易盈余	-11837
这些数字	-11838
透明度和	-11839
重中之重	-11840
重大挑战	-11841
银行体系	-11842
4,000	-11843
James	-11844
▁1997	-11845
▁举例来讲	-11846
▁在我看来	-11847
▁尤其是在	-11848
▁直到最近	-11849
▁随着中国	-11850
严重的问题	-11851
人民币贬值	-11852
叙利亚总统	-11853
在发达国家	-11854
埃克森美孚	-11855
大部分国家	-11856
巴勒斯坦国	-11857
是不可能的	-11858
机构投资者	-11859
欧元区危机	-11860
深远的影响	-11861
的人道主义	-11862
的必要条件	-11863
长期存在的	-11864
阿尔茨海默	-11865
亚洲金融危机	-11866
值得注意的是	-11867
是不可持续的	-11868
▁Climate	-11869
,5	-11870
43	-11871
IT	-11872
ST	-11873
ai	-11874
ez	-11875
▁s	-11876
▁下	-11877
一本	-11878
一股	-11879
上诉	-11880
下定	-11881
不入	-11882
不决	-11883
不懈	-11884
不明	-11885
了两	-11886
了他	-11887
争相	-11888
亚尔	-11889
亚当	-11890
仰仗	-11891
伎俩	-11892
会令	-11893
会员	-11894
伦斯	-11895
伯利	-11896
侮辱	-11897
假说	-11898
全方	-11899
公告	-11900
公顷	-11901
其与	-11902
内陆	-11903
军人	-11904
减记	-11905
博客	-11906
印钞	-11907
却被	-11908
受灾	-11909
变异	-11910
史蒂	-11911
名声	-11912
吞噬	-11913
启示	-11914
咖啡	-11915
因其	-11916
国籍	-11917
地与	-11918
地亚	-11919
坏账	-11920
坦桑	-11921
壳牌	-11922
复燃	-11923
多了	-11924
大亨	-11925
大小	-11926
天后	-11927
天皇	-11928
失调	-11929
嫌疑	-11930
它还	-11931
巴乔	-11932
带动	-11933
库存	-11934
废墟	-11935
废物	-11936
思议	-11937
愈加	-11938
感情	-11939
抑郁	-11940
担当	-11941
拉拉	-11942
拘留	-11943
拿破	-11944
损伤	-11945
提倡	-11946
救世	-11947
无非	-11948
既定	-11949
时常	-11950
昔日	-11951
曙光	-11952
朔伊	-11953
术语	-11954
松散	-11955
板球	-11956
极化	-11957
构想	-11958
构筑	-11959
样本	-11960
样板	-11961
此时	-11962
水准	-11963
水域	-11964
浓度	-11965
淹没	-11966
漂亮	-11967
演习	-11968
濒临	-11969
火灾	-11970
灵感	-11971
熟练	-11972
牲畜	-11973
现已	-11974
生长	-11975
的阿	-11976
禁运	-11977
福岛	-11978
空军	-11979
素质	-11980
红线	-11981
纳恰	-11982
缺点	-11983
美分	-11984
而当	-11985
联网	-11986
能将	-11987
脚步	-11988
英法	-11989
落在	-11990
补救	-11991
被杀	-11992
要将	-11993
见到	-11994
规格	-11995
警钟	-11996
调停	-11997
调动	-11998
谋求	-11999
财长	-12000
贯彻	-12001
走到	-12002
较弱	-12003
这段	-12004
都比	-12005
酒店	-12006
重负	-12007
阳性	-12008
面包	-12009
顺序	-12010
7.5	-12011
ARP	-12012
CCS	-12013
ham	-12014
icy	-12015
ive	-12016
lam	-12017
mad	-12018
res	-12019
▁Di	-12020
▁de	-12021
▁一份	-12022
▁东亚	-12023
▁二战	-12024
▁人口	-12025
▁但其	-12026
▁但该	-12027
▁后来	-12028
▁官方	-12029
▁牛津	-12030
▁而非	-12031
一年的	-12032
与政治	-12033
与社会	-12034
两年的	-12035
个基点	-12036
中的一	-12037
乎其微	-12038
也知道	-12039
人心的	-12040
代议制	-12041
以前的	-12042
以美国	-12043
以适应	-12044
但至少	-12045
假消息	-12046
先发制	-12047
全方位	-12048
其政治	-12049
内罗毕	-12050
农作物	-12051
参与率	-12052
参加了	-12053
发表的	-12054
各地的	-12055
听上去	-12056
和个人	-12057
和出口	-12058
和巴西	-12059
和控制	-12060
和波兰	-12061
国大党	-12062
圣诞节	-12063
地指出	-12064
大约有	-12065
好莱坞	-12066
安全感	-12067
官员的	-12068
宣布的	-12069
对人类	-12070
对它们	-12071
小规模	-12072
就不能	-12073
就变得	-12074
尽一切	-12075
工具和	-12076
常常会	-12077
年后的	-12078
很显然	-12079
必须要	-12080
思想家	-12081
恰当的	-12082
成立于	-12083
所导致	-12084
承认了	-12085
报告的	-12086
拿破仑	-12087
改变其	-12088
数十亿	-12089
是否是	-12090
是欧盟	-12091
是没有	-12092
显示了	-12093
更长的	-12094
有问题	-12095
来取代	-12096
查尔斯	-12097
格利茨	-12098
注定要	-12099
泽纳维	-12100
物理学	-12101
甚至比	-12102
电动车	-12103
略高于	-12104
疾病和	-12105
的一面	-12106
的不断	-12107
的举动	-12108
的全部	-12109
的外部	-12110
的对比	-12111
的年度	-12112
的开始	-12113
的成员	-12114
的早期	-12115
的普及	-12116
的来说	-12117
的直接	-12118
的竞选	-12119
的繁荣	-12120
的范围	-12121
的衰退	-12122
的那些	-12123
第二轮	-12124
管齐下	-12125
精神病	-12126
结构和	-12127
而如果	-12128
而这种	-12129
自民党	-12130
要求在	-12131
规划署	-12132
解释是	-12133
软着陆	-12134
较大的	-12135
运动员	-12136
还为时	-12137
还远未	-12138
这不仅	-12139
进口国	-12140
都可能	-12141
风险是	-12142
首先是	-12143
驱逐出	-12144
鲁纳恰	-12145
FARC	-12146
Jean	-12147
ight	-12148
omas	-12149
roup	-12150
▁Act	-12151
▁他们在	-12152
▁但上述	-12153
▁但因为	-12154
▁加拿大	-12155
▁在一些	-12156
▁在整个	-12157
▁当前的	-12158
▁当我们	-12159
▁我相信	-12160
▁而对于	-12161
一致同意	-12162
下降趋势	-12163
不是为了	-12164
主权国家	-12165
今年夏天	-12166
从长期看	-12167
价值观和	-12168
价值观的	-12169
使用武力	-12170
克里斯蒂	-12171
公司税率	-12172
共同市场	-12173
其他任何	-12174
再次发生	-12175
单边主义	-12176
卫生设施	-12177
历史上看	-12178
反过来又	-12179
受到影响	-12180
向全世界	-12181
和墨西哥	-12182
和太阳能	-12183
国内储蓄	-12184
国内需求	-12185
坦桑尼亚	-12186
增长率为	-12187
外交关系	-12188
大幅削减	-12189
始作俑者	-12190
实际情况	-12191
尼古拉斯	-12192
左翼联盟	-12193
得出结论	-12194
微乎其微	-12195
必要条件	-12196
怀疑态度	-12197
我们应当	-12198
提供援助	-12199
支出削减	-12200
教育体系	-12201
新闻报道	-12202
无家可归	-12203
最主要的	-12204
朔伊布勒	-12205
未来十年	-12206
构成威胁	-12207
欧洲政治	-12208
欧盟应该	-12209
正在快速	-12210
每一美元	-12211
治理体系	-12212
的人民币	-12213
的伊斯兰	-12214
的全球性	-12215
的受访者	-12216
的欧洲人	-12217
监管措施	-12218
相互依存	-12219
研究成果	-12220
碳排放量	-12221
管理人员	-12222
继续保持	-12223
而是因为	-12224
能源安全	-12225
获得成功	-12226
裔美国人	-12227
解决之道	-12228
财政悬崖	-12229
资产购买	-12230
跨国企业	-12231
转移到了	-12232
这一进程	-12233
重新获得	-12234
银行家们	-12235
食品价格	-12236
ocial	-12237
▁Summ	-12238
▁其中包括	-12239
▁哥本哈根	-12240
▁在过去的	-12241
▁英国退欧	-12242
▁这种情况	-12243
不平等现象	-12244
世界各地的	-12245
主要原因是	-12246
他们自己的	-12247
伊斯坦布尔	-12248
会发生什么	-12249
充分的理由	-12250
各国领导人	-12251
和其他地区	-12252
哈佛大学的	-12253
喜马拉雅山	-12254
安倍经济学	-12255
捷克共和国	-12256
斯蒂格利茨	-12257
日益严重的	-12258
灾难性后果	-12259
的国家之一	-12260
盖茨基金会	-12261
社会民主党	-12262
经济增长和	-12263
经济学家的	-12264
美国财政部	-12265
自己的国家	-12266
购买力平价	-12267
远远超过了	-12268
预算办公室	-12269
▁欧洲领导人	-12270
▁英格兰银行	-12271
全民医疗覆盖	-12272
全球金融市场	-12273
吞并克里米亚	-12274
的资产负债表	-12275
量化宽松政策	-12276
▁可以肯定的是	-12277
二氧化碳排放量	-12278
许多发展中国家	-12279
▁Partners	-12280
跨大西洋贸易和投资伙伴关系	-12281
CB	-12282
ED	-12283
Ed	-12284
Ph	-12285
ok	-12286
▁却	-12287
▁后	-12288
▁因	-12289
▁科	-12290
▁还	-12291
三次	-12292
不好	-12293
不胜	-12294
丧命	-12295
中非	-12296
为一	-12297
之于	-12298
之战	-12299
之行	-12300
乌兹	-12301
产值	-12302
从于	-12303
优越	-12304
伪装	-12305
供水	-12306
假装	-12307
僵化	-12308
先行	-12309
克格	-12310
公职	-12311
六个	-12312
共有	-12313
内心	-12314
出国	-12315
切莱	-12316
创伤	-12317
力更	-12318
卓识	-12319
卡尼	-12320
印刷	-12321
厄运	-12322
原来	-12323
参拜	-12324
友谊	-12325
可笑	-12326
向其	-12327
周刊	-12328
喇嘛	-12329
回了	-12330
回收	-12331
囤积	-12332
国和	-12333
在我	-12334
地为	-12335
地域	-12336
塞族	-12337
大声	-12338
大楼	-12339
头巾	-12340
奴役	-12341
妓女	-12342
存储	-12343
它能	-12344
家中	-12345
工薪	-12346
已成	-12347
带头	-12348
并由	-12349
度和	-12350
度过	-12351
强行	-12352
忘了	-12353
性价	-12354
悄悄	-12355
所要	-12356
拥挤	-12357
据称	-12358
收费	-12359
效力	-12360
斯克	-12361
新高	-12362
无休	-12363
无常	-12364
时日	-12365
易斯	-12366
更早	-12367
曼纽	-12368
杜绝	-12369
核弹	-12370
次要	-12371
毁掉	-12372
水库	-12373
泄露	-12374
流量	-12375
消亡	-12376
消退	-12377
版图	-12378
现场	-12379
球队	-12380
由来	-12381
电气	-12382
男孩	-12383
知情	-12384
等级	-12385
精明	-12386
纳摩	-12387
绩效	-12388
罹患	-12389
老人	-12390
聆听	-12391
胜过	-12392
航天	-12393
落到	-12394
血红	-12395
裕仁	-12396
转为	-12397
辩解	-12398
迁往	-12399
过上	-12400
这在	-12401
这家	-12402
连串	-12403
退化	-12404
送到	-12405
邦的	-12406
邮报	-12407
部的	-12408
错失	-12409
阿什	-12410
降级	-12411
随意	-12412
集合	-12413
震荡	-12414
领海	-12415
首个	-12416
马杜	-12417
高中	-12418
高额	-12419
鬼城	-12420
95%	-12421
And	-12422
HIV	-12423
Ste	-12424
ark	-12425
ast	-12426
ild	-12427
ith	-12428
lin	-12429
ond	-12430
rag	-12431
rug	-12432
—20	-12433
▁En	-12434
▁不要	-12435
▁与其	-12436
▁希望	-12437
▁总之	-12438
▁想想	-12439
▁扩大	-12440
▁整个	-12441
▁监管	-12442
▁约翰	-12443
▁这笔	-12444
▁这让	-12445
不超过	-12446
与我们	-12447
两年中	-12448
中只有	-12449
乌兹别	-12450
也确实	-12451
也认为	-12452
习惯于	-12453
了一位	-12454
事件中	-12455
代表团	-12456
似乎也	-12457
低水平	-12458
作出了	-12459
你可以	-12460
克格勃	-12461
公布的	-12462
出不穷	-12463
利用了	-12464
前主席	-12465
南苏丹	-12466
占据着	-12467
印度人	-12468
原来的	-12469
发出了	-12470
另一些	-12471
只能是	-12472
可用于	-12473
和中东	-12474
和行动	-12475
和越南	-12476
哪怕是	-12477
商品的	-12478
在国家	-12479
在埃及	-12480
地区性	-12481
基督徒	-12482
大体上	-12483
奥斯曼	-12484
它们是	-12485
它应该	-12486
它能够	-12487
对世界	-12488
对金融	-12489
将因此	-12490
将很快	-12491
工程和	-12492
已经为	-12493
巴乔夫	-12494
市场对	-12495
年代和	-12496
年达到	-12497
彰显出	-12498
必需的	-12499
必须的	-12500
总人口	-12501
我们能	-12502
所提出	-12503
承包商	-12504
抗氧化	-12505
提供给	-12506
摧毁了	-12507
政府所	-12508
效率和	-12509
数据和	-12510
明年的	-12511
是一件	-12512
暂时的	-12513
曼纽尔	-12514
最糟糕	-12515
最紧迫	-12516
月中旬	-12517
权利和	-12518
来完成	-12519
极高的	-12520
毁灭性	-12521
消费品	-12522
特征是	-12523
现在就	-12524
生命的	-12525
的伤害	-12526
的债券	-12527
的全面	-12528
的利润	-12529
的对策	-12530
的政权	-12531
的最终	-12532
的比率	-12533
的消息	-12534
的理想	-12535
的痛苦	-12536
的短期	-12537
的访问	-12538
的诱惑	-12539
的辩论	-12540
矛盾的	-12541
确保了	-12542
确实是	-12543
究竟是	-12544
篇文章	-12545
精英们	-12546
继续在	-12547
综合性	-12548
罗纳德	-12549
翻一番	-12550
而我们	-12551
而无法	-12552
能提供	-12553
艺术品	-12554
艺术家	-12555
解决了	-12556
计划在	-12557
认为是	-12558
设计和	-12559
该政策	-12560
谈判桌	-12561
责任的	-12562
足以让	-12563
这一步	-12564
这对于	-12565
这部分	-12566
道德的	-12567
部长们	-12568
集中的	-12569
领导下	-12570
高级别	-12571
1.5°	-12572
1929	-12573
IPCC	-12574
able	-12575
anke	-12576
ecur	-12577
ower	-12578
▁Ind	-12579
▁不久前	-12580
▁他们还	-12581
▁他认为	-12582
▁但目前	-12583
▁但这是	-12584
▁委员会	-12585
▁我希望	-12586
▁或者说	-12587
▁民主党	-12588
▁理论上	-12589
▁该报告	-12590
▁这可能	-12591
▁那就是	-12592
一个事实	-12593
一直处于	-12594
不必要的	-12595
不断加剧	-12596
不断变化	-12597
中国人民	-12598
中国国内	-12599
中的一个	-12600
之一就是	-12601
人口比例	-12602
以及一个	-12603
俄罗斯在	-12604
保持稳定	-12605
偿还债务	-12606
克罗地亚	-12607
公共利益	-12608
共和国的	-12609
关塔纳摩	-12610
关键领域	-12611
军事冲突	-12612
农业政策	-12613
创造新的	-12614
制定一个	-12615
北欧国家	-12616
可能发生	-12617
和平谈判	-12618
和菲律宾	-12619
团结起来	-12620
国际发展	-12621
在该地区	-12622
塞内加尔	-12623
大幅贬值	-12624
层出不穷	-12625
已经存在	-12626
已经导致	-12627
库尔德人	-12628
应该如何	-12629
心理学家	-12630
必须找到	-12631
恐怖活动	-12632
感到失望	-12633
成为美国	-12634
或许可以	-12635
才能确保	-12636
把注意力	-12637
收支平衡	-12638
政府正在	-12639
政治权力	-12640
新的全球	-12641
昂山素季	-12642
最后一个	-12643
有更多的	-12644
柔性力量	-12645
标准普尔	-12646
欧洲安全	-12647
民主联盟	-12648
潜在增长	-12649
特别是对	-12650
独立性的	-12651
环境破坏	-12652
理由认为	-12653
电子商务	-12654
的一体化	-12655
的不信任	-12656
的国家的	-12657
相似之处	-12658
相对较小	-12659
真实利率	-12660
离开欧盟	-12661
税收改革	-12662
经济上的	-12663
经济停滞	-12664
美国已经	-12665
美国银行	-12666
能够带来	-12667
能源供应	-12668
菲尔普斯	-12669
融资平台	-12670
解释为何	-12671
认真考虑	-12672
让人感到	-12673
财政契约	-12674
财政收入	-12675
货币交易	-12676
货币升值	-12677
贫穷国家	-12678
这一状况	-12679
这并不是	-12680
这项任务	-12681
远见卓识	-12682
远远低于	-12683
重新开始	-12684
重要角色	-12685
长期债券	-12686
长期投资	-12687
领先地位	-12688
风险管理	-12689
,2011	-12690
,2012	-12691
,2017	-12692
arles	-12693
▁Bern	-12694
▁Cent	-12695
▁在此期间	-12696
▁这个问题	-12697
世界银行的	-12698
严峻的挑战	-12699
中东和北非	-12700
中国的崛起	-12701
出人意料地	-12702
原教旨主义	-12703
取得了成功	-12704
可持续性的	-12705
国有企业的	-12706
国民收入的	-12707
已经过去了	-12708
戈尔巴乔夫	-12709
成百上千万	-12710
最大经济体	-12711
的最佳方式	-12712
相关利益方	-12713
经济发展的	-12714
Martin	-12715
人道主义援助	-12716
前工业化水平	-12717
发达经济体的	-12718
太阳能电池板	-12719
抗菌素耐药性	-12720
民族主义情绪	-12721
的经济和社会	-12722
经常账户盈余	-12723
解决这个问题	-12724
阿尔茨海默症	-12725
▁同样重要的是	-12726
达沃斯世界经济论坛	-12727
哥伦比亚革命武装力量	-12728
1—	-12729
BA	-12730
GP	-12731
Me	-12732
ji	-12733
▁五	-12734
▁会	-12735
▁安	-12736
▁达	-12737
上风	-12738
不抵	-12739
为负	-12740
主人	-12741
之和	-12742
之源	-12743
之苦	-12744
乱象	-12745
些许	-12746
人体	-12747
会为	-12748
会以	-12749
佛教	-12750
像是	-12751
光耀	-12752
兜售	-12753
全都	-12754
公海	-12755
共鸣	-12756
列强	-12757
则为	-12758
卡车	-12759
参照	-12760
合乎	-12761
四处	-12762
国库	-12763
土库	-12764
堆积	-12765
堡垒	-12766
外科	-12767
多位	-12768
大事	-12769
大厦	-12770
大权	-12771
太高	-12772
夫妇	-12773
季节	-12774
孤独	-12775
实例	-12776
宪政	-12777
对他	-12778
对新	-12779
对称	-12780
就不	-12781
山大	-12782
带到	-12783
延缓	-12784
异议	-12785
忌惮	-12786
快乐	-12787
打下	-12788
打着	-12789
把钱	-12790
抗拒	-12791
抹杀	-12792
招聘	-12793
捕捉	-12794
推销	-12795
撒钱	-12796
收买	-12797
收容	-12798
斯密	-12799
斯顿	-12800
新疆	-12801
日期	-12802
旧金	-12803
早教	-12804
曾是	-12805
曾被	-12806
杉矶	-12807
条例	-12808
查理	-12809
案的	-12810
款项	-12811
步履	-12812
法制	-12813
洪森	-12814
流氓	-12815
流的	-12816
海牙	-12817
温床	-12818
点的	-12819
热点	-12820
照护	-12821
物馆	-12822
犯了	-12823
猖獗	-12824
瓦拉	-12825
病菌	-12826
的书	-12827
的净	-12828
的地	-12829
皮诺	-12830
盈率	-12831
盲目	-12832
直言	-12833
相形	-12834
相悖	-12835
矛头	-12836
离心	-12837
税务	-12838
童工	-12839
笼罩	-12840
筹码	-12841
纵容	-12842
绝佳	-12843
缔约	-12844
罗格	-12845
置信	-12846
美金	-12847
胜于	-12848
自私	-12849
自称	-12850
船只	-12851
芯片	-12852
苛刻	-12853
英尺	-12854
萨诸	-12855
表决	-12856
表演	-12857
袖手	-12858
警觉	-12859
认证	-12860
话语	-12861
贝鲁	-12862
辨别	-12863
递交	-12864
重返	-12865
铁幕	-12866
▁	-12867
的	-12868
,	-12869
。	-12870
国	-12871
在	-12872
是	-12873
一	-12874
和	-12875
不	-12876
这	-12877
有	-12878
—	-12879
人	-12880
中	-12881
了	-12882
为	-12883
0	-12884
大	-12885
政	-12886
能	-12887
经	-12888
们	-12889
以	-12890
年	-12891
会	-12892
对	-12893
可	-12894
要	-12895
来	-12896
而	-12897
美	-12898
家	-12899
个	-12900
欧	-12901
行	-12902
但	-12903
、	-12904
其	-12905
他	-12906
于	-12907
上	-12908
成	-12909
到	-12910
也	-12911
地	-12912
发	-12913
如	-12914
出	-12915
济	-12916
1	-12917
力	-12918
2	-12919
将	-12920
实	-12921
多	-12922
所	-12923
时	-12924
资	-12925
现	-12926
主	-12927
洲	-12928
民	-12929
全	-12930
法	-12931
)	-12932
(	-12933
方	-12934
利	-12935
生	-12936
更	-12937
些	-12938
最	-12939
自	-12940
过	-12941
我	-12942
因	-12943
动	-12944
长	-12945
性	-12946
就	-12947
此	-12948
者	-12949
重	-12950
之	-12951
化	-12952
本	-12953
新	-12954
得	-12955
业	-12956
“	-12957
并	-12958
制	-12959
机	-12960
”	-12961
定	-12962
加	-12963
用	-12964
同	-12965
增	-12966
与	-12967
进	-12968
前	-12969
斯	-12970
作	-12971
世	-12972
度	-12973
产	-12974
当	-12975
分	-12976
应	-12977
持	-12978
下	-12979
正	-12980
体	-12981
事	-12982
公	-12983
都	-12984
然	-12985
金	-12986
后	-12987
面	-12988
关	-12989
果	-12990
e	-12991
理	-12992
问	-12993
高	-12994
它	-12995
a	-12996
策	-12997
治	-12998
外	-12999
比	-13000
无	-13001
部	-13002
样	-13003
府	-13004
及	-13005
相	-13006
入	-13007
场	-13008
界	-13009
已	-13010
导	-13011
题	-13012
盟	-13013
平	-13014
提	-13015
从	-13016
意	-13017
期	-13018
合	-13019
需	-13020
战	-13021
目	-13022
变	-13023
决	-13024
市	-13025
基	-13026
非	-13027
还	-13028
管	-13029
球	-13030
着	-13031
数	-13032
通	-13033
特	-13034
种	-13035
开	-13036
区	-13037
n	-13038
学	-13039
那	-13040
该	-13041
保	-13042
亚	-13043
权	-13044
率	-13045
由	-13046
联	-13047
统	-13048
i	-13049
领	-13050
务	-13051
工	-13052
说	-13053
投	-13054
9	-13055
义	-13056
%	-13057
元	-13058
被	-13059
反	-13060
尔	-13061
明	-13062
没	-13063
间	-13064
受	-13065
支	-13066
o	-13067
代	-13068
量	-13069
选	-13070
任	-13071
r	-13072
内	-13073
总	-13074
系	-13075
5	-13076
解	-13077
必	-13078
员	-13079
结	-13080
或	-13081
使	-13082
融	-13083
展	-13084
改	-13085
议	-13086
克	-13087
价	-13088
认	-13089
许	-13090
际	-13091
让	-13092
拉	-13093
收	-13094
共	-13095
信	-13096
去	-13097
日	-13098
计	-13099
立	-13100
德	-13101
取	-13102
起	-13103
强	-13104
巴	-13105
表	-13106
只	-13107
危	-13108
西	-13109
t	-13110
心	-13111
银	-13112
向	-13113
确	-13114
债	-13115
达	-13116
低	-13117
英	-13118
3	-13119
:	-13120
么	-13121
论	-13122
易	-13123
情	-13124
很	-13125
施	-13126
点	-13127
求	-13128
·	-13129
常	-13130
未	-13131
今	-13132
造	-13133
近	-13134
争	-13135
好	-13136
失	-13137
少	-13138
社	-13139
约	-13140
建	-13141
源	-13142
致	-13143
等	-13144
何	-13145
程	-13146
至	-13147
口	-13148
币	-13149
须	-13150
标	-13151
难	-13152
预	-13153
构	-13154
规	-13155
益	-13156
式	-13157
里	-13158
续	-13159
安	-13160
次	-13161
助	-13162
十	-13163
组	-13164
l	-13165
则	-13166
两	-13167
道	-13168
8	-13169
位	-13170
格	-13171
影	-13172
险	-13173
货	-13174
消	-13175
气	-13176
供	-13177
响	-13178
4	-13179
革	-13180
教	-13181
各	-13182
效	-13183
放	-13184
接	-13185
尽	-13186
候	-13187
况	-13188
s	-13189
7	-13190
够	-13191
且	-13192
几	-13193
P	-13194
想	-13195
做	-13196
月	-13197
模	-13198
据	-13199
包	-13200
值	-13201
极	-13202
马	-13203
设	-13204
看	-13205
越	-13206
罗	-13207
普	-13208
兰	-13209
党	-13210
仅	-13211
活	-13212
;	-13213
财	-13214
6	-13215
观	-13216
步	-13217
即	-13218
转	-13219
划	-13220
项	-13221
布	-13222
类	-13223
降	-13224
子	-13225
天	-13226
别	-13227
水	-13228
.	-13229
直	-13230
减	-13231
企	-13232
势	-13233
伊	-13234
创	-13235
带	-13236
阿	-13237
交	-13238
仍	-13239
技	-13240
引	-13241
显	-13242
风	-13243
根	-13244
再	-13245
朗	-13246
身	-13247
给	-13248
协	-13249
流	-13250
推	-13251
存	-13252
?	-13253
指	-13254
调	-13255
D	-13256
第	-13257
东	-13258
军	-13259
承	-13260
G	-13261
获	-13262
品	-13263
始	-13264
司	-13265
条	-13266
处	-13267
原	-13268
什	-13269
境	-13270
似	-13271
真	-13272
费	-13273
小	-13274
担	-13275
乎	-13276
亿	-13277
远	-13278
商	-13279
税	-13280
略	-13281
术	-13282
速	-13283
物	-13284
贸	-13285
严	-13286
复	-13287
具	-13288
科	-13289
三	-13290
证	-13291
希	-13292
括	-13293
止	-13294
尼	-13295
采	-13296
举	-13297
随	-13298
望	-13299
手	-13300
俄	-13301
升	-13302
众	-13303
识	-13304
储	-13305
足	-13306
服	-13307
案	-13308
织	-13309
却	-13310
c	-13311
核	-13312
维	-13313
言	-13314
己	-13315
首	-13316
万	-13317
回	-13318
整	-13319
名	-13320
令	-13321
报	-13322
富	-13323
视	-13324
央	-13325
件	-13326
否	-13327
形	-13328
例	-13329
注	-13330
运	-13331
准	-13332
命	-13333
二	-13334
威	-13335
局	-13336
u	-13337
印	-13338
知	-13339
限	-13340
激	-13341
完	-13342
研	-13343
移	-13344
病	-13345
断	-13346
退	-13347
纪	-13348
击	-13349
历	-13350
C	-13351
除	-13352
海	-13353
字	-13354
款	-13355
集	-13356
m	-13357
环	-13358
色	-13359
护	-13360
依	-13361
d	-13362
门	-13363
临	-13364
究	-13365
算	-13366
巨	-13367
传	-13368
超	-13369
先	-13370
责	-13371
每	-13372
破	-13373
稳	-13374
困	-13375
终	-13376
础	-13377
话	-13378
功	-13379
监	-13380
电	-13381
型	-13382
负	-13383
官	-13384
h	-13385
派	-13386
文	-13387
路	-13388
土	-13389
才	-13390
边	-13391
-	-13392
南	-13393
列	-13394
甚	-13395
绝	-13396
感	-13397
态	-13398
某	-13399
M	-13400
紧	-13401
A	-13402
素	-13403
往	-13404
把	-13405
缺	-13406
冲	-13407
备	-13408
告	-13409
育	-13410
突	-13411
息	-13412
控	-13413
措	-13414
见	-13415
挑	-13416
S	-13417
I	-13418
免	-13419
继	-13420
奥	-13421
像	-13422
压	-13423
考	-13424
级	-13425
竞	-13426
林	-13427
诺	-13428
太	-13429
贷	-13430
示	-13431
深	-13432
容	-13433
快	-13434
象	-13435
扩	-13436
单	-13437
史	-13438
参	-13439
愿	-13440
域	-13441
纳	-13442
医	-13443
判	-13444
切	-13445
质	-13446
劳	-13447
衡	-13448
排	-13449
弱	-13450
女	-13451
状	-13452
委	-13453
疗	-13454
兴	-13455
农	-13456
占	-13457
味	-13458
独	-13459
又	-13460
离	-13461
试	-13462
打	-13463
谈	-13464
评	-13465
F	-13466
称	-13467
北	-13468
善	-13469
败	-13470
另	-13471
防	-13472
择	-13473
族	-13474
虑	-13475
网	-13476
疑	-13477
害	-13478
测	-13479
充	-13480
图	-13481
私	-13482
拥	-13483
团	-13484
埃	-13485
坦	-13486
额	-13487
清	-13488
胁	-13489
避	-13490
恐	-13491
宣	-13492
专	-13493
思	-13494
伦	-13495
便	-13496
胀	-13497
头	-13498
段	-13499
贫	-13500
庭	-13501
份	-13502
苏	-13503
缩	-13504
坏	-13505
干	-13506
石	-13507
城	-13508
暴	-13509
付	-13510
迫	-13511
层	-13512
广	-13513
律	-13514
g	-13515
均	-13516
股	-13517
验	-13518
死	-13519
张	-13520
键	-13521
油	-13522
波	-13523
述	-13524
空	-13525
满	-13526
短	-13527
伯	-13528
武	-13529
陷	-13530
错	-13531
营	-13532
估	-13533
器	-13534
轻	-13535
较	-13536
互	-13537
y	-13538
票	-13539
束	-13540
卡	-13541
《	-13542
》	-13543
景	-13544
执	-13545
周	-13546
脱	-13547
四	-13548
E	-13549
你	-13550
密	-13551
卫	-13552
走	-13553
阻	-13554
哈	-13555
查	-13556
针	-13557
援	-13558
刺	-13559
汇	-13560
院	-13561
台	-13562
差	-13563
料	-13564
精	-13565
早	-13566
促	-13567
健	-13568
曾	-13569
损	-13570
儿	-13571
T	-13572
帮	-13573
借	-13574
智	-13575
席	-13576
优	-13577
抗	-13578
积	-13579
端	-13580
百	-13581
误	-13582
R	-13583
哥	-13584
角	-13585
福	-13586
批	-13587
围	-13588
塞	-13589
适	-13590
停	-13591
线	-13592
吸	-13593
补	-13594
B	-13595
房	-13596
裁	-13597
范	-13598
券	-13599
缓	-13600
削	-13601
剧	-13602
虽	-13603
队	-13604
p	-13605
乌	-13606
b	-13607
顿	-13608
记	-13609
声	-13610
职	-13611
靠	-13612
念	-13613
群	-13614
赤	-13615
底	-13616
遭	-13617
五	-13618
勒	-13619
演	-13620
她	-13621
老	-13622
幅	-13623
久	-13624
抵	-13625
繁	-13626
努	-13627
半	-13628
住	-13629
双	-13630
励	-13631
恶	-13632
康	-13633
药	-13634
待	-13635
士	-13636
寻	-13637
食	-13638
f	-13639
尤	-13640
温	-13641
牙	-13642
伴	-13643
胜	-13644
配	-13645
习	-13646
荣	-13647
潜	-13648
买	-13649
趋	-13650
找	-13651
倍	-13652
鲁	-13653
坚	-13654
京	-13655
白	-13656
户	-13657
染	-13658
阶	-13659
警	-13660
释	-13661
序	-13662
衰	-13663
肯	-13664
爆	-13665
简	-13666
萨	-13667
留	-13668
落	-13669
客	-13670
碳	-13671
讨	-13672
耳	-13673
办	-13674
急	-13675
车	-13676
k	-13677
邦	-13678
赖	-13679
华	-13680
穆	-13681
班	-13682
奇	-13683
连	-13684
杀	-13685
灾	-13686
谓	-13687
著	-13688
初	-13689
追	-13690
热	-13691
钱	-13692
鼓	-13693
购	-13694
沙	-13695
童	-13696
夫	-13697
察	-13698
刻	-13699
换	-13700
腊	-13701
松	-13702
毫	-13703
幸	-13704
州	-13705
罪	-13706
右	-13707
光	-13708
固	-13709
穷	-13710
假	-13711
左	-13712
朝	-13713
置	-13714
背	-13715
救	-13716
杂	-13717
竟	-13718
神	-13719
索	-13720
叙	-13721
怖	-13722
碍	-13723
归	-13724
亡	-13725
疾	-13726
鲜	-13727
居	-13728
泛	-13729
v	-13730
逐	-13731
犯	-13732
眼	-13733
乱	-13734
守	-13735
训	-13736
乏	-13737
唯	-13738
粹	-13739
燃	-13740
节	-13741
腐	-13742
N	-13743
修	-13744
毒	-13745
跨	-13746
障	-13747
讲	-13748
渐	-13749
良	-13750
跌	-13751
爱	-13752
蓄	-13753
媒	-13754
宗	-13755
闻	-13756
米	-13757
伙	-13758
黎	-13759
倒	-13760
异	-13761
友	-13762
烈	-13763
架	-13764
余	-13765
忧	-13766
乐	-13767
书	-13768
赢	-13769
洋	-13770
迅	-13771
征	-13772
敦	-13773
纽	-13774
裂	-13775
拒	-13776
延	-13777
弹	-13778
塔	-13779
毕	-13780
欢	-13781
禁	-13782
哪	-13783
微	-13784
既	-13785
游	-13786
花	-13787
姆	-13788
古	-13789
予	-13790
络	-13791
恰	-13792
默	-13793
号	-13794
弃	-13795
诉	-13796
陆	-13797
照	-13798
署	-13799
装	-13800
伤	-13801
崩	-13802
宽	-13803
千	-13804
韩	-13805
软	-13806
审	-13807
遏	-13808
刚	-13809
永	-13810
袖	-13811
侵	-13812
怀	-13813
瑞	-13814
遇	-13815
语	-13816
觉	-13817
斗	-13818
翼	-13819
O	-13820
签	-13821
惊	-13822
贬	-13823
亲	-13824
博	-13825
艾	-13826
拿	-13827
森	-13828
盖	-13829
偿	-13830
瓦	-13831
苦	-13832
允	-13833
托	-13834
缘	-13835
听	-13836
违	-13837
吗	-13838
峰	-13839
忽	-13840
细	-13841
养	-13842
梅	-13843
H	-13844
按	-13845
袭	-13846
属	-13847
汗	-13848
吉	-13849
盛	-13850
启	-13851
典	-13852
崛	-13853
黑	-13854
迎	-13855
累	-13856
妇	-13857
症	-13858
火	-13859
莫	-13860
享	-13861
宪	-13862
菲	-13863
呼	-13864
挥	-13865
涨	-13866
散	-13867
室	-13868
露	-13869
宏	-13870
偏	-13871
售	-13872
替	-13873
灭	-13874
邻	-13875
振	-13876
映	-13877
恩	-13878
析	-13879
概	-13880
荡	-13881
污	-13882
站	-13883
零	-13884
疫	-13885
销	-13886
w	-13887
慢	-13888
含	-13889
操	-13890
曼	-13891
框	-13892
L	-13893
纷	-13894
灵	-13895
诸	-13896
献	-13897
廷	-13898
攻	-13899
沃	-13900
J	-13901
岛	-13902
恢	-13903
贝	-13904
录	-13905
旦	-13906
诚	-13907
莱	-13908
毁	-13909
答	-13910
账	-13911
访	-13912
距	-13913
糟	-13914
混	-13915
顾	-13916
师	-13917
故	-13918
迪	-13919
志	-13920
遍	-13921
摆	-13922
硬	-13923
输	-13924
雷	-13925
驱	-13926
冷	-13927
溃	-13928
脆	-13929
贴	-13930
透	-13931
/	-13932
写	-13933
库	-13934
怎	-13935
掌	-13936
旧	-13937
校	-13938
夺	-13939
孩	-13940
符	-13941
港	-13942
呢	-13943
督	-13944
怕	-13945
涉	-13946
秩	-13947
刑	-13948
痛	-13949
癌	-13950
犹	-13951
滋	-13952
贡	-13953
佳	-13954
滞	-13955
喜	-13956
尊	-13957
片	-13958
遗	-13959
墨	-13960
暖	-13961
六	-13962
歧	-13963
泡	-13964
绪	-13965
蒂	-13966
尚	-13967
盈	-13968
休	-13969
脑	-13970
汽	-13971
丹	-13972
授	-13973
圣	-13974
覆	-13975
迈	-13976
套	-13977
彻	-13978
悲	-13979
烟	-13980
洛	-13981
辩	-13982
K	-13983
山	-13984
迹	-13985
楚	-13986
逃	-13987
糕	-13988
倾	-13989
培	-13990
膨	-13991
凯	-13992
旨	-13993
麦	-13994
撤	-13995
赞	-13996
播	-13997
铁	-13998
W	-13999
昂	-14000
径	-14001
沫	-14002
轮	-14003
患	-14004
怪	-14005
村	-14006
途	-14007
翻	-14008
丧	-14009
谁	-14010
氧	-14011
煤	-14012
秘	-14013
裕	-14014
剩	-14015
弗	-14016
血	-14017
齐	-14018
卢	-14019
闭	-14020
星	-14021
潮	-14022
耗	-14023
摩	-14024
敌	-14025
誉	-14026
"	-14027
雇	-14028
岁	-14029
岗	-14030
沉	-14031
检	-14032
润	-14033
罚	-14034
纵	-14035
艰	-14036
季	-14037
迟	-14038
末	-14039
八	-14040
帝	-14041
扰	-14042
扎	-14043
押	-14044
折	-14045
词	-14046
般	-14047
母	-14048
跟	-14049
赛	-14050
笔	-14051
隐	-14052
震	-14053
兑	-14054
鉴	-14055
吁	-14056
触	-14057
迷	-14058
湾	-14059
蒙	-14060
循	-14061
拖	-14062
慎	-14063
怒	-14064
残	-14065
抑	-14066
句	-14067
男	-14068
龄	-14069
登	-14070
版	-14071
藏	-14072
镇	-14073
召	-14074
泰	-14075
麻	-14076
奖	-14077
庞	-14078
捕	-14079
草	-14080
净	-14081
链	-14082
阵	-14083
九	-14084
描	-14085
香	-14086
聚	-14087
丁	-14088
掉	-14089
粮	-14090
勃	-14091
阳	-14092
厂	-14093
浪	-14094
纠	-14095
请	-14096
暗	-14097
音	-14098
V	-14099
熟	-14100
苗	-14101
省	-14102
坛	-14103
僚	-14104
握	-14105
撒	-14106
贵	-14107
焦	-14108
岸	-14109
扭	-14110
暂	-14111
顶	-14112
赫	-14113
河	-14114
探	-14115
谷	-14116
章	-14117
萧	-14118
飞	-14119
绿	-14120
废	-14121
谋	-14122
逊	-14123
缅	-14124
申	-14125
诊	-14126
若	-14127
遵	-14128
曲	-14129
宾	-14130
廉	-14131
拜	-14132
甸	-14133
z	-14134
扮	-14135
青	-14136
虚	-14137
逆	-14138
野	-14139
副	-14140
梦	-14141
红	-14142
揭	-14143
卖	-14144
筑	-14145
趣	-14146
冒	-14147
塑	-14148
订	-14149
佛	-14150
杆	-14151
U	-14152
徒	-14153
盘	-14154
孤	-14155
堪	-14156
妥	-14157
父	-14158
街	-14159
伟	-14160
雅	-14161
愤	-14162
狂	-14163
耐	-14164
座	-14165
茨	-14166
抱	-14167
渡	-14168
频	-14169
沿	-14170
疲	-14171
薪	-14172
雄	-14173
读	-14174
丰	-14175
杠	-14176
舞	-14177
霍	-14178
摇	-14179
皮	-14180
顺	-14181
惩	-14182
韦	-14183
七	-14184
宝	-14185
劲	-14186
御	-14187
旅	-14188
赋	-14189
龙	-14190
宫	-14191
截	-14192
滑	-14193
炸	-14194
辞	-14195
醒	-14196
仿	-14197
僵	-14198
彼	-14199
届	-14200
航	-14201
颇	-14202
坡	-14203
惧	-14204
忍	-14205
矛	-14206
撑	-14207
诱	-14208
板	-14209
歌	-14210
牌	-14211
赶	-14212
幕	-14213
捍	-14214
块	-14215
盾	-14216
抛	-14217
牲	-14218
荷	-14219
叶	-14220
植	-14221
洁	-14222
兵	-14223
尝	-14224
杰	-14225
辑	-14226
戏	-14227
澳	-14228
王	-14229
迁	-14230
剂	-14231
叛	-14232
契	-14233
脚	-14234
黄	-14235
抓	-14236
介	-14237
附	-14238
仰	-14239
拯	-14240
竭	-14241
夏	-14242
射	-14243
桑	-14244
隔	-14245
巩	-14246
烦	-14247
乔	-14248
坐	-14249
兄	-14250
洞	-14251
践	-14252
丝	-14253
扬	-14254
殊	-14255
劣	-14256
伐	-14257
卷	-14258
孟	-14259
奋	-14260
宜	-14261
愈	-14262
送	-14263
惠	-14264
滥	-14265
仇	-14266
萎	-14267
胡	-14268
斥	-14269
纯	-14270
纸	-14271
封	-14272
谨	-14273
弟	-14274
慌	-14275
春	-14276
漫	-14277
筹	-14278
轨	-14279
惑	-14280
渴	-14281
忘	-14282
牺	-14283
枪	-14284
津	-14285
渠	-14286
炭	-14287
翰	-14288
敏	-14289
葡	-14290
讯	-14291
唐	-14292
材	-14293
耶	-14294
萄	-14295
堡	-14296
摧	-14297
涌	-14298
兼	-14299
桥	-14300
砖	-14301
课	-14302
逻	-14303
霸	-14304
催	-14305
倡	-14306
壁	-14307
树	-14308
浮	-14309
胞	-14310
俗	-14311
晚	-14312
柏	-14313
祖	-14314
婚	-14315
招	-14316
漏	-14317
垒	-14318
尖	-14319
饱	-14320
园	-14321
惨	-14322
毛	-14323
酷	-14324
叫	-14325
冰	-14326
练	-14327
菌	-14328
怨	-14329
吃	-14330
妙	-14331
惯	-14332
跃	-14333
勇	-14334
峻	-14335
巧	-14336
幻	-14337
敢	-14338
洪	-14339
讽	-14340
x	-14341
欲	-14342
综	-14343
庇	-14344
戈	-14345
遥	-14346
朋	-14347
篇	-14348
豪	-14349
剥	-14350
厉	-14351
掩	-14352
页	-14353
吹	-14354
丑	-14355
佩	-14356
兹	-14357
戴	-14358
嫩	-14359
挤	-14360
捐	-14361
稀	-14362
~	-14363
帕	-14364
泽	-14365
恨	-14366
旗	-14367
牛	-14368
肥	-14369
荒	-14370
弥	-14371
殖	-14372
皇	-14373
绕	-14374
垄	-14375
杜	-14376
胆	-14377
董	-14378
静	-14379
鱼	-14380
赌	-14381
辛	-14382
辱	-14383
谴	-14384
饥	-14385
骤	-14386
填	-14387
奉	-14388
潘	-14389
狭	-14390
礼	-14391
艺	-14392
阴	-14393
肆	-14394
狱	-14395
矿	-14396
衷	-14397
岩	-14398
忆	-14399
厌	-14400
墙	-14401
猛	-14402
芬	-14403
剑	-14404
呈	-14405
屋	-14406
木	-14407
沦	-14408
穿	-14409
肉	-14410
酒	-14411
驾	-14412
披	-14413
饮	-14414
乃	-14415
履	-14416
绩	-14417
裔	-14418
踪	-14419
雨	-14420
’	-14421
亦	-14422
榜	-14423
番	-14424
疟	-14425
糊	-14426
陈	-14427
屠	-14428
晰	-14429
欠	-14430
欺	-14431
汉	-14432
玛	-14433
蔓	-14434
匈	-14435
编	-14436
罕	-14437
颠	-14438
坎	-14439
携	-14440
递	-14441
厚	-14442
挪	-14443
沟	-14444
虐	-14445
诞	-14446
酬	-14447
阱	-14448
骗	-14449
庆	-14450
挽	-14451
船	-14452
蛋	-14453
贯	-14454
凭	-14455
宰	-14456
淡	-14457
煽	-14458
镑	-14459
牢	-14460
牵	-14461
靡	-14462
屈	-14463
旺	-14464
李	-14465
钢	-14466
!	-14467
俱	-14468
旱	-14469
夸	-14470
扣	-14471
捷	-14472
丽	-14473
厄	-14474
贾	-14475
驻	-14476
坝	-14477
床	-14478
烧	-14479
田	-14480
馆	-14481
返	-14482
j	-14483
堂	-14484
夜	-14485
辅	-14486
钟	-14487
弊	-14488
详	-14489
迄	-14490
悬	-14491
隆	-14492
隘	-14493
割	-14494
匹	-14495
挠	-14496
婴	-14497
宁	-14498
画	-14499
脏	-14500
锁	-14501
⁄	-14502
恋	-14503
慈	-14504
擎	-14505
薄	-14506
凸	-14507
浦	-14508
漠	-14509
赚	-14510
饿	-14511
寿	-14512
店	-14513
忠	-14514
敬	-14515
租	-14516
衣	-14517
询	-14518
阁	-14519
伪	-14520
侧	-14521
锡	-14522
奏	-14523
孕	-14524
彩	-14525
横	-14526
餐	-14527
液	-14528
肃	-14529
贩	-14530
雪	-14531
孙	-14532
笑	-14533
谢	-14534
惜	-14535
搜	-14536
舍	-14537
豫	-14538
飙	-14539
Y	-14540
吞	-14541
奈	-14542
臣	-14543
妨	-14544
拨	-14545
沮	-14546
哲	-14547
壮	-14548
柱	-14549
涵	-14550
庄	-14551
慑	-14552
扫	-14553
挡	-14554
洗	-14555
渔	-14556
锋	-14557
云	-14558
刊	-14559
堆	-14560
寄	-14561
攀	-14562
碎	-14563
缔	-14564
载	-14565
偶	-14566
崇	-14567
慨	-14568
拟	-14569
甘	-14570
瞩	-14571
磨	-14572
籍	-14573
辖	-14574
Q	-14575
圈	-14576
娜	-14577
忙	-14578
慧	-14579
胎	-14580
飓	-14581
秀	-14582
亨	-14583
卓	-14584
吨	-14585
愚	-14586
•	-14587
池	-14588
浓	-14589
姿	-14590
弄	-14591
棋	-14592
氏	-14593
江	-14594
邓	-14595
顽	-14596
骚	-14597
亮	-14598
凝	-14599
悉	-14600
棘	-14601
欣	-14602
溢	-14603
羞	-14604
邮	-14605
册	-14606
庸	-14607
抽	-14608
挣	-14609
码	-14610
乳	-14611
伸	-14612
赐	-14613
仔	-14614
傲	-14615
凡	-14616
旋	-14617
楼	-14618
绘	-14619
绸	-14620
缴	-14621
钩	-14622
钻	-14623
挫	-14624
猩	-14625
衍	-14626
跳	-14627
锐	-14628
吧	-14629
寨	-14630
搞	-14631
驳	-14632
q	-14633
咎	-14634
杯	-14635
歇	-14636
睹	-14637
筛	-14638
脸	-14639
舒	-14640
谎	-14641
贪	-14642
魔	-14643
卿	-14644
吓	-14645
挺	-14646
蚀	-14647
仁	-14648
尾	-14649
泄	-14650
涯	-14651
猜	-14652
逮	-14653
牧	-14654
糖	-14655
葛	-14656
讼	-14657
饭	-14658
°	-14659
乡	-14660
慷	-14661
扼	-14662
旁	-14663
晋	-14664
玩	-14665
裸	-14666
魅	-14667
奴	-14668
碰	-14669
诈	-14670
贿	-14671
囚	-14672
悖	-14673
疯	-14674
稍	-14675
聪	-14676
抨	-14677
炮	-14678
谬	-14679
妻	-14680
祉	-14681
箱	-14682
虫	-14683
讶	-14684
宅	-14685
甲	-14686
耀	-14687
辙	-14688
邀	-14689
拔	-14690
晤	-14691
珍	-14692
瓜	-14693
蠢	-14694
遣	-14695
氛	-14696
耻	-14697
辜	-14698
亏	-14699
君	-14700
奠	-14701
绑	-14702
蓝	-14703
丘	-14704
扶	-14705
伍	-14706
勾	-14707
卜	-14708
尘	-14709
拓	-14710
挂	-14711
泥	-14712
溯	-14713
瑟	-14714
盗	-14715
盲	-14716
肺	-14717
腺	-14718
邪	-14719
咨	-14720
壤	-14721
宇	-14722
摄	-14723
歉	-14724
腾	-14725
佣	-14726
埔	-14727
嫌	-14728
惕	-14729
抬	-14730
柬	-14731
汲	-14732
炼	-14733
玻	-14734
轰	-14735
饰	-14736
刀	-14737
寡	-14738
川	-14739
悄	-14740
慕	-14741
粗	-14742
辈	-14743
颁	-14744
募	-14745
揽	-14746
氦	-14747
泉	-14748
肿	-14749
詹	-14750
丢	-14751
奶	-14752
拙	-14753
捞	-14754
曝	-14755
芝	-14756
誓	-14757
貌	-14758
逼	-14759
铺	-14760
骨	-14761
灯	-14762
羊	-14763
耕	-14764
钞	-14765
阅	-14766
Z	-14767
偷	-14768
抚	-14769
添	-14770
灰	-14771
皆	-14772
祝	-14773
箭	-14774
虎	-14775
踏	-14776
阐	-14777
鸡	-14778
喀	-14779
峡	-14780
役	-14781
恒	-14782
抹	-14783
掘	-14784
枯	-14785
涅	-14786
灌	-14787
瘤	-14788
祸	-14789
臭	-14790
舆	-14791
莎	-14792
诗	-14793
兆	-14794
凶	-14795
劫	-14796
抢	-14797
拆	-14798
畴	-14799
苹	-14800
堵	-14801
徙	-14802
戮	-14803
昭	-14804
秋	-14805
胖	-14806
赔	-14807
闹	-14808
魁	-14809
冻	-14810
宙	-14811
崖	-14812
慰	-14813
戒	-14814
拘	-14815
撞	-14816
桶	-14817
疏	-14818
瘫	-14819
粉	-14820
肩	-14821
赏	-14822
辆	-14823
逢	-14824
啸	-14825
姓	-14826
帐	-14827
弈	-14828
忌	-14829
昔	-14830
朱	-14831
熊	-14832
痪	-14833
篮	-14834
驶	-14835
+	-14836
伏	-14837
撰	-14838
炎	-14839
窃	-14840
蓬	-14841
蛮	-14842
井	-14843
奢	-14844
寸	-14845
擦	-14846
械	-14847
瞻	-14848
缚	-14849
豁	-14850
阔	-14851
馈	-14852
鬼	-14853
佐	-14854
喻	-14855
夕	-14856
掠	-14857
眉	-14858
笼	-14859
诽	-14860
谐	-14861
谤	-14862
侣	-14863
敲	-14864
柯	-14865
琳	-14866
盯	-14867
硅	-14868
纲	-14869
罢	-14870
舰	-14871
菜	-14872
豆	-14873
镜	-14874
闲	-14875
é	-14876
‘	-14877
坠	-14878
朴	-14879
桌	-14880
呆	-14881
塌	-14882
憾	-14883
拢	-14884
挖	-14885
捉	-14886
烂	-14887
谱	-14888
鲍	-14889
乘	-14890
仓	-14891
仗	-14892
匮	-14893
渗	-14894
瓶	-14895
疆	-14896
辨	-14897
冠	-14898
幽	-14899
浅	-14900
X	-14901
孔	-14902
尸	-14903
悔	-14904
拍	-14905
熙	-14906
畜	-14907
痕	-14908
蹈	-14909
钦	-14910
哀	-14911
垮	-14912
婪	-14913
幼	-14914
彰	-14915
摸	-14916
睫	-14917
聘	-14918
腰	-14919
蒸	-14920
躲	-14921
酿	-14922
钓	-14923
铜	-14924
仪	-14925
凌	-14926
匿	-14927
叹	-14928
拾	-14929
搭	-14930
晓	-14931
漂	-14932
烷	-14933
莽	-14934
译	-14935
赂	-14936
赠	-14937
颜	-14938
午	-14939
噩	-14940
宿	-14941
怜	-14942
懈	-14943
拼	-14944
棒	-14945
腥	-14946
谍	-14947
郎	-14948
铭	-14949
侈	-14950
枚	-14951
柔	-14952
梁	-14953
缠	-14954
赴	-14955
颈	-14956
冬	-14957
峙	-14958
昆	-14959
槛	-14960
涛	-14961
痹	-14962
瘾	-14963
蔑	-14964
锦	-14965
阀	-14966
隶	-14967
驰	-14968
鸦	-14969
剔	-14970
卸	-14971
喊	-14972
囊	-14973
妄	-14974
寒	-14975
搬	-14976
窗	-14977
耸	-14978
苛	-14979
蔽	-14980
轴	-14981
辉	-14982
唤	-14983
奔	-14984
娱	-14985
寥	-14986
撮	-14987
珠	-14988
砍	-14989
礁	-14990
窄	-14991
肘	-14992
裨	-14993
闪	-14994
鸣	-14995
黯	-14996
尺	-14997
岌	-14998
旬	-14999
纺	-15000
翁	-15001
艇	-15002
衅	-15003
迭	-15004
钉	-15005
霜	-15006
靖	-15007
骄	-15008
串	-15009
圾	-15010
垃	-15011
徊	-15012
徘	-15013
您	-15014
掀	-15015
溉	-15016
碑	-15017
逝	-15018
雾	-15019
奸	-15020
懂	-15021
畏	-15022
痴	-15023
茫	-15024
侯	-15025
嚣	-15026
尿	-15027
屿	-15028
汰	-15029
淘	-15030
濒	-15031
脉	-15032
谅	-15033
乍	-15034
劝	-15035
姻	-15036
屏	-15037
插	-15038
摊	-15039
撕	-15040
擅	-15041
攫	-15042
稼	-15043
粒	-15044
肝	-15045
铀	-15046
乙	-15047
刷	-15048
埋	-15049
瞒	-15050
茶	-15051
葬	-15052
衔	-15053
赎	-15054
赦	-15055
辟	-15056
郁	-15057
鸟	-15058
勉	-15059
勤	-15060
厅	-15061
叠	-15062
屡	-15063
畅	-15064
缝	-15065
缪	-15066
刃	-15067
垂	-15068
巡	-15069
悠	-15070
愉	-15071
汹	-15072
淆	-15073
湖	-15074
澜	-15075
跑	-15076
酸	-15077
韧	-15078
鼠	-15079
仲	-15080
儒	-15081
咄	-15082
嘲	-15083
堕	-15084
岭	-15085
忡	-15086
扯	-15087
旷	-15088
枢	-15089
澄	-15090
狼	-15091
琐	-15092
肮	-15093
酋	-15094
酝	-15095
丈	-15096
厘	-15097
嘴	-15098
址	-15099
尬	-15100
尴	-15101
掣	-15102
槿	-15103
毋	-15104
渺	-15105
甩	-15106
舌	-15107
螺	-15108
袋	-15109
阈	-15110
颗	-15111
刘	-15112
咒	-15113
喇	-15114
壳	-15115
姗	-15116
彭	-15117
斜	-15118
栖	-15119
档	-15120
氢	-15121
泊	-15122
猪	-15123
聊	-15124
蚊	-15125
讳	-15126
饲	-15127
鸿	-15128
鹅	-15129
[	-15130
]	-15131
仑	-15132
俩	-15133
喝	-15134
坞	-15135
夹	-15136
妹	-15137
寓	-15138
恼	-15139
憎	-15140
撼	-15141
梯	-15142
殆	-15143
淹	-15144
炉	-15145
猎	-15146
谜	-15147
跻	-15148
酵	-15149
勘	-15150
卑	-15151
喘	-15152
夭	-15153
妓	-15154
崭	-15155
磋	-15156
罩	-15157
腹	-15158
藉	-15159
醇	-15160
陶	-15161
鹰	-15162
鼻	-15163
伎	-15164
倦	-15165
兜	-15166
劾	-15167
县	-15168
叉	-15169
啻	-15170
悟	-15171
惮	-15172
斤	-15173
朔	-15174
栏	-15175
滩	-15176
狗	-15177
á	-15178
唱	-15179
噬	-15180
悦	-15181
柴	-15182
渊	-15183
珊	-15184
肤	-15185
胃	-15186
蕴	-15187
诫	-15188
贺	-15189
躁	-15190
辐	-15191
骑	-15192
魂	-15193
鼎	-15194
俑	-15195
冗	-15196
啡	-15197
孚	-15198
宴	-15199
憧	-15200
憬	-15201
敞	-15202
殴	-15203
煌	-15204
爵	-15205
猿	-15206
绳	-15207
聆	-15208
荐	-15209
蛇	-15210
蹂	-15211
躏	-15212
逍	-15213
雕	-15214
侮	-15215
冈	-15216
删	-15217
厦	-15218
吵	-15219
嘛	-15220
圭	-15221
姐	-15222
娅	-15223
嫁	-15224
孱	-15225
帖	-15226
拳	-15227
摘	-15228
杉	-15229
滴	-15230
狐	-15231
玉	-15232
眠	-15233
秉	-15234
笃	-15235
肌	-15236
蔬	-15237
遮	-15238
鄙	-15239
陋	-15240
陌	-15241
顷	-15242
佬	-15243
咖	-15244
嘉	-15245
垫	-15246
惟	-15247
搁	-15248
涂	-15249
湿	-15250
滚	-15251
腕	-15252
览	-15253
谊	-15254
俘	-15255
僧	-15256
囤	-15257
圆	-15258
坑	-15259
墟	-15260
妮	-15261
宠	-15262
掏	-15263
曙	-15264
涡	-15265
滤	-15266
畸	-15267
睁	-15268
秒	-15269
罹	-15270
萌	-15271
蜂	-15272
谣	-15273
铝	-15274
铲	-15275
鞋	-15276
颖	-15277
侦	-15278
喷	-15279
姑	-15280
宛	-15281
巾	-15282
彦	-15283
氓	-15284
沾	-15285
浇	-15286
溺	-15287
睡	-15288
稽	-15289
腿	-15290
芯	-15291
茅	-15292
谦	-15293
逾	-15294
颓	-15295
飘	-15296
骇	-15297
噪	-15298
扑	-15299
拷	-15300
淋	-15301
淫	-15302
猖	-15303
獗	-15304
盎	-15305
睛	-15306
矶	-15307
磁	-15308
禧	-15309
稚	-15310
窥	-15311
笨	-15312
芽	-15313
裙	-15314
裹	-15315
遴	-15316
郊	-15317
醉	-15318
铸	-15319
陪	-15320
&	-15321
勿	-15322
厢	-15323
圳	-15324
奎	-15325
惹	-15326
拦	-15327
摒	-15328
斐	-15329
斑	-15330
昧	-15331
晨	-15332
汤	-15333
猫	-15334
砸	-15335
碗	-15336
祈	-15337
稻	-15338
窝	-15339
绌	-15340
绍	-15341
臂	-15342
艘	-15343
雀	-15344
颂	-15345
驭	-15346
í	-15347
亟	-15348
兽	-15349
匆	-15350
啊	-15351
夷	-15352
嫉	-15353
捏	-15354
晦	-15355
橙	-15356
浩	-15357
狄	-15358
窒	-15359
筋	-15360
纾	-15361
胸	-15362
脊	-15363
虔	-15364
诡	-15365
趁	-15366
跚	-15367
蹒	-15368
魏	-15369
―	-15370
仙	-15371
侨	-15372
凑	-15373
吾	-15374
咋	-15375
喉	-15376
墓	-15377
娩	-15378
帜	-15379
弯	-15380
敛	-15381
斩	-15382
枝	-15383
柳	-15384
歪	-15385
氮	-15386
汀	-15387
浸	-15388
湄	-15389
焚	-15390
犬	-15391
祭	-15392
穴	-15393
诅	-15394
贱	-15395
踢	-15396
踩	-15397
辍	-15398
郭	-15399
驯	-15400
髓	-15401
<	-15402
>	-15403
倘	-15404
刹	-15405
喋	-15406
堤	-15407
媲	-15408
巢	-15409
廊	-15410
戚	-15411
扔	-15412
抉	-15413
挝	-15414
掷	-15415
爬	-15416
瑚	-15417
疹	-15418
盐	-15419
肚	-15420
芒	-15421
莉	-15422
袒	-15423
裤	-15424
踌	-15425
躇	-15426
锚	-15427
鲨	-15428
丛	-15429
倪	-15430
嗤	-15431
妈	-15432
巫	-15433
拱	-15434
攸	-15435
昨	-15436
杭	-15437
桩	-15438
棱	-15439
渎	-15440
炫	-15441
盼	-15442
睐	-15443
瞬	-15444
磅	-15445
禽	-15446
窘	-15447
胚	-15448
臃	-15449
蒋	-15450
诠	-15451
踵	-15452
鞭	-15453
骂	-15454
鹫	-15455
ü	-15456
俯	-15457
剖	-15458
吴	-15459
哨	-15460
嘘	-15461
坊	-15462
宋	-15463
寺	-15464
屑	-15465
帅	-15466
恭	-15467
扪	-15468
捧	-15469
梭	-15470
棉	-15471
沼	-15472
涩	-15473
炒	-15474
焕	-15475
煎	-15476
熄	-15477
熬	-15478
玷	-15479
琼	-15480
盆	-15481
瞄	-15482
矩	-15483
祷	-15484
纱	-15485
绊	-15486
蜜	-15487
袤	-15488
诀	-15489
霉	-15490
伞	-15491
倚	-15492
凉	-15493
吻	-15494
啦	-15495
寂	-15496
庙	-15497
搅	-15498
栋	-15499
氯	-15500
汶	-15501
淖	-15502
溪	-15503
璃	-15504
皂	-15505
矢	-15506
纤	-15507
绥	-15508
罔	-15509
羁	-15510
肇	-15511
肾	-15512
衬	-15513
迥	-15514
饼	-15515
俾	-15516
勋	-15517
吕	-15518
哮	-15519
喧	-15520
奄	-15521
娼	-15522
嫖	-15523
寝	-15524
嵌	-15525
帽	-15526
惰	-15527
惶	-15528
暇	-15529
株	-15530
殃	-15531
毅	-15532
淀	-15533
滨	-15534
潭	-15535
爽	-15536
痢	-15537
窟	-15538
竿	-15539
粘	-15540
肢	-15541
藐	-15542
觅	-15543
觑	-15544
铅	-15545
齿	-15546
亩	-15547
俭	-15548
兀	-15549
卵	-15550
吐	-15551
哦	-15552
唾	-15553
壑	-15554
娘	-15555
孵	-15556
帷	-15557
幌	-15558
弘	-15559
弦	-15560
弭	-15561
恣	-15562
愧	-15563
挟	-15564
撇	-15565
昏	-15566
暧	-15567
朽	-15568
梳	-15569
涓	-15570
炬	-15571
烛	-15572
焉	-15573
狡	-15574
盒	-15575
禀	-15576
羡	-15577
羽	-15578
肖	-15579
苟	-15580
蚕	-15581
蜡	-15582
袱	-15583
诋	-15584
辕	-15585
逸	-15586
酶	-15587
钵	-15588
隙	-15589
哺	-15590
囹	-15591
圄	-15592
墉	-15593
妖	-15594
崎	-15595
忏	-15596
捆	-15597
掺	-15598
杨	-15599
榄	-15600
榨	-15601
橄	-15602
泪	-15603
泻	-15604
漩	-15605
牟	-15606
瘟	-15607
瘦	-15608
睦	-15609
碌	-15610
紊	-15611
纹	-15612
缕	-15613
罐	-15614
芜	-15615
苍	-15616
荼	-15617
蛊	-15618
诟	-15619
辽	-15620
遂	-15621
郑	-15622
闷	-15623
陵	-15624
饶	-15625
ó	-15626
–	-15627
侪	-15628
傻	-15629
冉	-15630
凿	-15631
匪	-15632
厕	-15633
咬	-15634
哗	-15635
哭	-15636
唉	-15637
嗜	-15638
噤	-15639
坟	-15640
姬	-15641
巅	-15642
恙	-15643
懒	-15644
挨	-15645
晴	-15646
晶	-15647
柄	-15648
泳	-15649
焰	-15650
珀	-15651
硕	-15652
碱	-15653
秃	-15654
粪	-15655
纭	-15656
绞	-15657
缉	-15658
藻	-15659
虏	-15660
诃	-15661
蹊	-15662
陀	-15663
雏	-15664
魄	-15665
#	-15666
仆	-15667
凄	-15668
厨	-15669
嘎	-15670
嚷	-15671
夥	-15672
孜	-15673
帆	-15674
廓	-15675
弛	-15676
怯	-15677
恃	-15678
扳	-15679
揣	-15680
搏	-15681
撬	-15682
斧	-15683
栗	-15684
梗	-15685
棣	-15686
沈	-15687
沛	-15688
泵	-15689
浑	-15690
涸	-15691
渥	-15692
溜	-15693
熔	-15694
燥	-15695
爪	-15696
甫	-15697
痒	-15698
睿	-15699
矮	-15700
磕	-15701
稿	-15702
竖	-15703
篱	-15704
簸	-15705
缛	-15706
胶	-15707
萝	-15708
萦	-15709
蒿	-15710
蕾	-15711
蛛	-15712
襟	-15713
赁	-15714
赡	-15715
蹶	-15716
逞	-15717
遑	-15718
鸽	-15719
ä	-15720
丸	-15721
冯	-15722
函	-15723
刮	-15724
剪	-15725
叔	-15726
吝	-15727
吠	-15728
呕	-15729
啤	-15730
坷	-15731
壕	-15732
屁	-15733
巷	-15734
怂	-15735
悍	-15736
悚	-15737
惫	-15738
戳	-15739
捣	-15740
斡	-15741
昌	-15742
枭	-15743
桎	-15744
梏	-15745
榷	-15746
毗	-15747
沂	-15748
溶	-15749
狠	-15750
狸	-15751
疮	-15752
瞎	-15753
祥	-15754
竹	-15755
绎	-15756
绰	-15757
羹	-15758
肠	-15759
膏	-15760
茁	-15761
藩	-15762
蛾	-15763
褓	-15764
襁	-15765
讦	-15766
诘	-15767
诛	-15768
谕	-15769
谚	-15770
贤	-15771
跛	-15772
轿	-15773
锅	-15774
镀	-15775
霾	-15776
驴	-15777
骆	-15778
鹿	-15779
è	-15780
ö	-15781
丙	-15782
乞	-15783
侍	-15784
傀	-15785
儡	-15786
吊	-15787
咳	-15788
咸	-15789
咽	-15790
喂	-15791
妆	-15792
婉	-15793
孽	-15794
寇	-15795
恕	-15796
恫	-15797
恿	-15798
暑	-15799
枷	-15800
梵	-15801
棵	-15802
椅	-15803
橡	-15804
歹	-15805
沸	-15806
洼	-15807
洽	-15808
浆	-15809
浏	-15810
漆	-15811
漓	-15812
炙	-15813
烙	-15814
烹	-15815
煞	-15816
燎	-15817
犀	-15818
猾	-15819
琉	-15820
琴	-15821
瘠	-15822
癖	-15823
硝	-15824
篷	-15825
簿	-15826
紫	-15827
缄	-15828
缭	-15829
罄	-15830
肋	-15831
胺	-15832
芭	-15833
茂	-15834
蜘	-15835
躬	-15836
躺	-15837
辄	-15838
钚	-15839
钝	-15840
钥	-15841
隧	-15842
霄	-15843
饪	-15844
髦	-15845
鳌	-15846
鸠	-15847
鸭	-15848
鹤	-15849
龟	-15850
ç	-15851
傍	-15852
剽	-15853
匀	-15854
吟	-15855
咆	-15856
咫	-15857
唇	-15858
啬	-15859
墅	-15860
徐	-15861
恪	-15862
恳	-15863
悯	-15864
懊	-15865
戛	-15866
拐	-15867
拧	-15868
挚	-15869
擘	-15870
敷	-15871
昙	-15872
朵	-15873
杞	-15874
棍	-15875
殿	-15876
氟	-15877
泣	-15878
淌	-15879
瀑	-15880
灶	-15881
爷	-15882
狩	-15883
猴	-15884
甜	-15885
疚	-15886
疵	-15887
睬	-15888
瞪	-15889
矫	-15890
硫	-15891
碾	-15892
稠	-15893
稣	-15894
绵	-15895
绽	-15896
缆	-15897
胥	-15898
膝	-15899
臻	-15900
舶	-15901
荫	-15902
蕉	-15903
蝇	-15904
讧	-15905
贼	-15906
轩	-15907
酪	-15908
锈	-15909
锻	-15910
闯	-15911
陡	-15912
韬	-15913
亥	-15914
侠	-15915
侥	-15916
僻	-15917
兢	-15918
冀	-15919
冕	-15920
冥	-15921
匙	-15922
匝	-15923
厥	-15924
哄	-15925
唆	-15926
喹	-15927
坪	-15928
妒	-15929
姊	-15930
岑	-15931
岖	-15932
弧	-15933
挞	-15934
摔	-15935
攒	-15936
枕	-15937
栽	-15938
椭	-15939
楷	-15940
槽	-15941
毯	-15942
沁	-15943
沧	-15944
沪	-15945
泼	-15946
浴	-15947
澡	-15948
烁	-15949
牍	-15950
牒	-15951
猝	-15952
猬	-15953
瑕	-15954
瑰	-15955
疼	-15956
眈	-15957
碧	-15958
窜	-15959
篡	-15960
绒	-15961
绷	-15962
耍	-15963
腔	-15964
膀	-15965
舵	-15966
艳	-15967
芦	-15968
萃	-15969
薯	-15970
藤	-15971
蜃	-15972
衫	-15973
谙	-15974
赘	-15975
赵	-15976
蹲	-15977
蹴	-15978
酗	-15979
酮	-15980
钨	-15981
铐	-15982
锤	-15983
闸	-15984
靶	-15985
鲸	-15986
鳄	-15987
@	-15988
ã	-15989
ł	-15990
乒	-15991
乓	-15992
仕	-15993
伺	-15994
伽	-15995
